{"<unk>":0,"<pad>":1,"<bos>":2,"<eos>":3,"<user>":4,"<bot>":5,"!":6,"\"":7,"#":8,"$":9,"%":10,"&":11,"'":12,"(":13,")":14,"*":15,"+":16,",":17,"-":18,".":19,"/":20,"0":21,"1":22,"2":23,"3":24,"4":25,"5":26,"6":27,"7":28,"8":29,"9":30,":":31,";":32,"<":33,"=":34,">":35,"?":36,"@":37,"A":38,"B":39,"C":40,"D":41,"E":42,"F":43,"G":44,"H":45,"I":46,"J":47,"K":48,"L":49,"M":50,"N":51,"O":52,"P":53,"Q":54,"R":55,"S":56,"T":57,"U":58,"V":59,"W":60,"X":61,"Y":62,"Z":63,"[":64,"\\":65,"]":66,"^":67,"_":68,"`":69,"a":70,"b":71,"c":72,"d":73,"e":74,"f":75,"g":76,"h":77,"i":78,"j":79,"k":80,"l":81,"m":82,"n":83,"o":84,"p":85,"q":86,"r":87,"s":88,"t":89,"u":90,"v":91,"w":92,"x":93,"y":94,"z":95,"{":96,"|":97,"}":98,"~":99,"¡":100,"¢":101,"£":102,"¤":103,"¥":104,"¦":105,"§":106,"¨":107,"©":108,"ª":109,"«":110,"¬":111,"®":112,"¯":113,"°":114,"±":115,"²":116,"³":117,"´":118,"µ":119,"¶":120,"·":121,"¸":122,"¹":123,"º":124,"»":125,"¼":126,"½":127,"¾":128,"¿":129,"À":130,"Á":131,"Â":132,"Ã":133,"Ä":134,"Å":135,"Æ":136,"Ç":137,"È":138,"É":139,"Ê":140,"Ë":141,"Ì":142,"Í":143,"Î":144,"Ï":145,"Ð":146,"Ñ":147,"Ò":148,"Ó":149,"Ô":150,"Õ":151,"Ö":152,"×":153,"Ø":154,"Ù":155,"Ú":156,"Û":157,"Ü":158,"Ý":159,"Þ":160,"ß":161,"à":162,"á":163,"â":164,"ã":165,"ä":166,"å":167,"æ":168,"ç":169,"è":170,"é":171,"ê":172,"ë":173,"ì":174,"í":175,"î":176,"ï":177,"ð":178,"ñ":179,"ò":180,"ó":181,"ô":182,"õ":183,"ö":184,"÷":185,"ø":186,"ù":187,"ú":188,"û":189,"ü":190,"ý":191,"þ":192,"ÿ":193,"Ā":194,"ā":195,"Ă":196,"ă":197,"Ą":198,"ą":199,"Ć":200,"ć":201,"Ĉ":202,"ĉ":203,"Ċ":204,"ċ":205,"Č":206,"č":207,"Ď":208,"ď":209,"Đ":210,"đ":211,"Ē":212,"ē":213,"Ĕ":214,"ĕ":215,"Ė":216,"ė":217,"Ę":218,"ę":219,"Ě":220,"ě":221,"Ĝ":222,"ĝ":223,"Ğ":224,"ğ":225,"Ġ":226,"ġ":227,"Ģ":228,"ģ":229,"Ĥ":230,"ĥ":231,"Ħ":232,"ħ":233,"Ĩ":234,"ĩ":235,"Ī":236,"ī":237,"Ĭ":238,"ĭ":239,"Į":240,"į":241,"İ":242,"ı":243,"Ĳ":244,"ĳ":245,"Ĵ":246,"ĵ":247,"Ķ":248,"ķ":249,"ĸ":250,"Ĺ":251,"ĺ":252,"Ļ":253,"ļ":254,"Ľ":255,"ľ":256,"Ŀ":257,"ŀ":258,"Ł":259,"ł":260,"Ń":261,"Ġt":262,"Ġa":263,"in":264,"he":265,"re":266,"Ġs":267,"on":268,"er":269,"Ġthe":270,"Ġc":271,"at":272,"nd":273,"or":274,"es":275,"en":276,"Ġw":277,"ou":278,"ing":279,"it":280,"Ġp":281,"Ġand":282,"an":283,"Ġf":284,"al":285,"Ġo":286,"is":287,"Ġm":288,"Ġto":289,"Ġb":290,"ed":291,"Ġin":292,"ar":293,"ion":294,"Ġd":295,"Ġof":296,"ic":297,"le":298,"ro":299,"Ġh":300,"as":301,"Ġe":302,"ent":303,"om":304,"Ġth":305,"ve":306,"Ġre":307,"ct":308,"us":309,"il":310,"ĠĠ":311,"Ġl":312,"ĠT":313,"Ġy":314,"et":315,"Ġg":316,"Ġyou":317,"ra":318,"im":319,"id":320,"Ġn":321,"ow":322,"ce":323,"ch":324,"Ġfor":325,"ĠI":326,"el":327,"ation":328,"Ġst":329,"Ġhe":330,"ol":331,"Ġthat":332,"st":333,"čĊ":334,"ig":335,"Ġon":336,"Ġpro":337,"ith":338,"ers":339,"ir":340,"ut":341,"ly":342,"Ġbe":343,"ot":344,"ĠS":345,"ĠC":346,"Ġwith":347,"am":348,"ĠA":349,"ad":350,"Ġis":351,"ur":352,"ĠThe":353,"if":354,"ist":355,"ay":356,"ant":357,"ul":358,"ess":359,"ver":360,"ss":361,"un":362,"se":363,"Ġor":364,"Ġcon":365,"Ġcan":366,"Ġex":367,"ure":368,"ate":369,"Ġit":370,"Ġal":371,"Ġan":372,"ag":373,"ment":374,"ore":375,"ke":376,"pp":377,"ab":378,"Ġsu":379,"Ġare":380,"Ġcom":381,"Ġas":382,"out":383,"ive":384,"Ġus":385,"Ġwh":386,"Ġv":387,"ĠĠĠĠ":388,"ies":389,"ere":390,"ld":391,"Ġde":392,"oo":393,"iv":394,"her":395,"ity":396,"pe":397,"qu":398,"'s":399,"Ġyour":400,"ac":401,"ter":402,"Ġch":403,"ĠH":404,"ill":405,"oc":406,"Ġen":407,"ort":408,"ĠM":409,"est":410,"Ġha":411,"ud":412,"ain":413,"ĠB":414,"igh":415,"Ġtheir":416,"ust":417,"our":418,"em":419,"ĠP":420,"Ġ-":421,"Ġse":422,"Ġne":423,"ial":424,"os":425,"Ġwas":426,"ome":427,"op":428,"ĠW":429,"Ġ1":430,"th":431,"Ġim":432,"Ġad":433,"Ġsh":434,"Ġle":435,"ect":436,"ser":437,"iz":438,"ide":439,"ould":440,"ri":441,"ions":442,"um":443,"all":444,"pl":445,"nt":446,"rou":447,"ssist":448,"Ġr":449,"Ġmore":450,"art":451,"Ġwor":452,"ĠD":453,"ĠF":454,"Ġab":455,"User":456,"pt":457,"ssistant":458,"Ġinc":459,"Ġte":460,"du":461,"Assistant":462,"rom":463,"ĠE":464,"Ġpl":465,"ĠTh":466,"age":467,"per":468,"Ġimp":469,"king":470,"ight":471,"Ġhave":472,"ĠR":473,"Ġint":474,"ff":475,"Ġ2":476,"and":477,"act":478,"Ġwe":479,"are":480,"Ġby":481,"Ġat":482,"od":483,"Ġu":484,"Ġfe":485,"ip":486,"ge":487,"Ġher":488,"Ġme":489,"Ġfrom":490,"able":491,"orm":492,"gh":493,"ake":494,"reat":495,"ĠO":496,"ine":497,"og":498,"ie":499,"Ġcomp":500,"ast":501,"ign":502,"Ġhel":503,"cc":504,"ĠL":505,"Ġhelp":506,"ther":507,"Ġsome":508,"Ġthey":509,"ations":510,"form":511,"ance":512,"âĢ":513,"ru":514,"ind":515,"Ġun":516,"ĠIn":517,"Ġcont":518,"ell":519,"ks":520,"ard":521,"ĠG":522,"Ġprov":523,"so":524,"Ġj":525,"ry":526,"ach":527,"ult":528,"ence":529,"ical":530,"ost":531,"Ġ(":532,"ĠThis":533,"Ġk":534,"Ġhas":535,"ail":536,"vel":537,"ep":538,"Ġadd":539,"Ġhow":540,"ack":541,"av":542,"Ġres":543,"Ġpre":544,"Ġcl":545,"Ġ\"":546,"Ġabout":547,"ous":548,"ice":549,"Ġtra":550,"Ġthem":551,"Ġalso":552,"ich":553,"ition":554,"Ġall":555,"Ġapp":556,"Ġhad":557,"Ġother":558,"ase":559,"ces":560,"ire":561,"Ġ3":562,"ĠN":563,"Ġdis":564,"Ġwill":565,"ood":566,"ific":567,"Ġem":568,"Ġthis":569,"ime":570,"ated":571,"ents":572,"lud":573,"ans":574,"Ġout":575,"Ġli":576,"ace":577,"Ġbut":578,"Ġman":579,"ong":580,"ite":581,"Ġnot":582,"Ġsp":583,"ĠJ":584,"ĠU":585,"Ġup":586,"Ġar":587,"Ġwhe":588,"ual":589,"end":590,"Ġspe":591,"ction":592,"Ġshe":593,"Ġinclud":594,"Ġsuch":595,"ne":596,"Ġqu":597,"ĠIt":598,"ile":599,"ark":600,"ĠY":601,"Ġsc":602,"ib":603,"ress":604,"ors":605,"Ġrec":606,"ful":607,"Ġev":608,"ia":609,"ak":610,"Ġwhich":611,"Ġuse":612,"Ġdes":613,"ass":614,"get":615,"Ġover":616,"fere":617,"ĠCan":618,"Ġany":619,"Ġso":620,"ap":621,"Ġcomm":622,"one":623,"Ġmy":624,"ater":625,"ĠĠĠĠĠĠĠĠ":626,"Ġro":627,"Ġ4":628,"ue":629,"rough":630,"Ġhis":631,"les":632,"Ġwho":633,"ory":634,"ang":635,"Ġcre":636,"ound":637,"Ġpe":638,"ame":639,"Ġacc":640,"Ġdif":641,"Ġnew":642,"ove":643,"ram":644,"ities":645,"Ġlike":646,"ings":647,"Ġper":648,"Ġind":649,"Ġoff":650,"Ġexam":651,"Ġtime":652,"Ġeff":653,"Ġwork":654,"Ġcol":655,"Ġprovide":656,"ally":657,"ience":658,"Ġexper":659,"Ġinto":660,"Ġfl":661,"ord":662,"ments":663,"Ġprodu":664,"ary":665,"ount":666,"Ġser":667,"Ġmake":668,"ild":669,"ook":670,"Ġits":671,"ays":672,"alth":673,"ĠSt":674,"Ġcould":675,"lic":676,"Ġwere":677,"Ġ5":678,"âĢĻ":679,"chn":680,"Ġgo":681,"ric":682,"oy":683,"now":684,"ear":685,"Ġpart":686,"pport":687,"ber":688,"Ġspec":689,"Ġdo":690,"Ġthrough":691,"very":692,"ures":693,"xt":694,"Ġsy":695,"Ġmed":696,"ract":697,"Ġtr":698,"round":699,"ious":700,"Ġsa":701,"ens":702,"velop":703,"bs":704,"Ġpo":705,"Ġthese":706,"gg":707,"aking":708,"Ġinform":709,"ustom":710,"Ġtechn":711,"Ġdiffere":712,"Ġour":713,"erg":714,"int":715,"Ġneed":716,"Ġdet":717,"Ġprog":718,"Ġrel":719,"row":720,"ize":721,"Ġstr":722,"ness":723,"ll":724,"ple":725,"ck":726,"ree":727,"ility":728,"Ġwould":729,"Ġhealth":730,"ely":731,"ating":732,"ick":733,"ning":734,"Ġone":735,"Ġpers":736,"ices":737,"olog":738,"Ġsm":739,"Ġbeen":740,"als":741,"nder":742,"ife":743,"Ġif":744,"ov":745,"Ġcustom":746,"tain":747,"gan":748,"Ġsoc":749,"eos":750,"we":751,"Ġdevelop":752,"low":753,"elf":754,"ular":755,"red":756,"Ġthere":757,"Ġused":758,"ject":759,"Ġinv":760,"uring":761,"ĠCh":762,"Ġinformation":763,"te":764,"Ġknow":765,"ub":766,"cess":767,"ased":768,"ons":769,"iqu":770,"Ġdifferent":771,"00":772,"ond":773,"Ġcommun":774,"ips":775,"arket":776,"'t":777,"Ġcreat":778,"ade":779,"ns":780,"ĠAd":781,"Ġstud":782,"ient":783,"rit":784,"ĠÐ":785,"ĠV":786,"Ġcreate":787,"Ġke":788,"Ġusing":789,"ower":790,"Ġbet":791,"ob":792,"ph":793,"Ġinter":794,"ĠK":795,"ef":796,"ish":797,"enc":798,"Ġam":799,"ange":800,"its":801,"Ġshould":802,"ative":803,"ting":804,"ates":805,"Ġserv":806,"Ġco":807,"Ġeach":808,"Ġmay":809,"lect":810,"Ġwell":811,"ily":812,"ose":813,"ft":814,"ĠAs":815,"ĠThey":816,"Ġsign":817,"ough":818,"Ġproduct":819,"Ġact":820,"Ġsk":821,"stem":822,"ata":823,"Ġimpro":824,"Ġprogram":825,"Ġcons":826,"Ġhigh":827,"Ġbu":828,"ĠHere":829,"oth":830,"Ġgreat":831,"res":832,"ized":833,"Ġperson":834,"iness":835,"ise":836,"Ġwhat":837,"ples":838,"Ġart":839,"ential":840,"iet":841,"Ġbl":842,"dition":843,"ĠHe":844,"ics":845,"Ġvar":846,"Ġph":847,"Ġredu":848,"Ġeffect":849,"Ġwhen":850,"Ġloc":851,"Ġpr":852,"old":853,"Ġway":854,"ural":855,"Ġinst":856,"__":857,"ys":858,"Ġdesign":859,"arch":860,"Ġprovid":861,"Ġsocial":862,"ople":863,"Ġag":864,"Ġlear":865,"Ġ`":866,"Ġmarket":867,"hes":868,"Ġsupport":869,"Ġrem":870,"Ġlife":871,"Ġopt":872,"Ġimpact":873,"Ġunder":874,"ergy":875,"hed":876,"Ġworld":877,"Ġfeel":878,"Ġatt":879,"eng":880,"Ġ=":881,"Ġbec":882,"Ġmus":883,"wn":884,"Ġreg":885,"Ġeng":886,"Ġtrans":887,"anc":888,"ts":889,"own":890,"Ð¾":891,"Ġpeople":892,"up":893,"Ġbus":894,"Ġset":895,"Ġvis":896,"ĠHow":897,"Ġincluding":898,"omm":899,"Ġsystem":900,"eth":901,"ĠShe":902,"Ġrep":903,"Ġlead":904,"Ġche":905,"Ġfind":906,"ality":907,"ren":908,"Ġra":909,"Ġdata":910,"ener":911,"rib":912,"Ġspecific":913,"Ġve":914,"Ġback":915,"ĠWe":916,"Ġmin":917,"Ġenergy":918,"Ġexamples":919,"pect":920,"Ġexpl":921,"ĠYou":922,"ible":923,"Ġdec":924,"ian":925,"ature":926,"Ġprom":927,"ĠâĢ":928,"Ġevery":929,"Ġwhile":930,"Ġpract":931,"Ġsur":932,"ĠFor":933,"Ġpot":934,"Ġval":935,"Ġwhere":936,"Ġfun":937,"Ġplay":938,"riend":939,"Ġjust":940,"Ġincre":941,"ruct":942,"Ġmany":943,"Ġstart":944,"Ġbusiness":945,"Ġdetail":946,"Ġwater":947,"fore":948,"Ġthan":949,"ten":950,"ues":951,"Ġchar":952,"ward":953,"Ġca":954,"Ġinf":955,"ives":956,"Ġgu":957,"ology":958,"ms":959,"Ġmade":960,"Ġsignific":961,"ink":962,"ĠThese":963,"ivid":964,"Ġins":965,"Ġchall":966,"iew":967,"uc":968,"ĠWh":969,"Ġav":970,"Ġ6":971,"ense":972,"Ġsee":973,"ident":974,"led":975,"Ġprocess":976,"Ġfam":977,"any":978,"Ġmost":979,"Ġallow":980,"Ġget":981,"Ġexperience":982,"ional":983,"ertain":984,"Ġsal":985,"irst":986,"Ġadv":987,"Ġpat":988,"Ġty":989,"Ġimport":990,"urn":991,"Ðµ":992,"Ġcult":993,"Ġyear":994,"Ġac":995,"Ġcle":996,"Ġbr":997,"Ġmod":998,"ollow":999,"rand":1000,"Ġsec":1001,"Ġnum":1002,"lement":1003,"Ġcar":1004,"ccess":1005,"Ġ[":1006,"ever":1007,"Ġno":1008,"ique":1009,"Ġdisc":1010,"Ġmedia":1011,"iss":1012,"Ġfew":1013,"Ġteam":1014,"Ġeven":1015,"amp":1016,"ines":1017,"new":1018,"Ġlong":1019,"eg":1020,"ĠUse":1021,"Ġimprove":1022,"ources":1023,"olut":1024,"Ġment":1025,"Ġens":1026,"Ġfin":1027,"Ġpower":1028,"Ġexp":1029,"line":1030,"Ġinclude":1031,"Ġeas":1032,"Ġreal":1033,"stand":1034,"itive":1035,"Ġwant":1036,"ocus":1037,"Ġ20":1038,"Ġtw":1039,"Ġown":1040,"ved":1041,"Ġduring":1042,"Ġhand":1043,"arm":1044,"ages":1045,"Ġfound":1046,"ateg":1047,"iron":1048,"Ġrequ":1049,"Ġaccess":1050,"put":1051,"Ġla":1052,"Ġexample":1053,"Ġbefore":1054,"ix":1055,"Ġpol":1056,"ax":1057,"Ġsmall":1058,"ients":1059,"ered":1060,"Ġfollow":1061,"Ġsim":1062,"Ġsignificant":1063,"Ġmem":1064,"Ġform":1065,"Ġed":1066,"Ġbre":1067,"Ġent":1068,"Ġorgan":1069,"Ġcur":1070,"Ġsuccess":1071,"Ġgrow":1072,"Ġbuild":1073,"Ġuser":1074,"Ġtake":1075,"Ġshow":1076,"ify":1077,"iety":1078,"ÑĤ":1079,"roup":1080,"Ġaut":1081,"Ġcomple":1082,"Ġref":1083,"ars":1084,"Ġread":1085,"Ð°":1086,"Ġaround":1087,"ec":1088,"Ġpersonal":1089,"Ġplan":1090,"Ġfood":1091,"fter":1092,"Ġben":1093,"Ġret":1094,"Ġgl":1095,"til":1096,"use":1097,"Ġdel":1098,"viron":1099,"ational":1100,"ĠSure":1101,"other":1102,"ling":1103,"Ġtext":1104,"erest":1105,"Ġindust":1106,"Ġend":1107,"ving":1108,"Ġpos":1109,"Ġfirst":1110,"Ġhim":1111,"Ġproject":1112,"wor":1113,"ware":1114,"Ġgr":1115,"agement":1116,"ween":1117,"Ġfocus":1118,"Ġchalleng":1119,"Ġday":1120,"ner":1121,"ividual":1122,"con":1123,"ĠBut":1124,"Ġperform":1125,"Ġob":1126,"ict":1127,"Ġbetween":1128,"Ġoffer":1129,"hip":1130,"ĠAn":1131,"self":1132,"Ġcontent":1133,"ggest":1134,"lease":1135,"akes":1136,"Ġmaking":1137,"Ð¸":1138,"Ġlist":1139,"ols":1140,"Ġsuggest":1141,"Ġenviron":1142,"Ġpromot":1143,"ĠPro":1144,"por":1145,"Ġwebs":1146,"Ġindividual":1147,"ves":1148,"Ġmusic":1149,"Ġess":1150,"Ġunderstand":1151,"Ġconc":1152,"Ġide":1153,"Ġaud":1154,"ier":1155,"ining":1156,"Ġdown":1157,"ĠEn":1158,"Ġgroup":1159,"Ġgra":1160,"Ġinterest":1161,"ble":1162,"Ġmain":1163,"Ġgener":1164,"Ġresp":1165,"Ġuntil":1166,"nect":1167,"Ġcare":1168,"Ġpop":1169,"ĠHowever":1170,"Ġstory":1171,"aterial":1172,"Ġbenef":1173,"ider":1174,"ploy":1175,"els":1176,"Ġhere":1177,"Ġrese":1178,"ath":1179,"ization":1180,"erm":1181,"Ġanal":1182,"Ġpartic":1183,"Ġsound":1184,"ven":1185,"Ġunique":1186,"Ġactiv":1187,"hen":1188,"Ġtry":1189,"ills":1190,"Ġfeat":1191,"ways":1192,"Ġpass":1193,"ĠIf":1194,"ited":1195,"aging":1196,"Ġbel":1197,"ries":1198,"Ġtips":1199,"Ġeffective":1200,"Ġcount":1201,"Ġconf":1202,"Ġtechnology":1203,"ants":1204,"ont":1205,"ied":1206,"mer":1207,"Ġ$":1208,"Ġprof":1209,"ins":1210,"ables":1211,"Ġtoget":1212,"Ġtogether":1213,"Ġlight":1214,"Ġlearn":1215,"cho":1216,"Ġappro":1217,"Ġrequire":1218,"Ġlove":1219,"Ġenc":1220,"Ġthen":1221,"Ġkeep":1222,"Ġstrateg":1223,"Ġass":1224,"az":1225,"Ġdr":1226,"ĠBy":1227,"tern":1228,"ĠOver":1229,"ced":1230,"Ġensure":1231,"Ġonly":1232,"Ġ7":1233,"ivers":1234,"Ġenvironment":1235,"avor":1236,"ability":1237,"ribut":1238,"Ġmaterial":1239,"vent":1240,"Ġaff":1241,"Ġcharact":1242,"ash":1243,"Ġdist":1244,"Ġresult":1245,"ted":1246,"ĠTo":1247,"ooking":1248,"ript":1249,"Ġcontin":1250,"ĠAl":1251,"Ġgood":1252,"Ġmon":1253,"ences":1254,"air":1255,"ĠAnd":1256,"Ġpur":1257,"Ġpotential":1258,"aut":1259,"Ġdevelopment":1260,"Ġident":1261,"ommend":1262,"à¸":1263,"Ġtop":1264,"ty":1265,"Ġclass":1266,"Ġcr":1267,"Ġreduce":1268,"Ġsub":1269,"Ġlar":1270,"Ġfriend":1271,"atch":1272,"Ġboth":1273,"Ġbest":1274,"Ġstep":1275,"Ġsure":1276,"Ġmarketing":1277,"Ġbeing":1278,"ather":1279,"Ġext":1280,"lu":1281,"Ġaddition":1282,"ock":1283,"Ġwebsite":1284,"iving":1285,"Ġtoo":1286,"Ġhist":1287,"io":1288,"Ġlevel":1289,"Ġlet":1290,"Ġoften":1291,"Ġ{":1292,"ode":1293,"Ġhum":1294,"iven":1295,"Ġwrit":1296,"Ġel":1297,".\"":1298,"Ġrecommend":1299,"Ġ#":1300,"Ġsense":1301,"bers":1302,"nce":1303,"ds":1304,"der":1305,"Ġtwo":1306,"erc":1307,"ication":1308,"Ġbrand":1309,"Ð¾Ð":1310,"Ġsom":1311,"ah":1312,"Ġsty":1313,"com":1314,"port":1315,"Ġemot":1316,"ĠYes":1317,"Ġpres":1318,"Ġcamp":1319,"Ġfamily":1320,"ertainly":1321,"Ġprot":1322,"Ġpub":1323,"Ġcustomer":1324,"Ġconnect":1325,"Ġdetails":1326,"orpor":1327,"Ġshare":1328,"Ġgive":1329,"Ġthose":1330,"Ġcour":1331,"Ġcost":1332,"ody":1333,"uch":1334,"Ġfunction":1335,"Ġindustry":1336,"Ġdef":1337,"Ġfac":1338,"Ġrest":1339,"Ġresearch":1340,"Ñģ":1341,"Ġusers":1342,"Ġmind":1343,"Ġfeatures":1344,"Ġlocal":1345,"Ġtyp":1346,"Ġalways":1347,"ee":1348,"Ġplace":1349,"Ġsever":1350,"reen":1351,"ustain":1352,"Ġcommunity":1353,"ave":1354,"ency":1355,"ories":1356,"to":1357,"Ġcustomers":1358,"Ġear":1359,"Ġafter":1360,"ists":1361,"cept":1362,"ew":1363,"cing":1364,"ĠRe":1365,"Ġinvol":1366,"arget":1367,"angu":1368,"und":1369,"chie":1370,"Ġkey":1371,"Ġchallenges":1372,"atform":1373,"Ġop":1374,"oura":1375,"Ġcompany":1376,"Ġchild":1377,"Ġexperi":1378,"br":1379,"____":1380,"pped":1381,"atural":1382,"Ġproducts":1383,"elt":1384,"Ġtradition":1385,"Ġbetter":1386,"Ġservices":1387,"Ġimplement":1388,"ĠEm":1389,"Ġhome":1390,"Ġseveral":1391,"Ġchang":1392,"Ġstudents":1393,"over":1394,"Ð½":1395,"Ġcent":1396,"Ġagain":1397,"ically":1398,"Ġ}":1399,"Ġminut":1400,"ĠCertainly":1401,"Ġsoft":1402,"iel":1403,"ism":1404,"Ġinvest":1405,"Ġimportant":1406,"Ġresources":1407,"ined":1408,"Ġemploy":1409,"ason":1410,"Ġvarious":1411,"light":1412,"Ġbeh":1413,"Ġdon":1414,"tle":1415,"Ġfil":1416,"rite":1417,"read":1418,"ope":1419,"Ġyears":1420,"ĠUn":1421,"Ġaudience":1422,"Ġachie":1423,"abor":1424,"ital":1425,"ets":1426,"Ġplatform":1427,");":1428,"Ġthough":1429,"Ġmet":1430,"be":1431,"ĠOverall":1432,"way":1433,"ps":1434,"view":1435,"Ġnumber":1436,"'m":1437,"Ġrelations":1438,"resh":1439,"joy":1440,"Ġlangu":1441,"Ġmental":1442,"Ġdem":1443,"Ġcup":1444,"ÑĢ":1445,"ĠAddition":1446,"``":1447,"Ġbo":1448,").":1449,"Ġsustain":1450,"pportun":1451,"Ġdid":1452,"ream":1453,"Ġself":1454,"orts":1455,"ething":1456,"Ġskills":1457,"Ġeduc":1458,"po":1459,"Ġright":1460,"ĠAdditionally":1461,"Ġcall":1462,"wards":1463,"Ġopportun":1464,"Ġoptions":1465,"less":1466,"Ġinflu":1467,"lus":1468,"Ġtarget":1469,"Ġ201":1470,"Ġveget":1471,"ĠOne":1472,"Ġlook":1473,"pend":1474,"ex":1475,"err":1476,"'re":1477,"ĠEx":1478,"Ġways":1479,"Ġavail":1480,"ĠThere":1481,"ank":1482,"Ġminutes":1483,"cript":1484,"ery":1485,"imes":1486,"Ġ8":1487,"ross":1488,"Ġbenefits":1489,"Ġsomething":1490,"ually":1491,"Ġsum":1492,"Ġ10":1493,"Ġtre":1494,"Ġoil":1495,"conom":1496,"Ġfact":1497,"aign":1498,"Ġtraditional":1499,"Ġtest":1500,"day":1501,"Ġclear":1502,"Ġcontro":1503,"Ġstill":1504,"ĠAdd":1505,"Ġlearning":1506,"itions":1507,"ray":1508,"Ġsit":1509,"ush":1510,"rap":1511,"--":1512,"Ġrange":1513,"Ġhapp":1514,"Ġbeaut":1515,"ases":1516,"Ġcal":1517,"Ġmuch":1518,"Ġpast":1519,"Ġposs":1520,"Ġpain":1521,"oid":1522,"Ġonline":1523,"Ġcor":1524,"Ġnatural":1525,"Ġconst":1526,"Ġphys":1527,"work":1528,"Ġable":1529,"Ġcity":1530,"oh":1531,"Ġiss":1532,"pr":1533,"Ġindividuals":1534,"Ġeasy":1535,"Ġothers":1536,"Ġest":1537,"ese":1538,"Ġpositive":1539,"Ġoffers":1540,"Ġfelt":1541,"Ġ```":1542,"Ġbased":1543,"Ġ/":1544,"Ġnever":1545,"Ġair":1546,"raph":1547,"iques":1548,"ci":1549,"ording":1550,"Ġele":1551,"Ġmess":1552,"ern":1553,"Ġpopular":1554,"Ġreally":1555,"ĠWhat":1556,"irect":1557,"thing":1558,"Ġknew":1559,"Ġtell":1560,"Ġes":1561,"Ġlanguage":1562,"Ġneeds":1563,"Ġcampaign":1564,"redients":1565,"ilities":1566,"Ġtem":1567,"Ġheart":1568,"Ġincrease":1569,"Ġpar":1570,"Ġris":1571,"uce":1572,"ately":1573,"ination":1574,"Ġchange":1575,"hips":1576,"Ġeconom":1577,"ĠSh":1578,"Ġprovides":1579,"Ġbelie":1580,"Ġcreating":1581,"Ġdep":1582,"ouse":1583,"Ġapplic":1584,"rent":1585,"Ġful":1586,"Ġcomb":1587,"Ġcho":1588,"ĠCon":1589,"Ġdev":1590,"Ġjour":1591,"Ġmom":1592,"Ġplease":1593,"Ġmove":1594,"Ġworks":1595,"Ġquest":1596,"Ġwithout":1597,"Ġrole":1598,"Ġfore":1599,"Ġlit":1600,"Ġpublic":1601,"Ġinput":1602,"Ġcook":1603,"vers":1604,"back":1605,"ethod":1606,"uss":1607,"ems":1608,"ipe":1609,"Ġstand":1610,"Ġcolor":1611,"ĠWith":1612,"ĠInst":1613,"ale":1614,"Ġpie":1615,"alk":1616,"Ġtechniques":1617,"oose":1618,"Ġsol":1619,"ead":1620,"Ġpoint":1621,"Ġland":1622,"Ġmot":1623,"Ġopen":1624,"Ġfut":1625,"Ġtools":1626,"Ġfree":1627,"Ġcome":1628,"Ġgoals":1629,"Ġhelps":1630,"pper":1631,"ney":1632,"Ġareas":1633,"Ġexplore":1634,"let":1635,"Ġsearch":1636,"ering":1637,"ape":1638,"pping":1639,"illed":1640,"Ġperformance":1641,"Ġincorpor":1642,"Ġstudy":1643,"Ġpost":1644,"aring":1645,"Ġevents":1646,"ato":1647,"ĠAr":1648,"Ġmanagement":1649,"Ġgrowth":1650,"Ġvide":1651,"Ġbecome":1652,"Ġrun":1653,"ior":1654,"Ġbusinesses":1655,"Ġessential":1656,"Ġavailable":1657,"oring":1658,"Ġactivities":1659,"fect":1660,"Ġstay":1661,"cial":1662,"Ġquality":1663,"Ġstrong":1664,"ĠBe":1665,"Ġsym":1666,"Ġproper":1667,"Ġinteg":1668,"Ġstru":1669,"Ġfriends":1670,"Ġ19":1671,"Ġnow":1672,"Ġlo":1673,"Ġevent":1674,"Ġ'":1675,"Ġbody":1676,"Ġhistory":1677,"Ġmethod":1678,"ats":1679,"ivity":1680,"care":1681,"Ġstore":1682,"Ġhope":1683,"ructure":1684,"ĠThat":1685,"Ġcontribut":1686,"Ġfuture":1687,"izing":1688,"ired":1689,"ames":1690,"Ġcoll":1691,"land":1692,"Ġnut":1693,"Ġenjoy":1694,"Ġequ":1695,"oot":1696,"Ġsuccessful":1697,"Ġprofess":1698,"ron":1699,"ĠDo":1700,"Ġanaly":1701,"Ġmeas":1702,"Ġdiff":1703,"ĠWhen":1704,"Ġeffic":1705,"asing":1706,"Ġcontrol":1707,"Ġing":1708,"Ġflavor":1709,"Ġelect":1710,"Ġscho":1711,"ried":1712,"ĠDe":1713,"Ġemail":1714,"Ġ<":1715,"Ġinteract":1716,"Ġfeed":1717,"Ġmat":1718,"ĠâĢľ":1719,"Ġexerc":1720,"ogn":1721,"Ġdeep":1722,"ike":1723,"Ġfresh":1724,"ret":1725,"Ġcharacter":1726,"âĢĿ":1727,"Ġknown":1728,"Ġtraining":1729,"ooks":1730,"Ġprograms":1731,"Ġpractices":1732,"Ġoper":1733,"olution":1734,"Ġservice":1735,"Ġsaid":1736,"),":1737,"Ġencoura":1738,"word":1739,"Ġthink":1740,"Ġlarge":1741,"Ġdra":1742,"ĠPl":1743,"Ġlow":1744,"Ġidentify":1745,"Ġcourse":1746,"Ġpa":1747,"imate":1748,"ger":1749,"ĠSc":1750,"Ġsystems":1751,"Ġmix":1752,"Ġlim":1753,"Ġmult":1754,"Ġimm":1755,"Ġey":1756,"weet":1757,"Ġsaf":1758,"Ġstyle":1759,"duct":1760,"Ġstrugg":1761,"Ġproviding":1762,"ared":1763,"Ġmust":1764,"by":1765,"Ġaffect":1766,"Ġadditional":1767,"Ġhard":1768,"vern":1769,"Ġpow":1770,"Ġgame":1771,"Ġview":1772,"Ġstress":1773,"Ġanim":1774,"ium":1775,"Ġdoes":1776,"Ġaddress":1777,"Ġexc":1778,"Ġtransport":1779,"iting":1780,"Ġoptim":1781,"Ġmil":1782,"ember":1783,"ibility":1784,"Ġmaterials":1785,"Ġtypes":1786,"fort":1787,"Ġtru":1788,"Ġbro":1789,"Ġsens":1790,"Ġless":1791,"ĠĠĠ":1792,"ularly":1793,"Ġclean":1794,"Ġprotect":1795,"Ġcultural":1796,"hor":1797,"Ġsauce":1798,"Ġrele":1799,"Ġhead":1800,"ring":1801,"Ġrecipe":1802,"ert":1803,"Ġrenew":1804,"Ġstrategies":1805,"Ġphysical":1806,"ees":1807,"Ġquick":1808,"Ġperfect":1809,"Ã©":1810,"Ġoverall":1811,"Ġgovern":1812,"ĠCl":1813,"ours":1814,"Ġworking":1815,"Ġwithin":1816,"Ġ9":1817,"Ġmov":1818,"ights":1819,"Ġpresent":1820,"sc":1821,"ances":1822,"Ġvalue":1823,"Ġcompet":1824,"ains":1825,"urity":1826,"Ġmaintain":1827,"omp":1828,"Ġspecial":1829,"nces":1830,"ention":1831,"Ġtas":1832,"Ġcurrent":1833,"Ġhealthy":1834,"ĠInd":1835,"ĠSome":1836,"Ġdirect":1837,"aj":1838,"ug":1839,"ograph":1840,"Ġvers":1841,"Ġface":1842,"Ġdig":1843,"urther":1844,"Ġsoftware":1845,"Ġcomplex":1846,"ration":1847,"meric":1848,"Ġneg":1849,"come":1850,"Ġpromote":1851,"Ġprevent":1852,"Ġanother":1853,"Ġarea":1854,"Ġmight":1855,"Ġ0":1856,"Ġtowards":1857,"Ġdeterm":1858,"Ġhuman":1859,"Ġachieve":1860,"Ġfollowing":1861,"Ġcommunication":1862,"icult":1863,"fact":1864,"Ġspace":1865,"ource":1866,"anies":1867,"The":1868,"yc":1869,"ued":1870,"ners":1871,",\"":1872,"Ġexperiences":1873,"Ġwind":1874,"reng":1875,"Ġthings":1876,"Ġupd":1877,"Ġideas":1878,"ision":1879,"ield":1880,"irt":1881,"Ġjob":1882,"lish":1883,"ising":1884,"ĠDes":1885,"ote":1886,"Ġcap":1887,"Ġwee":1888,"Ġsustainable":1889,"aves":1890,"Ġtreat":1891,"play":1892,"ĠWrite":1893,"Ġmeet":1894,"Ġhelped":1895,"Ġtravel":1896,"lex":1897,"ĠCould":1898,"Ġreport":1899,"based":1900,"Ġtrack":1901,"Ġsame":1902,"ause":1903,"itation":1904,"Ġnet":1905,"Ġprint":1906,"Ġstate":1907,"Ġsmo":1908,"ĠâĢĵ":1909,"ression":1910,"Ġenh":1911,"'ll":1912,"Ġgar":1913,"Ġsat":1914,"ĠĠĠĠĠĠĠĠĠĠĠĠ":1915,"Ġincludes":1916,"Ġvariety":1917,"de":1918,"Ġbuilding":1919,"Ġrece":1920,"Ġwriting":1921,"Ġinit":1922,"pro":1923,"lusion":1924,"oney":1925,"ished":1926,"Ġdifficult":1927,"ugh":1928,"ann":1929,"Ġeducation":1930,"ides":1931,"Ġconsider":1932,"Ġvisual":1933,"Ġbal":1934,"gin":1935,"Ġingredients":1936,"ze":1937,"Ġ//":1938,"Ġallows":1939,"Ġbreak":1940,"Ġconsum":1941,"vert":1942,"Ġbreat":1943,"Ġinsp":1944,"Ġhot":1945,"Ġcrit":1946,"Ġrespons":1947,"Ġchanges":1948,"ince":1949,"nov":1950,"ĠInc":1951,"Ġcolle":1952,"Ġopportunities":1953,"aling":1954,"gar":1955,"Ġculture":1956,"ffic":1957,"Ġstreng":1958,"ĠRem":1959,"Ġchildren":1960,"Ġproble":1961,"here":1962,"Ġmar":1963,"Ġacross":1964,"Ġreturn":1965,"ene":1966,"apt":1967,"Ġelements":1968,"Ġlast":1969,"just":1970,"Ġsun":1971,"Ġroom":1972,"Ġrenewable":1973,"ots":1974,"Ġissues":1975,"Ġheat":1976,"me":1977,"Ġchick":1978,"Ġbook":1979,"Ġcollabor":1980,"Ġjourney":1981,"Ġfeedback":1982,"ĠQ":1983,"Ġtype":1984,"Ġturn":1985,"Ġvisit":1986,"Ġreach":1987,"Ġobject":1988,"Ġcommon":1989,"ral":1990,"Ġside":1991,"aster":1992,"ĠRes":1993,"Ġlevels":1994,"Ġtast":1995,"ator":1996,"ton":1997,"Ġsupp":1998,"ĠTe":1999,"ditions":2000,"Ġtimes":2001,"Ġpossible":2002,"idd":2003,"osp":2004,"Ġthroughout":2005,"rast":2006,"Ġrout":2007,"mon":2008,"Ġcompanies":2009,"Ġseason":2010,"Ġcheese":2011,"ĠSp":2012,"co":2013,"Ð»":2014,"rehe":2015,"ift":2016,"Ġmag":2017,"Ġter":2018,"Ġmembers":2019,"ĠAt":2020,"Ġagainst":2021,"ĠIm":2022,"vant":2023,"ysis":2024,"ĠJoh":2025,"acks":2026,"Ġjo":2027,"000":2028,"Ġbegan":2029,"Ġpractice":2030,"Ġstarted":2031,"ruction":2032,"ĠAmeric":2033,"ming":2034,"Ġapproach":2035,"ards":2036,"Ġbring":2037,"Ġpolic":2038,"friend":2039,"Ġcode":2040,"ived":2041,"ancial":2042,"anced":2043,"Ġreducing":2044,"Ġnext":2045,"ructions":2046,"Ġprep":2047,"iment":2048,"ĠCre":2049,"Ġfit":2050,"Ġability":2051,"Ġbas":2052,"rain":2053,"Ġdepend":2054,"Ġfeature":2055,"Ġsources":2056,"Ġrepres":2057,"ĠFin":2058,"Ġcase":2059,"ises":2060,"ently":2061,"bo":2062,"Ġfeeling":2063,"Ġexpect":2064,"rior":2065,"Ġpepper":2066,"Ġleading":2067,"Ġphot":2068,"Ġsweet":2069,"ilar":2070,"oci":2071,"Ġdesigned":2072,"20":2073,"izations":2074,"orth":2075,"Ġalong":2076,"ones":2077,"Ġfund":2078,"Ġmoment":2079,"Ġleft":2080,"Ġpay":2081,"Ġparticip":2082,"Ġbehav":2083,"Ġcheck":2084,"cul":2085,"Ġbreath":2086,"Ġdark":2087,"Ġaccording":2088,"aces":2089,"Ġavoid":2090,"Ġnature":2091,"Ġbat":2092,"Ġprogress":2093,"Ġtaking":2094,"ng":2095,"Ġaway":2096,"face":2097,"Ġdescript":2098,"Ġline":2099,"Ġfre":2100,"Ġunderstanding":2101,"Ġmiss":2102,"Ġnon":2103,"()":2104,"Ġsw":2105,"Ġnight":2106,"aur":2107,"pos":2108,"Ġgreen":2109,"Ġengaging":2110,"Ġfr":2111,"Ġsteps":2112,"ury":2113,"side":2114,"Ġname":2115,"Ġdi":2116,"Ġaccount":2117,"ĠCol":2118,"Ġlay":2119,"Ġcream":2120,"Ġred":2121,"ths":2122,"ane":2123,"icate":2124,"Ġneeded":2125,"Ġinfluenc":2126,"Ġsle":2127,"ledge":2128,"nam":2129,"rodu":2130,"ified":2131,"ĠNew":2132,"Ġwarm":2133,"Ġold":2134,"cessary":2135,"ival":2136,"ĠSar":2137,"Ġvegetables":2138,"Ġrelationships":2139,"itut":2140,"Ġsalt":2141,"ĠSe":2142,"Ġhold":2143,"Ġcomfort":2144,"Ġclos":2145,"Ġmo":2146,"Ġgovernment":2147,"af":2148,"Ġintern":2149,"Ġgoing":2150,"ĠStep":2151,"ges":2152,"Ġmodern":2153,"izes":2154,"ĠCreate":2155,"Ġque":2156,"Ġbecause":2157,"Ġsl":2158,"Ġeffects":2159,"Ġpack":2160,"Ġfinancial":2161,"hers":2162,"Ñĥ":2163,"Ġinnov":2164,"lo":2165,"Ã³":2166,"Ġvery":2167,"ĠIs":2168,"Ġshort":2169,"Ġlooking":2170,"friendly":2171,"Ġdish":2172,"time":2173,"rop":2174,"aw":2175,"Ġdiscuss":2176,"Ġfile":2177,"Ġz":2178,"Ġadjust":2179,"Ġhig":2180,"crib":2181,"gle":2182,"Ġlik":2183,"Ġschool":2184,"Ġvol":2185,"ĠYour":2186,"Ġocc":2187,"Ġsounds":2188,"ening":2189,"istic":2190,"Ġcolors":2191,"ĠSo":2192,"Ġsecond":2193,"Ġmean":2194,"oun":2195,"fulness":2196,"Ġemotional":2197,"Ġtechnolog":2198,"Ġsimple":2199,"Ġanalysis":2200,"Ġcra":2201,"Ġtransportation":2202,"arent":2203,"rate":2204,"itud":2205,"Ġeconomic":2206,"Ġsn":2207,"Ġamount":2208,"'ve":2209,"Ġnav":2210,"ĠMar":2211,"Ġpan":2212,"owl":2213,"ork":2214,"Ġeverything":2215,"Ġtool":2216,"idence":2217,"ched":2218,"Ġkind":2219,"ches":2220,"serv":2221,"Ġanx":2222,"icious":2223,"Ġuses":2224,"ura":2225,"room":2226,"Ġsou":2227,"Ġemployees":2228,"arr":2229,"Ġimportance":2230,"Ġnegative":2231,"unch":2232,"atic":2233,"Ġfurther":2234,"Ġtur":2235,"aged":2236,"Ġsecurity":2237,"Ġautom":2238,"Ġsymb":2239,"Ġled":2240,"Ġthree":2241,"Ġmotiv":2242,"ĠZ":2243,"Ġwom":2244,"aily":2245,"ĠSer":2246,"Ġamong":2247,"ird":2248,"place":2249,"iod":2250,"Ġreview":2251,"Ġcapt":2252,"Ġcut":2253,"Ġchicken":2254,"ĠSarah":2255,"elves":2256,"ott":2257,"Ġce":2258,"orn":2259,"sing":2260,"Ġgre":2261,"Ġeffectively":2262,"Ġbutter":2263,"Ġground":2264,"Ġpurch":2265,"Ġplatforms":2266,"oph":2267,"Ġnecessary":2268,"ĠOur":2269,"Ðº":2270,"Ġflow":2271,"Ġorder":2272,"iful":2273,"Ġproduction":2274,"Ġmessage":2275,"Ġcharacters":2276,"ferences":2277,"Ġsales":2278,"ĠJohn":2279,"Ġsitu":2280,"Ġidea":2281,"oor":2282,"anks":2283,"Ġlives":2284,"Ġcontinue":2285,"ened":2286,"iple":2287,"Ġmi":2288,"Ġste":2289,"Ġlog":2290,"Ġreflect":2291,"val":2292,"Ġhelpful":2293,"selves":2294,"Ġput":2295,"Ġrisk":2296,"Ġrecommendations":2297,"________":2298,"Ġemotions":2299,"Ġleg":2300,"pite":2301,"app":2302,"igate":2303,"rown":2304,"overed":2305,"Ġhighlight":2306,"Ġtherap":2307,"Ġcaus":2308,"Ġble":2309,"Ġguid":2310,"Ġpaper":2311,"Ġseem":2312,"Ġauthor":2313,"ina":2314,"ĠĠĠĠĠĠĠĠĠĠĠĠĠĠĠĠ":2315,"alls":2316,"Ġskin":2317,"Ġhealthcare":2318,"Ġvideo":2319,"Ġsize":2320,"Ġengagement":2321,"Ġquestions":2322,"Ġhours":2323,"Ġ|":2324,"Ġattention":2325,"Ġpress":2326,"Ġlive":2327,"Ġsumm":2328,"Ġrelevant":2329,"Ġknowledge":2330,"ids":2331,"ĠCons":2332,"Ġspir":2333,"Ġhy":2334,"Ġalg":2335,"(\"":2336,"Ġmakes":2337,"Ġrecogn":2338,"elling":2339,"Ġprojects":2340,"Ġgarlic":2341,"par":2342,"Ġchoose":2343,"ored":2344,"Ġfru":2345,"Ġbecame":2346,"ging":2347,"Ġprior":2348,"for":2349,"Ġapplication":2350,"ĠMay":2351,"nds":2352,"Ġmob":2353,"Ġbar":2354,"Ġprote":2355,"poon":2356,"Ġfull":2357,"Ġquickly":2358,"irtual":2359,"Ġresults":2360,"Ġdaily":2361,"Ġtour":2362,"ĠMake":2363,"ption":2364,"Ġeyes":2365,"ump":2366,"ili":2367,"Ġdetailed":2368,"Ġfactors":2369,"Ġbegin":2370,"Ġprofessional":2371,"Ġdigital":2372,"hel":2373,"rehens":2374,"Ġcountry":2375,"Ġpowerful":2376,"Ġsatis":2377,"Ġmanage":2378,"ĠBl":2379,"Ġyourself":2380,"Ġconvers":2381,"ised":2382,"ground":2383,"Ġdays":2384,"ters":2385,"Ġthought":2386,"Ġrestaur":2387,"Ġaction":2388,"Ġorganizations":2389,"Ġtemper":2390,"onse":2391,"Ġbeautiful":2392,"Ġbeauty":2393,"illing":2394,"ik":2395,"iver":2396,"Ġbowl":2397,"ged":2398,"Ġarch":2399,"Ġhom":2400,"ument":2401,"Ġexplain":2402,"Ġcountries":2403,"Ġblack":2404,"Ġdue":2405,"Ġadapt":2406,"ĠAll":2407,"itude":2408,"Ġenhance":2409,"ĠAm":2410,"Ġport":2411,"xture":2412,"Ġtaste":2413,"atives":2414,"Ġcreative":2415,"Ġcommunities":2416,"Ġclimate":2417,"Ġcooking":2418,"Ġguide":2419,"fer":2420,"sh":2421,"Ġill":2422,"):":2423,"uro":2424,"Ġanxiety":2425,"ilt":2426,"Ñı":2427,"Ġwin":2428,"Ġsurround":2429,"Ġsurv":2430,"Ġcontain":2431,"olutions":2432,"Ġ&":2433,"Ġwords":2434,"Ġseen":2435,"..":2436,"reci":2437,"Ġglob":2438,"Ġprovided":2439,"Ġefficient":2440,"Ġconsist":2441,"Ġcool":2442,"aving":2443,"Ġplant":2444,"Ġincreased":2445,"terns":2446,"In":2447,"Ġdest":2448,"bon":2449,"Ġmach":2450,"Ġassoci":2451,"Ġperiod":2452,"Ġliving":2453,"Ġestab":2454,"Ġimages":2455,"Ġtri":2456,"illion":2457,"atoes":2458,"Ġcomprehens":2459,"Ġsuggestions":2460,"Ġstat":2461,"lebr":2462,"Ġerr":2463,"ĠHer":2464,"Ġrealized":2465,"ites":2466,"Ġtom":2467,"Ġvari":2468,"head":2469,"Ġdishes":2470,"Ġsing":2471,"Ġessay":2472,"Ġut":2473,"Ġmultiple":2474,"Ġattract":2475,"Ġamaz":2476,"Ġnear":2477,"Ġabove":2478,"Ñĭ":2479,"Ġefforts":2480,"book":2481,"Ġmaj":2482,"Ġadding":2483,"Ġbehavior":2484,"Ġcover":2485,"Ġincreasing":2486,"Ġstring":2487,"Ġlittle":2488,"Ġrepresent":2489,"Ġtou":2490,"emic":2491,"Ġsleep":2492,"ĠInt":2493,"ley":2494,"Ġaware":2495,"Ġcomput":2496,"Ġstrategy":2497,"Ġant":2498,"ĠEng":2499,"Ġbig":2500,"Ġenvironmental":2501,"Ġgiven":2502,"Ġaim":2503,"ĠOnce":2504,"Ġcru":2505,"ÑĮ":2506,"Ġimag":2507,"Ġgain":2508,"Ġpatterns":2509,"ators":2510,"Ġbud":2511,"Ġmixture":2512,"Ġslow":2513,"Ġwaste":2514,"Ġexce":2515,"Ġtasks":2516,"Ġlocation":2517,"Ġfavor":2518,"Ġweb":2519,"Ġarr":2520,"Ġdise":2521,"Ġever":2522,"Ġthin":2523,"ows":2524,"Ġcreated":2525,"ĠTra":2526,"Ġdelicious":2527,"Ð¼":2528,"Ġalm":2529,"Ġwond":2530,"Ġfoot":2531,"umb":2532,"ĠOn":2533,"Ġappreci":2534,"Ġtakes":2535,"Ġconclusion":2536,"Ġencourage":2537,"quality":2538,"Ġversion":2539,"pecial":2540,"Ġap":2541,"Ġcouldn":2542,"acy":2543,"cking":2544,"Ġmonit":2545,"ulation":2546,"ops":2547,"Ġenough":2548,"ĠOr":2549,"Ġyoung":2550,"the":2551,"enge":2552,"astic":2553,"Ġcosts":2554,"Ġsomeone":2555,"olutely":2556,"Ġvalues":2557,"Ġremain":2558,"vey":2559,"Ġsmooth":2560,"iced":2561,"ĠWhile":2562,"of":2563,"Ġselect":2564,"Ġemb":2565,"Ġtrying":2566,"Ġrelationship":2567,"Ġlov":2568,"orith":2569,"ĠComp":2570,"asc":2571,"Ġshowc":2572,"Ġpoem":2573,"Ġfield":2574,"inal":2575,"Ġremind":2576,"Ġparticularly":2577,"Ġiniti":2578,"oice":2579,"Ġsaw":2580,"Ġmen":2581,"Ġconditions":2582,"ĠChe":2583,"Ġlearned":2584,"Ġcomprehensive":2585,"imately":2586,"ests":2587,"ĠRo":2588,"Ġdevices":2589,"Ġbalance":2590,"sp":2591,"man":2592,"ma":2593,"pose":2594,"Ġhigher":2595,"ĠSoc":2596,"iveness":2597,"Ġdisplay":2598,"icle":2599,"ĠMed":2600,"Ġgen":2601,"Ġ+":2602,"Ġinvolves":2603,"Ġbehind":2604,"Ġoption":2605,"Ġorganization":2606,"Ġsource":2607,"Ġegg":2608,"Ġpric":2609,"Ġinteresting":2610,"Ġheav":2611,"Ġcell":2612,"Ġresponse":2613,"itect":2614,"Ġtook":2615,"ĠCar":2616,"Ġherself":2617,"Ġlower":2618,"nding":2619,"ĠApp":2620,"Ġpersonalized":2621,"anger":2622,"Ġsince":2623,"erson":2624,"outh":2625,"Ġminim":2626,"iverse":2627,"Ġonce":2628,"ÃŃ":2629,"iversity":2630,"Ġemerg":2631,"Ġalgorith":2632,"tt":2633,"Ġpage":2634,"Ġwar":2635,"Ġsolutions":2636,"cer":2637,"ĠKe":2638,"Ġappe":2639,"ĠSu":2640,"Ġmeditation":2641,"Ġpiece":2642,"Ġtechnologies":2643,"ĠComm":2644,"ĠPh":2645,"ding":2646,"Ġcomes":2647,"ĠLe":2648,"Ġinstall":2649,"Ġadded":2650,"eds":2651,"Ġask":2652,"izz":2653,"Ġtables":2654,"ĠTr":2655,"Ġhappy":2656,"Ġsimilar":2657,"Ġbur":2658,"Ġthemselves":2659,"Ġcommit":2660,"ado":2661,"Ġdidn":2662,"Ġearly":2663,"Ġwa":2664,"Ġexperienc":2665,"aches":2666,"Ġengine":2667,"na":2668,"aching":2669,"ĠWow":2670,"Ġlikely":2671,"Ġtoday":2672,"Ġsche":2673,"Ġcame":2674,"Ġarray":2675,"Ġhouse":2676,"Ġelse":2677,"Ġmodel":2678,"ĠFinally":2679,"cent":2680,"Ġsugar":2681,"ĠAnother":2682,"Ġstructure":2683,"wer":2684,"urs":2685,"oogle":2686,"Ġactivity":2687,"Ġsong":2688,"ĠOf":2689,"ength":2690,"Ġmajor":2691,"ety":2692,"Ġju":2693,"go":2694,"Ġtal":2695,"med":2696,"Ġdeveloping":2697,"cy":2698,"ĠMy":2699,"Ġsymbol":2700,"Ġlost":2701,"Ġlif":2702,"Ġleast":2703,"Ġcelebr":2704,"phas":2705,"Ġregular":2706,"Ġmobile":2707,"Ð²":2708,"Ġimage":2709,"Ġmeans":2710,"Ġelectric":2711,"----":2712,"ĠĠĠĠĠ":2713,"Ġtrust":2714,"Ġprotein":2715,"Ġmindfulness":2716,"Ġextra":2717,"Ġpred":2718,"Ġinvolved":2719,"Ġdam":2720,"Ġwhy":2721,"Ġpolit":2722,"ĠRemember":2723,"Ġhab":2724,"Ġtransform":2725,"Ġexpress":2726,"Ġwalk":2727,"Ġitems":2728,"Ġdream":2729,"Ġstrength":2730,"Ġamazing":2731,"Ġcampaigns":2732,"Ġ*":2733,"Ġbudget":2734,"Ġur":2735,"Ġol":2736,"Ġrelax":2737,"Ġslic":2738,"uck":2739,"Ġgard":2740,"ification":2741,"Ġwide":2742,"ĠName":2743,"yth":2744,"Ġimproving":2745,"ĠFr":2746,"Ġexercise":2747,"Ġstories":2748,"Ġexist":2749,"ĠAmerican":2750,"Ġvirtual":2751,"Ġbecom":2752,"Ġfaced":2753,"Ġorig":2754,"Ġcritical":2755,"Ġarchitect":2756,"Ġattend":2757,"ĠMan":2758,"Ġcause":2759,"ipment":2760,"Ġchopped":2761,"Ġmethods":2762,"irc":2763,"Ġleaves":2764,"Ġtrue":2765,"Ġmention":2766,"Ġcontact":2767,"Ġtown":2768,"Ġbackground":2769,"Ġrelated":2770,"Ġcalled":2771,"ĠAfter":2772,"ext":2773,"ĠMe":2774,"ystem":2775,"Ġinstead":2776,"Ġregion":2777,"Ġaltern":2778,"Ġeasily":2779,"Ġgenerate":2780,"Ġlot":2781,"Ġnetwork":2782,"Ġwood":2783,"Ġinsights":2784,"oud":2785,"ffee":2786,"Ã¡":2787,"dule":2788,"ĠProv":2789,"Ġrates":2790,"Ġpeace":2791,"ĠJack":2792,"Ġsuper":2793,"ĠAbs":2794,"ER":2795,"ĠLet":2796,"Ġgoal":2797,"Ġfarm":2798,"era":2799,"ians":2800,"Ġsalad":2801,"rist":2802,"Ġcrucial":2803,"Ġones":2804,"Ġinterested":2805,"aly":2806,"Ġinstructions":2807,"min":2808,"Ġpartners":2809,"Ġclients":2810,"rics":2811,"Ġdone":2812,"ĠAlso":2813,"Ġpoints":2814,"ivate":2815,"ok":2816,"Ġaspect":2817,"Ġpath":2818,"Ġgroups":2819,"ull":2820,"ĠSal":2821,"hood":2822,"den":2823,"Ġadvert":2824,"Ġemphas":2825,"ha":2826,"Ġpreferences":2827,"Ġloss":2828,"Ġdress":2829,"Ġyog":2830,"Ġfire":2831,"Ġwal":2832,"aken":2833,"Ġterms":2834,"Ġconflic":2835,"Ġexercises":2836,"Ġsetting":2837,"Ġsent":2838,"Ġeveryone":2839,"ster":2840,"ĠSm":2841,"Ġengage":2842,"ĠThanks":2843,"Ġtexture":2844,"Ġhistor":2845,"life":2846,"yle":2847,"\",":2848,"ĠCont":2849,"ym":2850,"Ġdemon":2851,"istics":2852,"ocol":2853,"Ġchallenge":2854,"Ġrev":2855,"Ġbit":2856,"ĠDevelop":2857,"Ġdemand":2858,"Ġfear":2859,"cient":2860,"Ġglobal":2861,"Ġsave":2862,"Ġsay":2863,"Ġund":2864,"issions":2865,"ĠThank":2866,"Ġparent":2867,"Ġrich":2868,"ĠAbsolutely":2869,"Ġallowing":2870,"iency":2871,"vious":2872,"Ġstre":2873,"Ġsqu":2874,"being":2875,"pecially":2876,"ĠAv":2877,"ensive":2878,"Ġfavorite":2879,"Ġdoc":2880,"Ġdetect":2881,"Ġ30":2882,"Ġfilm":2883,"Ġexcell":2884,"50":2885,"Ġforest":2886,"rastructure":2887,"Ġassociated":2888,"uff":2889,"ĠĠĠĠĠĠ":2890,"Ġanimals":2891,"Ġmeasure":2892,"ension":2893,"Ġcertain":2894,"Ġtherapy":2895,"Ġwhite":2896,"ĠÐ¿":2897,"Ġfar":2898,"tics":2899,"aks":2900,"Ġgetting":2901,"Ã³n":2902,"isp":2903,"Ġcollect":2904,"Ġhaving":2905,"Ġpromoting":2906,"Ġ12":2907,"Ġtable":2908,"gest":2909,"Ġcou":2910,"uable":2911,"Ġsociety":2912,"ĠMarket":2913,"Ġbread":2914,"Ġdiet":2915,"ai":2916,"iction":2917,"Ġplants":2918,"Ġmilk":2919,"Ġespecially":2920,"Ġet":2921,"ĠCo":2922,"Ġmoney":2923,"Ġcenter":2924,"Ġapplications":2925,"ĠConsider":2926,"ĠGoogle":2927,"Ġshap":2928,"aps":2929,"Ġoven":2930,"cks":2931,"Ġconduct":2932,"ials":2933,"oyal":2934,"set":2935,"ĠAcc":2936,"Ġfig":2937,"Ġtouch":2938,"Ġsecure":2939,"Ġdry":2940,"Ġrecord":2941,"earch":2942,"Ġweek":2943,"Ġchallenging":2944,"Ġmeaning":2945,"Ġopportunity":2946,"free":2947,"Ġfocused":2948,"AR":2949,"Ġthoughts":2950,"rig":2951,"Ġsav":2952,"cast":2953,"rated":2954,"icles":2955,"Ġdescrib":2956,"opt":2957,"10":2958,"Ġanything":2959,"ils":2960,"Ġscient":2961,"ufact":2962,"Ġpowder":2963,"Ġposition":2964,"Ġtim":2965,"Ġsubst":2966,"ios":2967,"Ġbaking":2968,"Ġcarbon":2969,"Ġtemperature":2970,"Ġequipment":2971,"Ġstudies":2972,"Ġroutine":2973,"urt":2974,"Ġsess":2975,"ĠWor":2976,"ĠEmily":2977,"Ġann":2978,"Ġplayed":2979,"Ġrequired":2980,"Ġdat":2981,"ashion":2982,"Ġsho":2983,"Ġrate":2984,"ological":2985,"ĠSocial":2986,"Ġfrequ":2987,"Ġexperiment":2988,"Ġcareer":2989,"St":2990,"Ġolive":2991,"=\"":2992,"Ġartists":2993,"Ġsus":2994,"lished":2995,"'d":2996,"Ġhandle":2997,"Ġspirit":2998,"Ġovercome":2999,"ĠRed":3000,"Ġincorporate":3001,"ĠDr":3002,"Ġliter":3003,"Ġproblem":3004,"Ġforward":3005,"Ġhighly":3006,"ĠSet":3007,"Ġwatch":3008,"Ġtraffic":3009,"Ġcomplete":3010,".,":3011,"Ġgames":3012,"itch":3013,"Ġassist":3014,"Ġfish":3015,"Ġafford":3016,"ctor":3017,"ĠDespite":3018,"Ġutil":3019,"rame":3020,"Ġinfrastructure":3021,"Ġemp":3022,"Ġmeal":3023,"orage":3024,"Ġsil":3025,"Ġrecip":3026,"Ġworked":3027,"Ġintrodu":3028,"inary":3029,"Ġwild":3030,"aff":3031,"hold":3032,"Ġmel":3033,"Ġsolar":3034,"Ġhands":3035,"Ġeasier":3036,"ying":3037,"Ġ200":3038,"Ġi":3039,"Ġcoffee":3040,"Ñĩ":3041,"Ġcu":3042,"Ġarg":3043,"ades":3044,"lection":3045,"Ġappear":3046,"Ġfall":3047,"Ġdraw":3048,"Ġpair":3049,"Ġwent":3050,"unte":3051,"Ġweather":3052,"itle":3053,"Ġclose":3054,"Ġbelieve":3055,"Ġblog":3056,"Ġchann":3057,"Ġsafety":3058,"Ġfest":3059,"ĠPr":3060,"ĠQu":3061,"Ġelement":3062,"plic":3063,"Ġmedium":3064,"Ġpolicies":3065,"Ġdeveloped":3066,"ancing":3067,"Ġlat":3068,"term":3069,"Ġoutside":3070,"ĠAf":3071,"aries":3072,"Ġvoice":3073,"Ġcalcul":3074,"Ġpowers":3075,"uild":3076,"Ġweight":3077,"pective":3078,"ĠUnited":3079,"Ġstream":3080,"Ġplayers":3081,"Ġrecent":3082,"Ġwhether":3083,"ties":3084,"sy":3085,"Ġleaders":3086,"Ġmatter":3087,"Ġrice":3088,"Ġfour":3089,"Ð´":3090,"Ġimplemented":3091,"ino":3092,"ecut":3093,"Ġthemes":3094,"pri":3095,"Ġnumbers":3096,"Ġdecision":3097,"Ġfinal":3098,"Ġflav":3099,"Ġult":3100,"ned":3101,"Ġstir":3102,"Ġlonger":3103,"oss":3104,"Ġmedical":3105,"ĠSam":3106,"Ġquestion":3107,"Ġcard":3108,"Ġfight":3109,"Ġvaluable":3110,"Ġcred":3111,"Ġhair":3112,"une":3113,"alf":3114,"Ġvideos":3115,"ana":3116,"Ġmax":3117,"Ġ18":3118,"Ġchoice":3119,"Ġwhole":3120,"asted":3121,"mit":3122,"Ġnews":3123,"ags":3124,"Ġadvanced":3125,"Ġgraph":3126,"init":3127,"Ġseries":3128,"Ġfitness":3129,"ÑģÑĤ":3130,"ocolate":3131,"NT":3132,"Ġacad":3133,"ctions":3134,"Ġcirc":3135,"Ġthr":3136,"ference":3137,"Ġprim":3138,"ught":3139,"tings":3140,"ĠCent":3141,"Ġunc":3142,"ĠÐ²":3143,"Ġpieces":3144,"Ġseemed":3145,"irm":3146,"Ġmeasures":3147,"Ġge":3148,"Ġdoing":3149,"Ġmanufact":3150,"iddle":3151,"Ġcontinued":3152,"Ġconcer":3153,"lying":3154,"Ġdemonst":3155,"ux":3156,"Ġdance":3157,"ky":3158,"Ġbi":3159,"ĠX":3160,"icro":3161,"apan":3162,"Ġexcellent":3163,"Ġancient":3164,"isions":3165,"hent":3166,"Ġupdated":3167,"Ġbrown":3168,"atitude":3169,"oop":3170,"Ġhear":3171,"Ġawareness":3172,"Ġserve":3173,"Ġdanger":3174,"Ġmachine":3175,"Ġexpert":3176,"Ġplans":3177,"ached":3178,"ĠRec":3179,"Ġdecor":3180,"Ġsafe":3181,"Ġbase":3182,"Ġconcept":3183,"ĠDon":3184,"agram":3185,"Ġpractical":3186,"Ġlocated":3187,"ĠEl":3188,"Ġspeak":3189,"Ġfilled":3190,"Ġ15":3191,"Ġhost":3192,"Ġentire":3193,"Ġconnection":3194,"yond":3195,"Ġsort":3196,"ony":3197,"rel":3198,"Ġtaken":3199,"ler":3200,"Ġteas":3201,"Ġadvent":3202,"Ġprevious":3203,"Ġspread":3204,"Ġroll":3205,"ĠEuro":3206,"Ġmeat":3207,"Ġphone":3208,"Ġcam":3209,"agon":3210,"Ġobst":3211,"Ġbright":3212,"Ġactive":3213,"ĠPlease":3214,"iring":3215,"Ġgold":3216,"Ġded":3217,"ena":3218,"ready":3219,"ields":3220,"ĠUniversity":3221,"Ġdistribut":3222,"oms":3223,"Ġdy":3224,"Ġpriorit":3225,"Ġproductivity":3226,"Ġstra":3227,"pre":3228,"ĠMany":3229,"ĠDis":3230,"mosp":3231,"ography":3232,"Ġmentioned":3233,"Ġreceive":3234,"ĠTheir":3235,"Ġscen":3236,"Ġmount":3237,"à¹":3238,"ĠStud":3239,"Ġbuilt":3240,"Ġreven":3241,"Ġmor":3242,"chan":3243,"Ġvegan":3244,"Ġappropri":3245,"ĠAlex":3246,"fs":3247,"Ġtried":3248,"Ġfail":3249,"ĠTw":3250,"Ġsmart":3251,"ĠHis":3252,"ww":3253,"Ġthing":3254,"Ġplanning":3255,"Ġshared":3256,"Ġloved":3257,"Ġrelig":3258,"Ġwrite":3259,"Ġpurchase":3260,"Ġconstant":3261,"Ġefficiency":3262,"Ġtrees":3263,"ĠJapan":3264,"Ġproblems":3265,"Ġgot":3266,"Ġtreatment":3267,"],":3268,"hing":3269,"ĠAI":3270,"Ġlimited":3271,"Ġmonths":3272,"Ġthick":3273,"Ġgas":3274,"Ġstorage":3275,"Ġlaw":3276,"Ġflex":3277,"Ġage":3278,"amed":3279,"Ġsuit":3280,"Ġflour":3281,"board":3282,"Ġatmosp":3283,"ĠTake":3284,"ronic":3285,"Ġincorporating":3286,"step":3287,"ĠUS":3288,"Ġinteractive":3289,"idge":3290,"Ġfashion":3291,"ĠSim":3292,"Ġfu":3293,"Ġbir":3294,"Ġscript":3295,"fully":3296,"ĠChrist":3297,"Ġalready":3298,"att":3299,"Ġmillion":3300,"Ġgreater":3301,"Ġhor":3302,"rict":3303,"rad":3304,"Ġbooks":3305,"ĠEurope":3306,"Ġadvance":3307,"Ġpurpose":3308,"Ġsurface":3309,"Ġlooks":3310,"ricult":3311,"Ġshows":3312,"initely":3313,"Ġtesting":3314,"Ġabs":3315,"Ġprec":3316,"Ġrad":3317,"sequ":3318,"ung":3319,"Ġproduce":3320,"alu":3321,"ĠPe":3322,"Ġcreatures":3323,"artment":3324,"verage":3325,"Ġcontribute":3326,"Ġsoon":3327,"zz":3328,"inks":3329,"ilies":3330,"ses":3331,"Ġreli":3332,"Ġdesigns":3333,"Ġobstac":3334,"hib":3335,"Ġsand":3336,"Ġstyles":3337,"Ġidentity":3338,"ĠAfric":3339,"Ġoffering":3340,"Ġfra":3341,"ison":3342,"Ġcommunicate":3343,"Ġpolitical":3344,"oll":3345,"Ġmemory":3346,"iling":3347,"Ġestablish":3348,"Ġexpand":3349,"Ġjuice":3350,"Ġreality":3351,"comes":3352,"ulate":3353,"Ġfeelings":3354,"othing":3355,"Ġmatch":3356,"rition":3357,"Ġlos":3358,"Ġscience":3359,"Ġadvertising":3360,"Ġinterests":3361,"nal":3362,"Ġbeyond":3363,"not":3364,"Ġabilities":3365,"Ġvivid":3366,"ĠReg":3367,"19":3368,"ror":3369,"ĠAg":3370,"Ġrob":3371,"Ġshape":3372,"iles":3373,"',":3374,"Ġsite":3375,"Ġrunning":3376,"Ġdepending":3377,"Ġhelping":3378,"Ġscreen":3379,"Ġnavigate":3380,"Ġinfluence":3381,"ban":3382,"Ġimproved":3383,"Ġwon":3384,"ĠCal":3385,"Ġans":3386,"Ġ.":3387,"irl":3388,"Ġwasn":3389,"Ġcompon":3390,"eper":3391,"inating":3392,"etry":3393,"amb":3394,"Ġloyal":3395,"sych":3396,"Ġevalu":3397,"Ġword":3398,"Ġemissions":3399,"Ġmass":3400,"atory":3401,"Ġoptimize":3402,"Ġfamous":3403,"ĠFace":3404,"Ġlibr":3405,"Ġsingle":3406,"ager":3407,"lude":3408,"Ġdead":3409,"rought":3410,"Ġrequires":3411,"arc":3412,"Ġlab":3413,"eter":3414,"Ġexperienced":3415,"ica":3416,"Ġsection":3417,"Ġoutd":3418,"Ġremove":3419,"Ġcoc":3420,"ole":3421,"ON":3422,"ĠPart":3423,"Ġeconomy":3424,"Ġcomfortable":3425,"Ġpropos":3426,"Ġblue":3427,"ission":3428,"Ġallowed":3429,"Ġimplementing":3430,"Ġwoman":3431,"rant":3432,"Ġinitiatives":3433,"print":3434,"rect":3435,"Ġlink":3436,"Ġauthent":3437,"Ġinvestment":3438,"Ġenter":3439,"roll":3440,"ĠGener":3441,"ĠChoose":3442,"Ġoutput":3443,"Ġshown":3444,"Ġthreat":3445,"Ġlimit":3446,"Ġdrive":3447,"Ġincred":3448,"Ġinside":3449,"Ġindustries":3450,"Ġrestaurant":3451,"Ġscene":3452,"su":3453,"Ġanalyze":3454,"ĠNational":3455,"Ġflavors":3456,"Ġmovement":3457,"Ġalone":3458,"Ġsoup":3459,"ĠThrough":3460,"Ġfast":3461,"arian":3462,"Ġbra":3463,"Ġleave":3464,"Ġforms":3465,"ĠÑģ":3466,"Ġsepar":3467,"Ġserving":3468,"Ġclassic":3469,"Ġstudent":3470,"Ġmechan":3471,"Ġsharing":3472,"Ġcomplet":3473,"PI":3474,"servation":3475,"Ġrequirements":3476,"Ġfasc":3477,"faction":3478,"ĠPre":3479,"Ġmyself":3480,"Ġteac":3481,"Ġsea":3482,"etic":3483,"Ġadvant":3484,"Ġsky":3485,"Ġresil":3486,"Ġworkout":3487,"igation":3488,"Ġvolunte":3489,"Ġcollection":3490,"Ġsubject":3491,"ĠProvide":3492,"Ġfinally":3493,"Ġtruly":3494,"Ġtrends":3495,"Ġlandsc":3496,"Ġacademic":3497,"Ġgratitude":3498,"che":3499,"Ġinnovative":3500,"ES":3501,"ĠGu":3502,"ĠÐ¸":3503,"ĠHealth":3504,"Ġveh":3505,"Ġformat":3506,"ume":3507,"Ġspeed":3508,"Ġactions":3509,"Ġdiscovered":3510,"iÃ³n":3511,"Ġoutcomes":3512,"la":3513,"icy":3514,"ĠAccording":3515,"ĠFe":3516,"Ġpatients":3517,"Ġcollaboration":3518,"ided":3519,"Ġsolution":3520,"Ġbott":3521,"ĠNo":3522,"Ġarticle":3523,"Ġwonder":3524,"ĠFacebook":3525,"Ġsubs":3526,"Ġcuis":3527,"Ġimpacts":3528,"ĠCom":3529,"lam":3530,"Ġblood":3531,"Ġpassage":3532,"Ġdeath":3533,"Ġvisitors":3534,"Ġready":3535,"Ġtask":3536,"Ġoffic":3537,"Ġsummary":3538,"coming":3539,"Ġatmosphere":3540,"Ġtail":3541,"Ġpush":3542,"Ġcooked":3543,"Ġparticular":3544,"Ġchat":3545,"Ġappropriate":3546,"//":3547,"Ġrecipes":3548,"Ġesc":3549,"Ġreaders":3550,"inc":3551,"icing":3552,"Ġparents":3553,"bor":3554,"Ġdifference":3555,"Ġdesired":3556,"Ġroad":3557,"Ġtypically":3558,"Ġpassion":3559,"ourage":3560,"Ġblock":3561,"overy":3562,"oon":3563,"Ġsituation":3564,"mar":3565,"Ġcop":3566,"Ġstarting":3567,"Ġvalid":3568,"Ġtone":3569,"Ġhol":3570,"aced":3571,"Ġcand":3572,"ounter":3573,"ĠÐ½":3574,"Ġwritten":3575,"Ġprofession":3576,"Ġonto":3577,"Ġpressure":3578,"Ġpict":3579,"Ġerror":3580,"iam":3581,"umber":3582,"Ġarchitecture":3583,"Ġconsid":3584,"Ġfruit":3585,"Ġupon":3586,"Ġinstru":3587,"Ġimpress":3588,"Ġsoil":3589,"Ġaffordable":3590,"abilities":3591,"ĠArt":3592,"ĠIng":3593,"house":3594,"ĠBr":3595,"Ġfinding":3596,"Ġissue":3597,"Ġevidence":3598,"Ġlarger":3599,"Ġheld":3600,"Ġworth":3601,"Ġfront":3602,"lut":3603,"AS":3604,"Ġgradu":3605,"Ġexpected":3606,"ellig":3607,"Ġlength":3608,"ply":3609,"Ġbed":3610,"Ġfamilies":3611,"Ġensuring":3612,"Ġexploring":3613,"Ġteaspoon":3614,"Ġchocolate":3615,"ĠStates":3616,"Ġdetermine":3617,"Ġdeeper":3618,"Ġwid":3619,"Ġpark":3620,"ĠMon":3621,"ifications":3622,"Ġsignificance":3623,"Ġincluded":3624,"Ġwanted":3625,"Ġband":3626,"ĠEach":3627,"illa":3628,"Ġregularly":3629,"ĠResearch":3630,"Ġvisually":3631,"ample":3632,"Ġparts":3633,"Ġgrowing":3634,"ĠGree":3635,"Ġfully":3636,"ĠAss":3637,"Ġinstance":3638,"Ġeye":3639,"Ġthird":3640,"Ġpatient":3641,"Ġonion":3642,"oost":3643,"Ġplaying":3644,"Ġtechnique":3645,"unning":3646,"Ġtree":3647,"load":3648,"cean":3649,"Ġgarden":3650,"words":3651,"Ġagricult":3652,"Ġwine":3653,"oke":3654,"Ġeffort":3655,"Ġyet":3656,"Ġmusc":3657,"Ġdate":3658,"Ġconvey":3659,"ĠBased":3660,"Ġsustainability":3661,"Ġdou":3662,"Ġrevenue":3663,"Ġconcerns":3664,"Ġassess":3665,"Ġlatest":3666,"Ġlemon":3667,"Ġremote":3668,"Ġrespond":3669,"Ġdamage":3670,"Ġcombination":3671,"Ġbenefit":3672,"Ġalign":3673,"Ġdocument":3674,"Ġvict":3675,"ded":3676,"key":3677,"Ġblend":3678,"Ġtracking":3679,"Ġdevice":3680,"Ġtalk":3681,"Ġsatisfaction":3682,"Ġregard":3683,"Ġcyc":3684,"Ġheard":3685,"Ġeffectiveness":3686,"oint":3687,"Ġpresence":3688,"Ġspent":3689,"Ġexecut":3690,"Ġbrain":3691,"Ġaffected":3692,"Ġremember":3693,"Ġimmers":3694,"Ġemployee":3695,"ĠGr":3696,"Ġdiv":3697,"Ġtax":3698,"ĠKeep":3699,"Ġalternative":3700,"('":3701,"Ġglass":3702,"Ġlooked":3703,"Ġschools":3704,"Ġmaxim":3705,"Ġdecisions":3706,"AT":3707,"Ġprocesses":3708,"Ġprice":3709,"ĠStart":3710,"Ġtot":3711,"iber":3712,"Ġconstruction":3713,"Ġri":3714,"sert":3715,"Ġbatter":3716,"Ġfeet":3717,"Ġdisease":3718,"que":3719,"Ġoperations":3720,"Ġvib":3721,"ured":3722,"Ġboard":3723,"Ġstri":3724,"Ġdatab":3725,"ĠPer":3726,"Ġspecies":3727,"Ġrock":3728,"pected":3729,"iers":3730,"ĠTechn":3731,"ĠIngredients":3732,"Ġreading":3733,"Ġmoments":3734,"Ġlater":3735,"idents":3736,"rief":3737,"Ġappreciate":3738,"ĠWorld":3739,"Ġsupply":3740,"rew":3741,"my":3742,"Ġlines":3743,"Ġmonth":3744,"overs":3745,"Ġdeg":3746,"ada":3747,"Ġdefinitely":3748,"Ġrain":3749,"agonist":3750,"Ġteams":3751,"Ġreve":3752,"Ġhimself":3753,"Ġlack":3754,"Ġpal":3755,"ĠÂ":3756,"Ġaccur":3757,"://":3758,"Ġinternational":3759,"Ġhalf":3760,"ules":3761,"Ġprompt":3762,"Ġgeneral":3763,"idden":3764,"ĠPar":3765,"30":3766,"edi":3767,"Ġframe":3768,"chool":3769,"Ġshowcase":3770,"ppers":3771,"Ġfive":3772,"Ġhon":3773,"Ġjoy":3774,"Ġthinking":3775,"enn":3776,"Ġconsidered":3777,"Ġseeds":3778,"onut":3779,"ĠFrom":3780,"Ġanyone":3781,"Ġrisks":3782,"Ġinfluenced":3783,"Ġhoney":3784,"ka":3785,"ister":3786,"Ġdepression":3787,"het":3788,"etimes":3789,"Ġmission":3790,"itary":3791,"Ġdeb":3792,"works":3793,"Ġturned":3794,"ffect":3795,"Ġtopics":3796,"Ġaccept":3797,"Ġcompos":3798,"EO":3799,"rug":3800,"Ġcuisine":3801,"rench":3802,"Ġreader":3803,"Ð·":3804,"Ġeco":3805,"Ġkn":3806,"ivery":3807,"Ġchannels":3808,"Ġharm":3809,"Ġnumer":3810,"Ġhyd":3811,"Ġearth":3812,"Ġstaff":3813,"Ġinj":3814,"Ġrather":3815,"Ġweeks":3816,"Ġ11":3817,"ĠSec":3818,"itter":3819,"))":3820,"Ġproperties":3821,"ĠLa":3822,"Ġbuildings":3823,"Ġpainting":3824,"Ġresist":3825,"Ġprotagonist":3826,"ĠOff":3827,"lies":3828,"ifically":3829,"ief":3830,"ought":3831,"Ġfa":3832,"ĠĠĠĠĠĠĠĠĠ":3833,"Ġaccessible":3834,"Ġstop":3835,"Ġprivate":3836,"Ġdeal":3837,"Ġwomen":3838,"Ġretail":3839,"rs":3840,"Ġinvolve":3841,"ĠHigh":3842,"Ġmit":3843,"ĠInstagram":3844,"Ġsliced":3845,"Ġsmaller":3846,"Ġdistance":3847,"rupt":3848,"ognitive":3849,"Ġslight":3850,"ÐµÐ½":3851,"Ġdeliver":3852,"Ġfab":3853,"lines":3854,"Ġherbs":3855,"Ġrecyc":3856,"ĠCommun":3857,"Ġserved":3858,"Ġsignificantly":3859,"Ġmodels":3860,"Ġschedule":3861,"Â°":3862,"Ġstret":3863,"ĠMarketing":3864,"order":3865,"tenance":3866,"Ġanalytics":3867,"Ġadvice":3868,"Ġsports":3869,"Ġcold":3870,"ek":3871,"Ġexpos":3872,"Ġinitial":3873,"ĠCheck":3874,"Ġnovel":3875,"Ġregions":3876,"ental":3877,"ĠVis":3878,"ara":3879,"used":3880,"ĠCustom":3881,"enses":3882,"Ġdiscover":3883,"inated":3884,"ĠFl":3885,"fit":3886,"Ġcast":3887,"Ġspices":3888,"Ġdiverse":3889,"Ġhop":3890,"eum":3891,"ĠSoph":3892,"more":3893,"iration":3894,"Ġice":3895,"Ġbrought":3896,"Ġec":3897,"Ġcorrect":3898,"Ġcreativity":3899,"Ġcatch":3900,"Ġuna":3901,"ĠAre":3902,"ĠSouth":3903,"ĠUsing":3904,"Ġprefer":3905,"ĠRep":3906,"Ġhistorical":3907,"Ġreceived":3908,"Ġobstacles":3909,"inger":3910,"Ġrelease":3911,"Ġtow":3912,"ĠAct":3913,"ython":3914,"Ġtrade":3915,"ĠOut":3916,"ivil":3917,"Ġcontext":3918,"Ġgrand":3919,"ĠEnjoy":3920,"ini":3921,"Ġgrew":3922,"Ġtomatoes":3923,"apter":3924,"Ġevol":3925,"ĠInstructions":3926,"Ġx":3927,"Ġbox":3928,"Ġnarr":3929,"Ġclient":3930,"NA":3931,"itute":3932,"Ġoffice":3933,"Ġfields":3934,"Ġcomputer":3935,"ken":3936,"Ġpolicy":3937,"ĠBar":3938,"yl":3939,"Ġoccur":3940,"Ġdynam":3941,"Ġcompared":3942,"Ġstruggles":3943,"Ġalmond":3944,"Ġneigh":3945,"Ġgiving":3946,"Ġkit":3947,"Ġver":3948,"Ġpercent":3949,"Ġletter":3950,"Ġheavy":3951,"Ġalgorithm":3952,"ĠConc":3953,"Ġcourses":3954,"Ġspr":3955,"Ġleads":3956,"ended":3957,"Ġplaces":3958,"Ġban":3959,"Ġreduced":3960,"ĠEar":3961,"Ġtrip":3962,"Ġmist":3963,"ither":3964,"Ġpartner":3965,"Ġsets":3966,"Ġmas":3967,"Ġdough":3968,"ball":3969,"ipped":3970,"icated":3971,"Ġmaintaining":3972,"Ġconsequ":3973,"Ġimplementation":3974,"porary":3975,"force":3976,"ava":3977,"Ġpsych":3978,"Ġshel":3979,"ä¸":3980,"Ġbelieved":3981,"Ġdom":3982,"ĠEns":3983,"ulner":3984,"Ġcups":3985,"Ġtheme":3986,"Ġintric":3987,"Ġphotos":3988,"ĠPark":3989,"ĠMore":3990,"Ġpod":3991,"like":3992,"Ġworkers":3993,"Ġultimately":3994,"ÑĢÐ°":3995,"Ġ100":3996,"Ġapps":3997,"ellow":3998,"Ġmood":3999,"Ġhosp":4000,"Ġplastic":4001,"Ġprofessionals":4002,"Ġcultures":4003,"Ġchanging":4004,"Ġcat":4005,"Ġplayer":4006,"Ġcross":4007,"Ġintellig":4008,"Ġobjects":4009,"vest":4010,"urance":4011,"ĠIntern":4012,"Ġexcept":4013,"Ġahead":4014,"Ġsatisf":4015,"ï¼":4016,"Ġboost":4017,"Ġcells":4018,"iding":4019,"itor":4020,"Ġfunding":4021,"iol":4022,"Ġflowers":4023,"Ġexhib":4024,"Ġdepth":4025,"Ġtwist":4026,"Ġvegetable":4027,"Ġcoming":4028,"serve":4029,"Ġanalyz":4030,"Ġresponsible":4031,"Ġclasses":4032,"15":4033,"Ġnutrition":4034,"ĠCook":4035,"Ġdelivery":4036,"Ġtechnical":4037,"zy":4038,"Ġinde":4039,"gment":4040,"ĠWar":4041,"Ġoutdoor":4042,"uries":4043,"ateful":4044,"Ġcentury":4045,"Ġadopt":4046,"imp":4047,"au":4048,"Ġmonitor":4049,"Ġplanet":4050,"Ġsummer":4051,"Ġmother":4052,"Ġincent":4053,"Ġdirectly":4054,"Ġchance":4055,"ĠPract":4056,"Ġleaving":4057,"dom":4058,"Ġprepare":4059,"ĠHey":4060,"Ġcompetition":4061,"otes":4062,"ĠCity":4063,"Ġrise":4064,"Ġvulner":4065,"itors":4066,"Ġbeans":4067,"chen":4068,"Ġtotal":4069,"Ð¾Ð²":4070,"ires":4071,"ĠGreat":4072,"ula":4073,"Ġcreates":4074,"ĠSw":4075,"fast":4076,"Ġprioritize":4077,"Ġappealing":4078,"Ġmeals":4079,"Ġmuseum":4080,"Ġmemories":4081,"Ġnothing":4082,"Ġdoesn":4083,"cl":4084,"Ġimmedi":4085,"encies":4086,"Ġcrisp":4087,"Ġlas":4088,"Ġshad":4089,"Ġgather":4090,"Ġcaused":4091,"Ġeggs":4092,"Ġwalking":4093,"uments":4094,"Ġdiscount":4095,"Ġtea":4096,"ttps":4097,"ĠMus":4098,"ĠNe":4099,"race":4100,"Ġic":4101,"Ġhidden":4102,"Ġcompletely":4103,"Ġguidance":4104,"Ġillust":4105,"Ġsessions":4106,"Ġbasic":4107,"Ġcontrast":4108,"ĠWill":4109,"bre":4110,"Ġproperly":4111,"comm":4112,"________________":4113,"lear":4114,"Ġsituations":4115,"Ġuseful":4116,"Ġsuccessfully":4117,"ĠTom":4118,"list":4119,"uth":4120,"Ġinterface":4121,"12":4122,"Ġbecoming":4123,"ĠDuring":4124,"ĠProg":4125,"Ġcancer":4126,"umn":4127,"Ġterm":4128,"Ġstronger":4129,"Ġbuy":4130,"Ġdatabase":4131,"Ġcities":4132,"isk":4133,"Ġcases":4134,"ĠLily":4135,"Ġoverw":4136,"Ġstruct":4137,"Ġconsistent":4138,"Ġresilience":4139,"Ġbelow":4140,"Ġcraft":4141,"ĠPol":4142,"Ġqual":4143,"Ġoriginal":4144,"Ġaspects":4145,"Ġapply":4146,"Ġalmost":4147,"Ġpet":4148,"Ġcognitive":4149,"Ġchanged":4150,"Ġorganic":4151,"Ġmember":4152,"Ġyoga":4153,"Ġta":4154,"Ġreb":4155,"Ġopp":4156,"ĠMaybe":4157,"Ġhun":4158,"Ġpick":4159,"Ġtele":4160,"ĠEnsure":4161,"Ġbrands":4162,"ores":4163,"raft":4164,"Ġgrateful":4165,"Ġfoods":4166,"Ġconflict":4167,"Ġfro":4168,"Ġwat":4169,"Ġforce":4170,"Ġcin":4171,"Ġconsequences":4172,"ĠMix":4173,"Ġpotatoes":4174,"Ġcontinu":4175,"Ġbeef":4176,"Ġnamed":4177,"Ġsensory":4178,"urch":4179,"Ġrecommended":4180,"wh":4181,"Ġstunning":4182,"Ġhous":4183,"Ġvac":4184,"IN":4185,"ĠAust":4186,"ĠEmma":4187,"Ġretur":4188,"Ġsold":4189,"name":4190,"Ġslightly":4191,"ĠGo":4192,"ĠJust":4193,"Ġposts":4194,"ĠSystem":4195,"Ġreviews":4196,"Ġstreet":4197,"ims":4198,"Ġmetrics":4199,"Ġhit":4200,"Ġloyalty":4201,"Ġcla":4202,"ĠGe":4203,"Ġ16":4204,"Ġocean":4205,"</":4206,"ĠDef":4207,"anging":4208,"Ġcoconut":4209,"fered":4210,"Ġda":4211,"Ġlayer":4212,"Ġcateg":4213,"Ġpages":4214,"yd":4215,"Ġcry":4216,"Ġlighting":4217,"Ġconcise":4218,"arp":4219,"Ġpara":4220,"ĠJo":4221,"pty":4222,"Ñħ":4223,"Ġchem":4224,"].":4225,"Ġmenu":4226,"col":4227,"Ġexpertise":4228,"rong":4229,"ĠIndia":4230,"Ġagree":4231,"Ġoffered":4232,"ĠTrans":4233,"duc":4234,"Ġmaintenance":4235,"Ġadventure":4236,"Ġreact":4237,"AC":4238,"nown":4239,"Ġappl":4240,"Ð¿":4241,"Ġwebsites":4242,"lier":4243,"ĠAut":4244,"Ġadds":4245,"Ġvan":4246,"ably":4247,"Ġintricate":4248,"ompl":4249,"ĠÐ¾":4250,"ups":4251,"Ġball":4252,"Ġeducational":4253,"Ġdoor":4254,"agn":4255,"Ġincome":4256,"Ġlate":4257,"Ġload":4258,"ĠFrench":4259,"ĠEvery":4260,"Ġdecre":4261,"ĠEnc":4262,"eless":4263,"Ġdescriptions":4264,"Ġtablespoon":4265,"Ġcomments":4266,"Ġdetermined":4267,"umin":4268,"Ġgift":4269,"Ġvary":4270,"Ġmovie":4271,"down":4272,"Ġtraditions":4273,"Ġcollege":4274,"Ġcreation":4275,"Ġcontem":4276,"Ġpap":4277,"Ġcondition":4278,"Ġspot":4279,"ĠFirst":4280,"Ġsimply":4281,"Ġoverwhel":4282,"Ġresulting":4283,"Ġmessages":4284,"ĠEd":4285,"Ġrestaurants":4286,"ibilities":4287,"Ġmoving":4288,"Ġ25":4289,"ĠGl":4290,"Ġclick":4291,"Ġworksh":4292,"ously":4293,"Ġcro":4294,"Ġreligious":4295,"Ġanimal":4296,"rooms":4297,"Ġfilling":4298,"Ġitself":4299,"inct":4300,"Ġupdates":4301,"Ġaccompl":4302,"ĠTry":4303,"Ġexisting":4304,"Ġparty":4305,"Ġmilitary":4306,"Ġcurious":4307,"akers":4308,"isms":4309,"Ġclothing":4310,"Ġrequest":4311,"Ġtut":4312,"ĠDesign":4313,"Ġcalm":4314,"Ġproperty":4315,"Ġfascinating":4316,"Ġmap":4317,"Ġdescription":4318,"Ġstruggling":4319,"Ġlandscape":4320,"Ġfat":4321,"Ġchain":4322,"Ġvine":4323,"Ġpricing":4324,"Ġsympt":4325,"Ġbroad":4326,"Ġmeeting":4327,"Ġbond":4328,"Ġusage":4329,"ĠVe":4330,"sm":4331,"Ġsettings":4332,"Ġweak":4333,"Ġinnovation":4334,"Ġnumerous":4335,"AN":4336,"ifying":4337,"lusive":4338,"Ġmanaging":4339,"Ġurban":4340,"ĠGreek":4341,"Ġcarry":4342,"gr":4343,"Ġrh":4344,"Ġglut":4345,"ĠConclusion":4346,"Ġstage":4347,"fficient":4348,"ĠâĢ¢":4349,"ĠServe":4350,"ĠNorth":4351,"flow":4352,"ĠVal":4353,"Ġextract":4354,"Ġtension":4355,"Ġmovements":4356,"gen":4357,"ĠÐº":4358,"eling":4359,"eria":4360,"Ġmorning":4361,"Ġmagic":4362,",âĢĿ":4363,"icip":4364,"Ġdriving":4365,"erce":4366,"Ġalgorithms":4367,"Ġpredict":4368,"Ġgent":4369,"Ġclim":4370,"Ġmotivated":4371,"Ġencount":4372,"Ġpayment":4373,"Ġusually":4374,"Ġspecifically":4375,"?\"":4376,"Ġhabit":4377,"iff":4378,"Ġfiles":4379,"Ġapart":4380,"En":4381,"oration":4382,"Ġwalls":4383,"Ġstores":4384,"inner":4385,"ocado":4386,"Ġspiritual":4387,"Ġhar":4388,"Ġir":4389,"onic":4390,"Ġgave":4391,"ĠJames":4392,"ipping":4393,"water":4394,"Ġpassed":4395,"IC":4396,"Ġfruits":4397,"ht":4398,"ĠPerson":4399,"Ð¹":4400,"Ġparticipate":4401,"Ġinterview":4402,"Ġisland":4403,"Ġru":4404,"Ġĉ":4405,"ocal":4406,"Ġengaged":4407,"itage":4408,"Ġsummar":4409,"Ġmiddle":4410,"ulations":4411,"ĠAnaly":4412,"Ġsymptoms":4413,"ĠChar":4414,"ius":4415,"acity":4416,"Ġsnow":4417,"emade":4418,"eral":4419,"Ġnutri":4420,"usion":4421,"Ġdecided":4422,"Ġideal":4423,"Ġstruggle":4424,"Ġquant":4425,"Ġpeppers":4426,"Ġimpacted":4427,"ox":4428,"Ġbreathing":4429,"Ġmark":4430,"ĠChina":4431,"Ġjobs":4432,"Ġisol":4433,"fu":4434,"ĠDay":4435,"ĠIntrodu":4436,"Ġtransl":4437,"Ġlibrary":4438,"Ġdrug":4439,"Ġcontinues":4440,"Ġimagery":4441,"ĠInclude":4442,"Ġfigure":4443,"ĠPlan":4444,"Ġcapture":4445,"Ġserver":4446,"iday":4447,"Ġnuts":4448,"log":4449,"ĠAb":4450,"ĠYork":4451,"Ġinfluencers":4452,"ĠHar":4453,"Ġexch":4454,"ront":4455,"orial":4456,"Ġ14":4457,"Ġterr":4458,"chol":4459,"Ġprices":4460,"Ġreason":4461,"Ġresearc":4462,"ĠSchool":4463,"icks":4464,"asure":4465,"host":4466,"ĠAPI":4467,"Ġgirl":4468,"ibly":4469,"ublic":4470,"Ġcomplement":4471,"Ġassistance":4472,"Ġdescriptive":4473,"aked":4474,"Ġpollut":4475,"Ġep":4476,"Ġoccas":4477,"orders":4478,"Ġtrain":4479,"Ġimprovement":4480,"\")":4481,"Ġparticipants":4482,"Ġexciting":4483,"Ġviews":4484,"Ġcivil":4485,"ĠOther":4486,"assion":4487,"Ġvill":4488,"Ġconsumption":4489,"AY":4490,"Ġshopping":4491,"Ġtender":4492,"ube":4493,"known":4494,"uration":4495,"ĠFurther":4496,"Ġinvent":4497,"Ġuns":4498,"Ġ50":4499,"ales":4500,"Ġkeeping":4501,"uilding":4502,"Ġmis":4503,"Ġtsp":4504,"ults":4505,"Ġdess":4506,"Ġdiced":4507,"Ġmonitoring":4508,"Ġprimary":4509,"ĠState":4510,"ensity":4511,"Ġdiseases":4512,"Ġdial":4513,"iation":4514,"Ġattack":4515,"Ġinstitut":4516,"gy":4517,"Ġbutton":4518,"Ġseek":4519,"Ġmid":4520,"Ġperspective":4521,"Ġachieving":4522,"Ġscientific":4523,"poons":4524,"Ġbeliefs":4525,"Ġspaces":4526,"OR":4527,"Ġroasted":4528,"inations":4529,"Ġspend":4530,"Ġfarmers":4531,"orporate":4532,"ĠUs":4533,"mat":4534,"Ġamb":4535,"Ġbold":4536,"Ġfair":4537,"ands":4538,"Ġinspired":4539,"sole":4540,"Ġpasta":4541,"Ġanswer":4542,"Ġwall":4543,"Ġlifest":4544,"Ġeither":4545,"illet":4546,"Ġlistening":4547,"Ġbell":4548,"Ġleadership":4549,"Ġdog":4550,"Ġmicro":4551,"Ġconfidence":4552,"Ġtopic":4553,"denly":4554,"Ġath":4555,"Ġwear":4556,"Ġ==":4557,"Ġassign":4558,"Ġplays":4559,"Ġsusp":4560,"\">":4561,"ĠServ":4562,"Ġprocessing":4563,"Ġcleaning":4564,"ĠDav":4565,"Ġeating":4566,"Ġquite":4567,"elines":4568,"ĠDet":4569,"ID":4570,"Ġreliable":4571,"Ġhomes":4572,"num":4573,"Ġcontains":4574,"Ġcrow":4575,"Ġsector":4576,"iller":4577,"Ġunex":4578,"Ġautomation":4579,"ĠIndian":4580,"ĠMind":4581,"ÐµÑĤ":4582,"ĠPlace":4583,"Ġwait":4584,"ĠGod":4585,"inese":4586,"Ġcloud":4587,"Ġfilter":4588,"ĠOpt":4589,"Ġran":4590,"Ġfuel":4591,"ĠRom":4592,"Ġbecomes":4593,"eline":4594,"Ġstatement":4595,"Ġelectricity":4596,"athy":4597,"ĠProgram":4598,"ĠOp":4599,"Ġartist":4600,"Ġnational":4601,"Ġwilling":4602,"Ġguests":4603,"Ġenab":4604,"Ġstrange":4605,"Ġpul":4606,"Ġbottom":4607,"Ġcas":4608,"Ġintelligence":4609,"ĠCut":4610,"Ġlisten":4611,"tra":4612,"Ġtight":4613,"Ġloop":4614,"ĠAvoid":4615,"berries":4616,"oves":4617,"Ġads":4618,"Ġsurpr":4619,"ĠBrit":4620,"ĠEduc":4621,"Ġbattle":4622,"empt":4623,"Ġstatus":4624,"ĠNet":4625,"Ġvegetarian":4626,"Ġplot":4627,"Ġslowly":4628,"Ġdifferences":4629,"iate":4630,"where":4631,"Ġenable":4632,"Ġpoetry":4633,"Ġnorm":4634,"atively":4635,"ĠNow":4636,"Ġindepend":4637,"Ġnarrative":4638,"Ġbul":4639,"Ġsurrounding":4640,"\".":4641,"Ġdescribe":4642,"iors":4643,"Ġmush":4644,"Ġsac":4645,"gon":4646,"Ġwaves":4647,"Ġcloser":4648,"pec":4649,"Ġsmell":4650,"backs":4651,"Ġreput":4652,"Ġlux":4653,"ĠBus":4654,"ushed":4655,"erse":4656,"ulpt":4657,"Ġconfident":4658,"Ġgod":4659,"ĠAc":4660,"rie":4661,"Ġcompetitive":4662,"ute":4663,"Ġrent":4664,"Ġsoul":4665,"antic":4666,"iking":4667,"Ġsched":4668,"Ġfabric":4669,"sec":4670,"Ġmoist":4671,"25":4672,"Ġintervent":4673,"ĠTest":4674,"Ġalive":4675,"Ġgluten":4676,"going":4677,"Ġlaunch":4678,"Your":4679,"Ġexcited":4680,"date":4681,"asons":4682,"Ġcamera":4683,"ĠHave":4684,"Ġrepe":4685,"Ġforg":4686,"Ġcit":4687,"ĠTwitter":4688,"ĠINT":4689,"inate":4690,"Ġspin":4691,"Ġskillet":4692,"acing":4693,"icine":4694,"iance":4695,"Ġrelaxation":4696,"ĠGenerate":4697,"Ġ13":4698,"rating":4699,"Ġmagical":4700,"Ġresearchers":4701,"atures":4702,"uge":4703,"Ġconsumers":4704,"Ġsecret":4705,"Ġwed":4706,"Ġuniverse":4707,"ĠÐ¼":4708,"Ġescape":4709,"Ġentertain":4710,"Ġcher":4711,"ĠNot":4712,"Ġsuitable":4713,"itate":4714,"Ġcere":4715,"Ġconven":4716,"add":4717,"Ġrom":4718,"ĠWhe":4719,"Ġpattern":4720,"Ġcommitment":4721,"Ġvibrant":4722,"çļ":4723,"ĠId":4724,"Ġfollowers":4725,"Ġcannot":4726,"We":4727,"Ġfestival":4728,"UT":4729,"ED":4730,"Ġcy":4731,"Ġviol":4732,"hetic":4733,"Ġreplace":4734,"Ġmagn":4735,"Ġdressing":4736,"Ġgentle":4737,"ÑĤÐ¾":4738,"Ġpracticing":4739,"Ġwealth":4740,"Ġvast":4741,"Ġrecognition":4742,"ĠInstead":4743,"Ġbeach":4744,"çļĦ":4745,"--------":4746,"Ġhumans":4747,"Ġerrors":4748,"Ġhotel":4749,"Ġwit":4750,"enty":4751,"Ġedge":4752,"Ġprepared":4753,"ĠâĢĶ":4754,"Ġexpression":4755,"Ð±":4756,"Ġmixed":4757,"Ġrepl":4758,"Ġer":4759,"Ġroot":4760,"ked":4761,"Ġseems":4762,"Ġinstruction":4763,"Ġfaster":4764,"ommod":4765,"itam":4766,"making":4767,"ĠEnergy":4768,"ĠIts":4769,"Ġstorm":4770,"ĠCenter":4771,"Ġquiet":4772,"Ġfocusing":4773,"ĠAmerica":4774,"Ġtargeted":4775,"rix":4776,"Ġeat":4777,"found":4778,"Ñİ":4779,"Ġextre":4780,"Ġreports":4781,"ĠThen":4782,"umbled":4783,"Ġpoems":4784,"Ġfather":4785,"Ġsud":4786,"Ġpu":4787,"Ġinformative":4788,"Ġsummarize":4789,"iant":4790,"file":4791,"Ġsuff":4792,"Ġunexpected":4793,"Ġlargest":4794,"Ġmaster":4795,"Ġacqu":4796,"Ġnearby":4797,"Ġaf":4798,"Ġresource":4799,"Ġstretch":4800,"Ġprin":4801,"Ġ%":4802,"Ġadvantage":4803,"Ġsend":4804,"ĠGet":4805,"Ġstandard":4806,"Ġcarro":4807,"world":4808,"Ġliterature":4809,"Ġpaint":4810,"Ġeventually":4811,"Ġson":4812,"Ġremains":4813,"Ġfunctions":4814,"arsh":4815,"Ġple":4816,"ãĢ":4817,"Ġconnected":4818,"Ġbrow":4819,"Ġsix":4820,"Ġstars":4821,"Ġmanufacturing":4822,"ogue":4823,"Ġspending":4824,"Ġentre":4825,"Ġcombine":4826,"aming":4827,"ĠInter":4828,"Ġcausing":4829,"Ġseeking":4830,"ĠExpl":4831,"Ġpublished":4832,"Ġsculpt":4833,"Ġsurvive":4834,"Ġbreaks":4835,"Ġincredible":4836,"Ġvision":4837,"Ġgolden":4838,"ĠEarth":4839,"Ġvehicles":4840,"Ġpassword":4841,"Ġsnack":4842,"Ġonions":4843,"ĠCS":4844,"Ġdistract":4845,"Ġ:":4846,"Ġsongs":4847,"Ġexpectations":4848,"Ġcontainer":4849,"Ġtalent":4850,"Ġinspire":4851,"Ġintense":4852,"Ġdreams":4853,"Ġstatistics":4854,"Ġreturns":4855,"Ġowners":4856,"kin":4857,"Ġskill":4858,"Ġbound":4859,"Ġforget":4860,"Ġsides":4861,"azon":4862,"Ġheight":4863,"Ġaddiction":4864,"ĠExper":4865,"ansion":4866,"Ġmarkets":4867,"Ġindic":4868,"Ġinspiration":4869,"Ġdim":4870,"Ġsometimes":4871,"Ġ17":4872,"Ġstick":4873,"ĠGerm":4874,"Ġbroth":4875,"Ġstructures":4876,"though":4877,"Ġcrust":4878,"ĠTO":4879,"ĠEnglish":4880,"Ġkitchen":4881,"Ġpros":4882,"IT":4883,"Th":4884,"ĠGood":4885,"Ġcarefully":4886,"iences":4887,"Ġstar":4888,"Ġpopulation":4889,"Ġcomponents":4890,"Ġaims":4891,"Ġbrief":4892,"Ġaverage":4893,"ien":4894,"Ġcombined":4895,"ï¼Į":4896,"agers":4897,"Ġempty":4898,"ĠCreat":4899,"ĠLook":4900,"px":4901,"Ġbirds":4902,"Ġyogurt":4903,"Ġdespite":4904,"emy":4905,"ĠGreen":4906,"Ġcurrently":4907,"Ġreson":4908,"Ġvinegar":4909,"ros":4910,"Ġmut":4911,"ÑĤÑĮ":4912,"Ġdried":4913,"Ġdedicated":4914,"Ġcake":4915,"erv":4916,"Ġwel":4917,"Ġstake":4918,"Ġdura":4919,"Ġaccurate":4920,"ĠMin":4921,"izza":4922,"Ġresidents":4923,"Ġnotes":4924,"minist":4925,"ĠEst":4926,"Ġrand":4927,"ĠSl":4928,"Ġsuggests":4929,"inkle":4930,"Ġease":4931,"ĠGiven":4932,"Ġshapes":4933,"ico":4934,"Ġlaugh":4935,"Ġcontemporary":4936,"Ġround":4937,"ceed":4938,"ĠAir":4939,"Ġdangerous":4940,"Ġtact":4941,"Ġinteractions":4942,"Ġhabits":4943,"Ġexact":4944,"Ġaw":4945,"ael":4946,"ĠPat":4947,"Ġfollowed":4948,"Ġagriculture":4949,"Ġwalked":4950,"Ġtold":4951,"oosing":4952,"Ġcreamy":4953,"Ġmessaging":4954,"ĠSophie":4955,"ĠFurthermore":4956,"ĠÐ´":4957,"Ġexpenses":4958,"vere":4959,"ĠRemove":4960,"ĠRead":4961,"Ġsupporting":4962,"Ġtransition":4963,"lick":4964,"hest":4965,"ĠCount":4966,"wide":4967,"antha":4968,"bsp":4969,"Ġsizes":4970,"Ġgoods":4971,"wood":4972,"Ġecho":4973,"asts":4974,"Ġinsight":4975,"Ġwatching":4976,"Ġreduction":4977,"Ġfinish":4978,"ĠChinese":4979,"Ġfix":4980,"ĠCO":4981,"Ġjournal":4982,"icking":4983,"Ġjud":4984,"Ġimpressive":4985,"Ġincreasingly":4986,"Ġconnections":4987,"Ġhomemade":4988,"Ġcompare":4989,"Ġfacing":4990,"Ġ2018":4991,"nesses":4992,"bing":4993,"Ġord":4994,"Ġcorn":4995,"Ġheritage":4996,"Ġleader":4997,"Ġconsult":4998,"ĠMax":4999,"ech":5000,"oli":5001,"odes":5002,"Ġmemor":5003,"Ġfost":5004,"ĠMich":5005,"Ġnote":5006,"Ġbag":5007,"udd":5008,"ĠAfrican":5009,"ĠLear":5010,"ffective":5011,"Ġtang":5012,"lt":5013,"ception":5014,"gers":5015,"Ġaccommod":5016,"iled":5017,"Ġlifestyle":5018,"Ġunderg":5019,"ĠSamantha":5020,"Ġconstantly":5021,"ĠAmazon":5022,"();":5023,"Ġattempt":5024,"Ġcommonly":5025,"aph":5026,"efore":5027,"Ġdro":5028,"ĠJapanese":5029,"Ġbeginning":5030,"igen":5031,"Ġcontributed":5032,"ĠProm":5033,"person":5034,"ocks":5035,"Ġforever":5036,"bum":5037,"aze":5038,"ĠChapter":5039,"odies":5040,"year":5041,"ĠPo":5042,"Ġobjectives":5043,"Ġdistribution":5044,"ola":5045,"ashing":5046,"Ġtaught":5047,"Ġtough":5048,"sol":5049,"Ġcert":5050,"Ġfeels":5051,"Ġmetal":5052,"aint":5053,"...":5054,"Ġpodcast":5055,"Ġavailability":5056,"Ġhighlights":5057,"vis":5058,"Ġdemonstrate":5059,"Ġinformed":5060,"lessly":5061,"Ġconducted":5062,"right":5063,"Ġrow":5064,"IS":5065,"Ġstock":5066,"Ġkids":5067,"Ġestablished":5068,"EN":5069,"ĠWater":5070,"Ġpackaging":5071,"ament":5072,"Ġsour":5073,"Ġremov":5074,"emb":5075,"Ġencountered":5076,"OS":5077,"Ġtrou":5078,"aciÃ³n":5079,"Ð¾Ð»":5080,"Ġasked":5081,"related":5082,"ĠPres":5083,"Ġwire":5084,"Ġcoord":5085,"inking":5086,"Ġrust":5087,"cription":5088,"Ġstruggled":5089,"ĠApple":5090,"ander":5091,"Ġhes":5092,"Ġsequ":5093,"Ġvariations":5094,"Ġprogramming":5095,"eries":5096,"orus":5097,"Ġpand":5098,"Ġcovered":5099,"ket":5100,"rial":5101,"Ġtablespoons":5102,"orough":5103,"Ġbrush":5104,"Ġefficiently":5105,"ĠBlack":5106,"yn":5107,"Ġast":5108,"Ġshall":5109,"Ġenvironments":5110,"Ġ--":5111,"Ġrepresents":5112,"Ġinternet":5113,"mal":5114,"Ġrandom":5115,"Ġluck":5116,"Ġavocado":5117,"ĠImpro":5118,"Ġneighbor":5119,"ĠBen":5120,"Ġmyst":5121,"Ġimmediately":5122,"ÑĢÐµ":5123,"lean":5124,"ĠBre":5125,"Ġdetermination":5126,"ĠAng":5127,"Ġteachers":5128,"holders":5129,"cious":5130,"Ġhandling":5131,"ppings":5132,"ĠAustral":5133,"Ġgro":5134,"Ġgenerated":5135,"Ġearlier":5136,"ĠIntroduction":5137,"verty":5138,"Ġknowing":5139,"Ġpoverty":5140,"ĠTV":5141,"Ġmanaged":5142,"Ġphr":5143,"Ġcentral":5144,"Ġongoing":5145,"Ġdrink":5146,"Ġbreakfast":5147,"Ġshift":5148,"Ġfulf":5149,"Ġfiber":5150,"Ġcolleag":5151,"Ġcolorful":5152,"ĠAR":5153,"ĠBusiness":5154,"Ġstanding":5155,"off":5156,"Ġpaid":5157,"inoa":5158,"Ġine":5159,"ĠIdent":5160,"input":5161,"Ġpollution":5162,"ĠOb":5163,"prene":5164,"Ġkept":5165,"Ġfirm":5166,"AD":5167,"Ġconversation":5168,"Ġsquare":5169,"ĠInternational":5170,"Ch":5171,"Ġroles":5172,"Ġexperts":5173,"Ġgeneration":5174,"Ġprotection":5175,"60":5176,"Ġsell":5177,"Ġbike":5178,"Ġintegration":5179,"ĠDep":5180,"Ġlocations":5181,"Ġtransfer":5182,"Ġnoise":5183,"ĠRet":5184,"Ġ24":5185,"Ġmanip":5186,"can":5187,"Ġorganized":5188,"working":5189,"Ġinteger":5190,"ĠMc":5191,"Ġreveal":5192,"Ġflo":5193,"Ġtomato":5194,"Ġdire":5195,"onom":5196,"Ġsites":5197,"Ġtend":5198,"Ġaccomplish":5199,"Ġclar":5200,"Ġfloor":5201,"Ġpackage":5202,"rest":5203,"Ġweap":5204,"Ġcredit":5205,"Ġcalls":5206,"()`":5207,"ÑĤÐµ":5208,"itement":5209,"rates":5210,"Ġwrong":5211,"Ġexcess":5212,"aby":5213,"aborate":5214,"Ã±":5215,"Ġ199":5216,"Ġsight":5217,"ĠColl":5218,"ĠIncre":5219,"ĠSte":5220,"iny":5221,"ero":5222,"Ġfacil":5223,"Ġconfig":5224,"Ġrecovery":5225,"namon":5226,"Ġspicy":5227,"Ġtbsp":5228,"Ġrural":5229,"Ġstarts":5230,"Ġstraight":5231,"dd":5232,"Ġpicture":5233,"Ġwinter":5234,"Enter":5235,"AM":5236,"Ġcontroll":5237,"Ġmaximum":5238,"iliar":5239,"ĠMoreover":5240,"unt":5241,"Ġconflicts":5242,"Ġkeywords":5243,"Ġfo":5244,"ama":5245,"Ġseconds":5246,"Ġrespect":5247,"iture":5248,"ints":5249,"bles":5250,"Ġ>":5251,"Ġadvancements":5252,"ĠCompany":5253,"Ġserves":5254,"Ġswe":5255,"Ġgoes":5256,"Ġinvesting":5257,"ĠInf":5258,"Ġmur":5259,"Ġconservation":5260,"uts":5261,"Ġaid":5262,"Ġdisapp":5263,"Ġimmersive":5264,"Ġdisorders":5265,"chain":5266,"Ġflu":5267,"ĠÑ":5268,"ĠDAY":5269,"Ġfant":5270,"Ġthorough":5271,"mental":5272,"Ġexcitement":5273,"Ġceremon":5274,"Ġcaught":5275,"plement":5276,"Ġwellness":5277,"lin":5278,"Ġexplan":5279,".âĢĿ":5280,"ĠMex":5281,"ĠJane":5282,"Ġscent":5283,"Ġ2019":5284,"Ġreported":5285,"Ġengineering":5286,"Ġbird":5287,"aper":5288,"Ġsharp":5289,"Ġking":5290,"Ġseparate":5291,"ĠBo":5292,"hern":5293,"Ġresistance":5294,"Ġnode":5295,"Ġchips":5296,"Ġdram":5297,"Ġchili":5298,"Ġselection":5299,"Ġdynamic":5300,"ĠBefore":5301,"Ġcalculate":5302,"ctors":5303,"Ġfont":5304,"Ġproviders":5305,"Ġcoaching":5306,"Ġathlet":5307,"Ġextensive":5308,"Ġpersonality":5309,"Ġholding":5310,"Ġreached":5311,"Ġminced":5312,"bed":5313,"Ġmeant":5314,"Ġteaching":5315,"ĠTy":5316,"21":5317,"Ġmeaningful":5318,"Ġghost":5319,"Ġscenar":5320,"Ġworkshops":5321,"ĠAtt":5322,"Ġexchange":5323,"ĠMod":5324,"rations":5325,"Ġfurn":5326,"ternal":5327,"unction":5328,"ivals":5329,"ĠSan":5330,"osystem":5331,"Ġupdate":5332,"Ġaffects":5333,"aren":5334,"Ġnotable":5335,"Ġindex":5336,"aker":5337,"Ġ<<":5338,"ionally":5339,"Ġalbum":5340,"craft":5341,"Ġtourism":5342,"Ġrealize":5343,"Ġglow":5344,"Ġanalyzing":5345,"Ġsitting":5346,"Ġpor":5347,"ĠPersonal":5348,"ĠData":5349,"ilant":5350,"ĠPractice":5351,"Ġang":5352,"alse":5353,"Ġrhyth":5354,"Ġstates":5355,"Ġmulti":5356,"ographic":5357,"ira":5358,"Ġinner":5359,"Ġhour":5360,"Ġlived":5361,"Ġnames":5362,"Ġdarkness":5363,"Ġplenty":5364,"Ġheavily":5365,"Ġproduced":5366,"Ġjew":5367,"action":5368,"!\"":5369,"Ġchoices":5370,"LE":5371,"mission":5372,"zen":5373,"Ġlabor":5374,"Ġcapacity":5375,"Ġjoin":5376,"Ġtitle":5377,"uracy":5378,"ĠWest":5379,"Ġsheet":5380,"Ġpresentation":5381,"ĠPython":5382,"Ġchemical":5383,"Ġworkplace":5384,"Ġfacilities":5385,"Ġchronic":5386,"riger":5387,"Ġbeat":5388,"Ð½Ð¾":5389,"Ġflexibility":5390,"CT":5391,"raid":5392,"Ġshop":5393,"ĠDavid":5394,"Ġemerged":5395,"Ġensures":5396,"Ð³":5397,"Ġmusical":5398,"amples":5399,"Ġactually":5400,"cont":5401,"Ġfans":5402,"atur":5403,"airs":5404,"Ġlessons":5405,"dis":5406,"Ġecosystem":5407,"Ġmixing":5408,"Ġdestination":5409,"iche":5410,"Ð¾Ð¼":5411,"Ġreferr":5412,"ĠMark":5413,"Ġmaybe":5414,"Ġvital":5415,"ĠTherefore":5416,"Ġrevolution":5417,"reg":5418,"Ġconcepts":5419,"Ġempathy":5420,"azz":5421,"ĠMary":5422,"ails":5423,"Ġnoticed":5424,"Ġresolution":5425,"Ġpartnerships":5426,"ĠBro":5427,"pid":5428,"Ġchatb":5429,"Ġfer":5430,"ĠTod":5431,"Ġwaiting":5432,"Ġcars":5433,"Ġcontract":5434,"Pro":5435,"Ġrights":5436,"Ġrat":5437,"Ġsurrounded":5438,"Ġrefresh":5439,"Ġexposure":5440,"ĠMuse":5441,"Ġnewfound":5442,"Ġincentives":5443,"ĠSEO":5444,"estern":5445,"Ġspl":5446,"ĠDec":5447,"Ġformer":5448,"ercial":5449,"Ġhappened":5450,"Ġchart":5451,"ĠLena":5452,"Ġsolve":5453,"Ġwidely":5454,"Ġcab":5455,"Ġmill":5456,"Ġunivers":5457,"Ġgraphics":5458,"ny":5459,"Ġdistinct":5460,"Ġsurvey":5461,"Ġmanufacture":5462,"Ġvariable":5463,"ls":5464,"asters":5465,"ensions":5466,"Ġcomplexity":5467,"ille":5468,"Ġrely":5469,"Ġhero":5470,"Ġcommitted":5471,"raw":5472,"Ġcarrots":5473,"Ġpizza":5474,"Ġsession":5475,"Ġaudio":5476,"ographics":5477,"Ġtall":5478,"ĠSpr":5479,"erts":5480,"Ġmountain":5481,"ĠOrgan":5482,"Ġetc":5483,"Ġenables":5484,"Ġfactor":5485,"ĠEncourage":5486,"Ġfootprint":5487,"arily":5488,"Ġbarri":5489,"imal":5490,"othes":5491,"Ġfunctionality":5492,"Ġclin":5493,"ĠImplement":5494,"Ġsurvival":5495,"Ġstreets":5496,"alian":5497,"Ġarticles":5498,"Ġcapabilities":5499,"`.":5500,"Ġgives":5501,"ams":5502,"otic":5503,"telling":5504,"Ġraise":5505,"org":5506,"Ġphoto":5507,"Ġaccuracy":5508,"Ġstandards":5509,"Ġtraum":5510,"Ġpriv":5511,"Ġidentifying":5512,"ĠOpen":5513,"Ġdouble":5514,"rets":5515,"Ġmoved":5516,"Ġvitam":5517,"Ġtoppings":5518,"acking":5519,"++":5520,"Ġpump":5521,"ij":5522,"Ġstrengths":5523,"Ġcommand":5524,"Ġfold":5525,"Ġperformances":5526,"plications":5527,"www":5528,"Ġdialogue":5529,"ÑĢÐ¸":5530,"Ġflexible":5531,"Ġminimal":5532,"Ġsays":5533,"Ġcustomize":5534,"Ġdevelopers":5535,"Ġfriendly":5536,"Ġinternal":5537,"Ġresol":5538,"Ġchoosing":5539,"ĠII":5540,"ĠUnder":5541,"Ġencry":5542,"Ġmitigate":5543,"Ġpars":5544,"Ġgreenhouse":5545,"Ġjump":5546,"Ġvanilla":5547,"outs":5548,"Ġafraid":5549,"Ġburn":5550,"Ġcovers":5551,"Ġauthentic":5552,"Ġgrav":5553,"oles":5554,"ÃŃa":5555,"ĠHouse":5556,"ĠSalt":5557,"Ġfill":5558,"inch":5559,"Ġbad":5560,"Ġfeaturing":5561,"part":5562,"ĠGra":5563,"Ġrace":5564,"ĠProduct":5565,"Ġhousing":5566,"ounds":5567,"It":5568,"tered":5569,"achel":5570,"Ġcompl":5571,"li":5572,"Ġcookies":5573,"rees":5574,"wise":5575,"Ġsor":5576,"rup":5577,"ĠSur":5578,"Ġpandemic":5579,"income":5580,"Ġprofile":5581,"Ġseasoning":5582,"ciples":5583,"ida":5584,"asting":5585,"Ġmotivation":5586,"Ġlegal":5587,"Ġcompleted":5588,"rror":5589,"ĠAfrica":5590,"active":5591,"PS":5592,"Ġguided":5593,"Ġmemorable":5594,"Ġfears":5595,"ĠUp":5596,"Ġpolice":5597,"ighter":5598,"Ġcapable":5599,"ĠFocus":5600,"Ġappearance":5601,"Ġstakeholders":5602,"Ġbillion":5603,"ĠAns":5604,"Ġregarding":5605,"Ġdeploy":5606,"char":5607,"Ð½Ñĭ":5608,"Ġadoption":5609,"ĠJava":5610,"ĠFind":5611,"ĠVR":5612,"overn":5613,"div":5614,"Ġstability":5615,"Ġteach":5616,"18":5617,"ĠBritish":5618,"Ġbeg":5619,"ĠPlay":5620,"Ġreward":5621,"Ġmuscle":5622,"Ġentreprene":5623,"ĠGroup":5624,"ulated":5625,"Ġvegg":5626,"Ġarms":5627,"Ġupcoming":5628,"Ġtransp":5629,"Ġadvoc":5630,"âĢĶ":5631,"Ġmassive":5632,"ĠSub":5633,"Ġfrequently":5634,"ĠOh":5635,"Ġhiking":5636,"Ġrewards":5637,"text":5638,"ila":5639,"Ġlights":5640,"itual":5641,"Ð»Ð¸":5642,"Ġshr":5643,"ĠEven":5644,"Ġexplores":5645,"Ð½Ð¸":5646,"son":5647,"Ġspeaking":5648,"ĠMuseum":5649,"Ġconstruct":5650,"Ġconv":5651,"Ġshowed":5652,"Ġarts":5653,"Ġjustice":5654,"ĠKing":5655,"Ġflavorful":5656,"Ġinventory":5657,"Ġexpensive":5658,"standing":5659,"Ġmushrooms":5660,"commerce":5661,"Ġnetworks":5662,"Ġrein":5663,"Ġtempl":5664,"rick":5665,"imed":5666,"Ġconsumer":5667,"pan":5668,"Ġfocuses":5669,"mber":5670,"Ġwindow":5671,"Ġtrail":5672,"Ġcinnamon":5673,"Ġsoy":5674,"arter":5675,"bert":5676,"Ġopin":5677,"ĠStr":5678,"Ġevaluate":5679,"hand":5680,"Ġrot":5681,"bl":5682,"Ġnotice":5683,"osed":5684,"Ġaudiences":5685,"top":5686,"Ġlanguages":5687,"Ġglad":5688,"yme":5689,"icial":5690,"Ġshot":5691,"style":5692,"Ġfrequency":5693,"ĠWilliam":5694,"ĠJour":5695,"gypt":5696,"ae":5697,"ificial":5698,"Ġtruth":5699,"Ġdirection":5700,"itar":5701,"Ġvir":5702,"Ġsnacks":5703,"ĠColle":5704,"Ġcycle":5705,"Ġdeeply":5706,"ette":5707,"Ġreputation":5708,"Ġsacr":5709,"Ġgenerations":5710,"Ġrose":5711,"RE":5712,"ĠWind":5713,"Ġseam":5714,"Ġrealistic":5715,"Ġdow":5716,"Ġmig":5717,"Ġdinner":5718,"ĠRuss":5719,"Ġhaun":5720,"Ġneighborhood":5721,"Ð¾Ð³":5722,"ĠMedia":5723,"Ġcrispy":5724,"`,":5725,"ĠBal":5726,"Ġrefriger":5727,"Ġcore":5728,"ads":5729,"Ġattacks":5730,"Ġencourages":5731,"Ġcontributions":5732,"ĠIr":5733,"Ġguidelines":5734,"Ġexclusive":5735,"ĠSom":5736,"ĠItalian":5737,"Ġenjoyed":5738,"string":5739,"Ġsupplies":5740,"Ġremaining":5741,"Ġprinciples":5742,"Ġdessert":5743,"Ġstaying":5744,"lamm":5745,"Ġcolleagues":5746,"dr":5747,"Ġevenly":5748,"ether":5749,"Ġcompelling":5750,"data":5751,"Ġcandid":5752,"ĠCr":5753,"Ġscientists":5754,"Ġchest":5755,"ĠTime":5756,"owered":5757,"Ġopened":5758,"hab":5759,"box":5760,"Ġlimitations":5761,"Ġaccounts":5762,"nel":5763,"Ġproced":5764,"Ġcha":5765,"Ġforeign":5766,"Ġconversion":5767,"Ġcouple":5768,"ĠEuropean":5769,"Ġconcent":5770,"ĠShare":5771,"Ġswitch":5772,"kay":5773,"ĠEducation":5774,"Ġpossess":5775,"edom":5776,"ĠTitle":5777,"Ġembrace":5778,"Ġhttps":5779,"Ġserious":5780,"Ġdisrupt":5781,"ĠÐ½Ð°":5782,"Ġresponsibility":5783,"gra":5784,"Ġadminist":5785,"ĠScience":5786,"angers":5787,"Ġcrops":5788,"Ġpoor":5789,"ĠâĢĺ":5790,"mp":5791,"Ġlaun":5792,"umes":5793,"mas":5794,"acon":5795,"Ġspeaker":5796,"ounce":5797,"ĠFood":5798,"Ġstudying":5799,"ĠSince":5800,"Ġmechanisms":5801,"Ġflood":5802,"Ġappreciation":5803,"Ġdoll":5804,"oding":5805,"ĠEgypt":5806,"Ġtrig":5807,"Wh":5808,"Ġthank":5809,"ancy":5810,"Ġgrown":5811,"ÑĪ":5812,"ĠProject":5813,"Ġchildhood":5814,"Ġtofu":5815,"Ġinstallation":5816,"tr":5817,"Ġaside":5818,"Ġcorner":5819,"ĠBest":5820,"lets":5821,"Ġhospital":5822,"Ġcommercial":5823,"Ġ2017":5824,"isis":5825,"ĠRiver":5826,"Ġsavings":5827,"rip":5828,"Ġauthentication":5829,"ender":5830,"Ġbot":5831,"Ġgone":5832,"ague":5833,"Ġsuc":5834,"Ġfurniture":5835,"Ġinstruments":5836,"Ġconsole":5837,"fl":5838,"omet":5839,"ĠMor":5840,"served":5841,"Ġrelief":5842,"Ġscale":5843,"Ġtailored":5844,"hus":5845,"Ġcomponent":5846,"Ġtactics":5847,"Ġvent":5848,"Ġpun":5849,"Ġinstitutions":5850,"Ġcollaborate":5851,"olf":5852,"ection":5853,"Ġemails":5854,"Ġpeaceful":5855,"Ġship":5856,"Ġ@":5857,"Ġschol":5858,"ĠOl":5859,"Ġparties":5860,"Ġexperiencing":5861,"iox":5862,"Ġaddressing":5863,"Ġriver":5864,"Ġstood":5865,"Ġstorytelling":5866,"ĠMag":5867,"anch":5868,"Ġcounter":5869,"Ġflat":5870,"Ã¡s":5871,"ĠSimilar":5872,"ications":5873,"Ġpotato":5874,"Ġpure":5875,"Ġapple":5876,"bal":5877,"ĠĠĠĠĠĠĠ":5878,"ĠSud":5879,"Ġjewel":5880,"ham":5881,"Ġpurs":5882,"ĠFollow":5883,"ĠMicro":5884,"Ġcustomized":5885,"ĠPost":5886,"Ġapproaches":5887,"berry":5888,"Ġbank":5889,"Ġbelong":5890,"Ġolder":5891,".)":5892,"ĠSol":5893,"Ġtick":5894,"Ġreminder":5895,"ĠMichael":5896,"Ġadop":5897,"ĠToday":5898,"Ġcreature":5899,"una":5900,"Ġadults":5901,"Ġdiscounts":5902,"Ġteacher":5903,"roud":5904,"Ġbusy":5905,"ĠHT":5906,"ogether":5907,"Ġachieved":5908,"Ġperiods":5909,"band":5910,"Ġspinach":5911,"Ġwider":5912,"ari":5913,"Ġcompar":5914,"Ġcareful":5915,"Ġopening":5916,"Ġencounter":5917,"Ġrapid":5918,"des":5919,"Ġsurroundings":5920,"Ġswim":5921,"ishing":5922,"Ġride":5923,"Ġvend":5924,"Ġcompost":5925,"ĠMusic":5926,"Ġber":5927,"writ":5928,"ĠUsers":5929,"Ġforces":5930,"Ġvia":5931,"ault":5932,"Ġfine":5933,"Ġliqu":5934,"AL":5935,"Ġends":5936,"Ġemergency":5937,"cons":5938,"Ġfindings":5939,"Ġitem":5940,"Ġdownload":5941,"Ġcenturies":5942,"Ġcopy":5943,"Ġdispl":5944,"Ġago":5945,"Ġhappiness":5946,"Ġinfluencer":5947,"Ġoptimization":5948,"Ġaccordingly":5949,"ĠUlt":5950,"Ġhighlighting":5951,"Ġrecently":5952,"Ġsupports":5953,"Ġden":5954,"Ġginger":5955,"Ġcapital":5956,"Ġpartnership":5957,"Ġelectronic":5958,"lete":5959,"Ġdiagn":5960,"ĠAssoci":5961,"Ġcompassion":5962,"ĠPal":5963,"Ġequal":5964,"Ġsucceed":5965,"Ġbath":5966,"ĠLike":5967,"Ġbirth":5968,"Ġforced":5969,"met":5970,"omb":5971,"ĠWork":5972,"igenous":5973,"under":5974,"ĠAnswer":5975,"Name":5976,"Ġritual":5977,"Ġhighest":5978,"Ġrecognize":5979,"Ġreleased":5980,"rical":5981,"Ġprem":5982,"Ġaimed":5983,"Ġarm":5984,"Ġprofit":5985,"Ġcompetitors":5986,"::":5987,"Ġ500":5988,"Ġgradually":5989,"ifact":5990,"Ġkindness":5991,"Ġten":5992,"weight":5993,"Ġcater":5994,"Ġfestivals":5995,"Ġestim":5996,"Ġdesire":5997,"Ġ40":5998,"ĠPrehe":5999,"Ġluxury":6000,"ĠPort":6001,"Ġinsurance":6002,"Ġdefine":6003,"Ġversat":6004,"ĠHol":6005,"serving":6006,"bur":6007,"Ġfollows":6008,"Ġdesk":6009,"ĠPot":6010,"olk":6011,"ĠPreheat":6012,"Ġhasht":6013,"ĠEmp":6014,"fall":6015,"Ġnutrients":6016,"mented":6017,"Ġmyth":6018,"äº":6019,"verse":6020,"Ð¾Ð´":6021,"Ġintroduced":6022,"Ġdefe":6023,"Ġmanner":6024,"Ġbehaviors":6025,"ĠTop":6026,"ocation":6027,"Ġgrilled":6028,"igating":6029,"ohol":6030,"atically":6031,"ĠManagement":6032,"Ġvulnerable":6033,"ĠTur":6034,"Ġscore":6035,"ĠBra":6036,"Ġbattery":6037,"Ġfaces":6038,"night":6039,"Ġreflects":6040,"afood":6041,"Ġvisuals":6042,"Ġsolid":6043,"Ġimprovements":6044,"ĠCalif":6045,"ĠLink":6046,"Ġtours":6047,"Ġĉĉ":6048,"($":6049,"pace":6050,"OM":6051,"Ġworldwide":6052,"Ġsearching":6053,"Ġprinting":6054,"EM":6055,"Ġlinks":6056,"Ġengines":6057,"Ġharsh":6058,"ĠGar":6059,"Ġpursu":6060,"Ġsample":6061,"Ġwriter":6062,"11":6063,"Ð°Ðº":6064,"idential":6065,"Ġsupportive":6066,"Ġdegree":6067,"Ġshelter":6068,"Ġscenes":6069,"ican":6070,"osen":6071,"Ġhealing":6072,"Ġprofound":6073,"Ġscan":6074,"Ġsymbols":6075,"kes":6076,"80":6077,"Ġhappen":6078,"Ġpued":6079,"Ġlime":6080,"Ġsecrets":6081,"ooper":6082,"equ":6083,"do":6084,"Ġsyrup":6085,"Ġturns":6086,"ita":6087,"Ġmer":6088,"athe":6089,"Ġ2016":6090,"Ġtrend":6091,"Ġpsychological":6092,"cohol":6093,"ett":6094,"Ġtreatments":6095,"Ġsandw":6096,"peas":6097,"ornia":6098,"Ġcutting":6099,"Ġquinoa":6100,"Ġargument":6101,"haps":6102,"ĠLast":6103,"ĠWal":6104,"Ġmissing":6105,"Ġdrop":6106,"Ġbrings":6107,"Ġdisaster":6108,"Ġvolume":6109,"Ġbags":6110,"Ġfunctional":6111,"Ġartifact":6112,"ache":6113,"ĠTechnology":6114,"Ġmountains":6115,"\":":6116,"Ġobtain":6117,"efficient":6118,"ĠÃ":6119,"ĠDirect":6120,"count":6121,"ĠRoman":6122,"Ġdu":6123,"abel":6124,"cil":6125,"Ġretention":6126,"Ġneck":6127,"Ġwildlife":6128,"bit":6129,"mark":6130,"Ġcoast":6131,"imon":6132,"Ð¶":6133,"Ġsynt":6134,"Ġfaith":6135,"ishes":6136,"Ġcenters":6137,"Ġtechnological":6138,"Ġconsistency":6139,"Ġshadows":6140,"Ġspirits":6141,"ET":6142,"andon":6143,"Ġconcern":6144,"izer":6145,"Ġexploration":6146,"ĠGovern":6147,"ĠMain":6148,"Ġhowever":6149,"Ġcourage":6150,"Ġbes":6151,"pes":6152,"Ġevolved":6153,"anges":6154,"oad":6155,"Ġincredibly":6156,"Ġalle":6157,"ifts":6158,"Ġwriters":6159,"ĠIncorporate":6160,"ĠCur":6161,"40":6162,"asp":6163,"Ġsem":6164,"Ġign":6165,"Ġtemperatures":6166,"ey":6167,"husi":6168,"Ġboy":6169,"phone":6170,"Ġelim":6171,"uses":6172,"ĠWhether":6173,"Ġpresented":6174,"Ġvisibility":6175,"Ġgained":6176,"Ġpour":6177,"Ġtalking":6178,"Ġabsor":6179,"ĠAnt":6180,"Ġorange":6181,"Ġven":6182,"Ġentertainment":6183,"press":6184,"Ġprob":6185,"Ġfier":6186,"nes":6187,"Ġscheme":6188,"Ġgently":6189,"resp":6190,"Ġcards":6191,"ĠMal":6192,"ĠRel":6193,"Ġhousehold":6194,"Ġcauses":6195,"rika":6196,"Ġparam":6197,"Ġremained":6198,"ugg":6199,"Ġmole":6200,"Ġjewelry":6201,"Ġdoub":6202,"Ġreduces":6203,"Ġwave":6204,"Ġpictures":6205,"Ġintegrated":6206,"ompany":6207,"')":6208,"Ġisolation":6209,"ĠMet":6210,"ĠCollege":6211,"Ġ!":6212,"Ġexplanation":6213,"Ġgram":6214,"Ġinterventions":6215,"Ġintegrate":6216,"ora":6217,"Ġsigns":6218,"Ġproud":6219,"Ġdrinks":6220,"Ġimmune":6221,"Ġincorporated":6222,"Ġrecycling":6223,"ums":6224,"Ġadm":6225,"Ġminimize":6226,"Ġrefreshing":6227,"Ġsegment":6228,"Ġsurviv":6229,"Ġaest":6230,"Ġspons":6231,"Ġgets":6232,"Ġearn":6233,"Ġspark":6234,"Ġoperating":6235,"Ġfunds":6236,"pret":6237,"Ġaward":6238,"ĠPa":6239,"ĠList":6240,"Ġslices":6241,"veys":6242,"Ġsociet":6243,"Ġsyn":6244,"Ġthous":6245,"ĠEmploy":6246,"ĠCalifornia":6247,"Ġencouraging":6248,"Ġdedication":6249,"Ġhealthier":6250,"ĠJan":6251,"Ġgall":6252,"Ġproposed":6253,"Ġyellow":6254,"wers":6255,"ĠDel":6256,"cknow":6257,"Ġapplied":6258,"Ġmovies":6259,"Ġskilled":6260,"];":6261,"Ġartistic":6262,"Ġelaborate":6263,"Ġnavigation":6264,"Ġarrange":6265,"ĠPay":6266,"Ġfreedom":6267,"Ġenthusi":6268,"Ġmystery":6269,"ĠPeople":6270,"ĠIdentify":6271,"ĠMr":6272,"Ġapprox":6273,"à¸²":6274,"Ġspeech":6275,"Error":6276,"75":6277,"Ġcolon":6278,"200":6279,"Ġfrust":6280,"ĠPour":6281,"ĠEast":6282,"Ġgran":6283,"ĠSupport":6284,"solving":6285,"Ġsen":6286,"ĠJu":6287,"Ġpanels":6288,"Ġclothes":6289,"Ġaccident":6290,"Ġsensors":6291,"ĠÐ±":6292,"reeze":6293,"ĠCommunity":6294,"Ġsensitive":6295,"ords":6296,"Ġoverview":6297,"ĠClick":6298,"ĠMount":6299,"ĠUK":6300,"uk":6301,"struction":6302,"Ġtag":6303,"tering":6304,"Ġmotion":6305,"ĠCor":6306,"Ġwatched":6307,"Ġthanks":6308,"ãģ":6309,"ĠRen":6310,"Ġscr":6311,"Ġhydro":6312,"ml":6313,"ĠRef":6314,"anted":6315,"Ġlon":6316,"ĠSum":6317,"Ġreasons":6318,"IM":6319,"Ġbasil":6320,"asy":6321,"Ġmuscles":6322,"formation":6323,"Ġhumor":6324,"Ġstim":6325,"Ġshowing":6326,"Ġclosely":6327,"Ġoutl":6328,"cur":6329,"ĠDig":6330,"ĠJake":6331,"Ġmachines":6332,"Ġseeing":6333,"ocking":6334,"abet":6335,"Ġadvantages":6336,"Ġveggies":6337,"Ġsevere":6338,"Ġpret":6339,"Ġtargeting":6340,"Ġselecting":6341,"Ġiconic":6342,"Ġlinked":6343,"ML":6344,"ĠMo":6345,"Ġstumbled":6346,"Ġstrings":6347,"Ġfigures":6348,"Ġmusicians":6349,"Ġupl":6350,"profit":6351,"ĠHot":6352,"Ġshaping":6353,"ä»":6354,"Ġcrunch":6355,"ĠBel":6356,"ĠChild":6357,"Ġlogo":6358,"Ġcrisis":6359,"Ġlaunched":6360,"length":6361,"ask":6362,"page":6363,"Ġseafood":6364,"Ġfamiliar":6365,"Ġbeneficial":6366,"Ġwarmth":6367,"Ġmistakes":6368,"Ġmyster":6369,"ulating":6370,"ĠÑĤ":6371,"Ġpuzz":6372,"car":6373,"Ġcrack":6374,"dy":6375,"ondon":6376,"ait":6377,"esan":6378,"Ġemphasizes":6379,"Ġcuc":6380,"Ġscal":6381,"Ġturning":6382,"ĠConf":6383,"Ġregist":6384,"Ġsunlight":6385,"Ġeleg":6386,"Ġraised":6387,"roy":6388,"Ġofficial":6389,"Ġpen":6390,"Ġresponsibilities":6391,"Ġromantic":6392,"Ġunw":6393,"ĠLuc":6394,"Ġprop":6395,"str":6396,"Ġacid":6397,"Ġcrew":6398,"Ġwrap":6399,"ĠInvest":6400,"Ġexternal":6401,"Ġarom":6402,"mus":6403,"Ġinitiative":6404,"Ġera":6405,"ĠHum":6406,"ĠCustomer":6407,"Ġappoint":6408,"Ġpromotions":6409,"amic":6410,"Ġfle":6411,"ilos":6412,"ĠMem":6413,"Ġdietary":6414,"ĠScene":6415,"Ġbringing":6416,"Ġillustrate":6417,"Ġfan":6418,"Ġintu":6419,"ãĢĤ":6420,"Ġdust":6421,"Ġiron":6422,"Ġwhisk":6423,"Ġvisiting":6424,"Ġcouns":6425,"Ġnood":6426,"ĠChorus":6427,"Ġrecognized":6428,"Ġplaced":6429,"Ġsto":6430,"izable":6431,"Ġtextures":6432,"Ġstation":6433,"ĠStir":6434,"Ġbaby":6435,"Ġsuspense":6436,"ĠHist":6437,"Ġpassing":6438,"Ġcitiz":6439,"14":6440,"ĠFound":6441,"Ġmal":6442,"ĠAlice":6443,"Ġminimum":6444,"Ġmeets":6445,"osis":6446,"Ġ</":6447,"Ġunf":6448,"Ġdisplays":6449,"Ġperformed":6450,"ĠSimilarly":6451,"Ġenabling":6452,"atever":6453,"Ġagency":6454,"Ġwedding":6455,"Ġparsley":6456,"**":6457,"Ġstone":6458,"Ġeveryday":6459,"reet":6460,"Ġinspiring":6461,"Ġrules":6462,"ĠJess":6463,"Ġschedul":6464,"Ġfighting":6465,"Ġartwork":6466,"Ġsavory":6467,"Ġmedicine":6468,"angle":6469,"Ġrhythm":6470,"Ġselling":6471,"Ġfailure":6472,"rapy":6473,"Ġsurf":6474,"Ġdiscovery":6475,"ĠPublic":6476,"Ġcelebrate":6477,"Ġmeetings":6478,"ĠParis":6479,"Ġdesigners":6480,"anish":6481,"Ġpopulations":6482,"Ġabandon":6483,"Ġbiggest":6484,"Ġstrategic":6485,"ÑĨ":6486,"Ġmatrix":6487,"Ġsimmer":6488,"armesan":6489,"Ġbars":6490,"soft":6491,"ĠTips":6492,"ĠPower":6493,"rowing":6494,"Ġcul":6495,"rome":6496,"airy":6497,"Ġnegot":6498,"Ġreaching":6499,"ĠHome":6500,"ln":6501,"Ġsubmit":6502,"Ġinjury":6503,"Ġdepartment":6504,"Ġconvert":6505,"Ġclosed":6506,"ending":6507,"Ġevolution":6508,"Ġuniversity":6509,"real":6510,"Ġannual":6511,"ruit":6512,"Ġchosen":6513,"ĠMa":6514,"Ġsimpl":6515,"ouncil":6516,"ughter":6517,"Ġextreme":6518,"ĠAug":6519,"16":6520,"Ġblockchain":6521,"Ġsentence":6522,"ĠSuddenly":6523,"Ġretain":6524,"idad":6525,"ctu":6526,"inter":6527,"Ġfly":6528,"Ġfrozen":6529,"Ġkne":6530,"Ġrepair":6531,"Ġassistant":6532,"Ġarrived":6533,"ipl":6534,"Ġmelted":6535,"taking":6536,"marks":6537,"vas":6538,"Ġruns":6539,"size":6540,"Ġoverwhelming":6541,"Ġhob":6542,"Ġresulted":6543,"Ġske":6544,"Ġox":6545,"ĠDefine":6546,"Ġ2015":6547,"Ġshred":6548,"ĠDist":6549,"oom":6550,"ĠCamp":6551,"ĠAlthough":6552,"Ġbegins":6553,"Ġboundaries":6554,"Ġoperation":6555,"ford":6556,"Ġlegs":6557,"Ġstraw":6558,"Ġnormal":6559,"ĠTre":6560,"Ġconver":6561,"ĠVol":6562,"ĠContent":6563,"String":6564,"Ġcaf":6565,"erie":6566,"Ġther":6567,"Ġspecialized":6568,"Ġalt":6569,"fol":6570,"ĠSa":6571,"Ġvehicle":6572,"Ġentrepreneurs":6573,"Ġrefer":6574,"ĠOffer":6575,"Ġmac":6576,"Ġberries":6577,"Ġpray":6578,"Ġcalories":6579,"Ġunable":6580,"Ġbroken":6581,"Ġholiday":6582,"Ġmoisture":6583,"ĠDI":6584,"ounced":6585,"ĠTim":6586,"Ġkiller":6587,"ĠLondon":6588,"Ġnotifications":6589,"?:":6590,"Ġpotentially":6591,"Ġgrace":6592,"Ġmanager":6593,"Ġgrill":6594,"Ġunl":6595,"Ġrub":6596,"Ġdie":6597,"ucch":6598,"alax":6599,"ĠRachel":6600,"Ġly":6601,"ĠÑĩ":6602,"Ġlabel":6603,"comp":6604,"estion":6605,"powered":6606,"Ġidentified":6607,"ĠUser":6608,"Ġ=>":6609,"Ġillness":6610,"ĠOptim":6611,"Ġinteraction":6612,"gener":6613,"ĠAsia":6614,"Ġliquid":6615,"Ġpaprika":6616,"Ġcryst":6617,"Ġappeal":6618,"Ġpursue":6619,"Ġencouraged":6620,"Ġconvenient":6621,"roid":6622,"Ġcoat":6623,"phones":6624,"Ġdecline":6625,"Ġclassical":6626,"Ġintroduction":6627,"Ġshoes":6628,"Ġnerv":6629,"Ġbreaking":6630,"ĠAud":6631,"field":6632,"ĠUltimately":6633,"Ġcloves":6634,"pectives":6635,"Ġnutritional":6636,"Ġpork":6637,"Ġchickpeas":6638,"Ġcrop":6639,"Ġdistractions":6640,"ilantro":6641,"ĠCUT":6642,"ĠChristian":6643,"Ġsoph":6644,"Ġturb":6645,"ĠCounty":6646,"cel":6647,"then":6648,"Ġuncertain":6649,"Ġvillage":6650,"Ġscenarios":6651,"nish":6652,"Ġtransformation":6653,"pass":6654,"ĠElect":6655,"Ġcourt":6656,"Ġdates":6657,"Ġsubstitute":6658,"Ġtort":6659,"ÐµÐ½Ð¸":6660,"Ġfilms":6661,"Ġrespective":6662,"Ġstored":6663,"Ġbalanced":6664,"ĠDid":6665,"ĠDevelopment":6666,"Ġrestrict":6667,"ĠSmith":6668,"Ġflower":6669,"ĠChristmas":6670,"Ġ60":6671,"Ġgun":6672,"ossible":6673,"Ġsorted":6674,"ĠSn":6675,"ifting":6676,"Ġbene":6677,"Ġtech":6678,"point":6679,"Ġartificial":6680,"river":6681,"atching":6682,"Ġlayout":6683,"Ex":6684,"eem":6685,"ĠJournal":6686,"Ġemphasis":6687,"Ġgovernments":6688,"ĠRO":6689,"unk":6690,"Ġselected":6691,"Ġintegers":6692,"Ġliterary":6693,"Ġletters":6694,"ĠRev":6695,"ĠCost":6696,"Ġmir":6697,"Ġcozy":6698,"ĠEnter":6699,"Ġclub":6700,"Ġimplications":6701,"Ġperforming":6702,"US":6703,"Ġworry":6704,"Ġperfectly":6705,"ĠPan":6706,"Ġcrime":6707,"Ġdepends":6708,"ĠMaya":6709,"ĠLove":6710,"Ġframework":6711,"ĠWell":6712,"Ġpromin":6713,"Ġdelicate":6714,"Ġenjoying":6715,"Ġvolunteer":6716,"Ġinterpret":6717,"Ġwra":6718,"never":6719,"Ġtrained":6720,"Ġorganize":6721,"Ġcumin":6722,"ocr":6723,"ederal":6724,"ĠSmart":6725,"Ġanticip":6726,"ĠYear":6727,"Ġurg":6728,"Ġfeatured":6729,"Ġanti":6730,"iter":6731,"Ġfet":6732,"Ġintensity":6733,"ĠWho":6734,"Ġcritic":6735,"Ġfell":6736,"Ġretailers":6737,"Ġtheory":6738,"à¸²à¸":6739,"aration":6740,"ĠLim":6741,"Ġweapons":6742,"ĠJohns":6743,"scale":6744,"ĠWeb":6745,"ĠLife":6746,"Ġoptimal":6747,"Ġcriteria":6748,"Ġsmile":6749,"Ġathletes":6750,"Ġcorrectly":6751,"pack":6752,"Ġlege":6753,"ĠOnline":6754,"valid":6755,"Ġgreens":6756,"Ġiter":6757,"Ġguitar":6758,"Ġinvestigation":6759,"ĠIsland":6760,"ĠClass":6761,"ĠLinked":6762,"Ġcomputing":6763,"Ġattractions":6764,"js":6765,"You":6766,"Ġgenres":6767,"sect":6768,"ĠFire":6769,"cuss":6770,"Ġhistoric":6771,"Ġboil":6772,"aste":6773,"ĠYouT":6774,"Ġrare":6775,"Ġattendees":6776,"Ġsoldiers":6777,"ĠDepartment":6778,"Ġedges":6779,"Ġproposal":6780,"ria":6781,"ively":6782,"Ġgenerally":6783,"ago":6784,"Ġrecords":6785,"Ġastron":6786,"Ġacknow":6787,"Ġachievements":6788,"Ġpull":6789,"Ġwings":6790,"ĠNote":6791,"Ġgenre":6792,"case":6793,"ĠBoth":6794,"Ġcel":6795,"izzle":6796,"ĠSk":6797,"color":6798,"Ġsatisfying":6799,"ĠFrance":6800,"Ġresponsive":6801,"ipp":6802,"ĠKore":6803,"Ġcharge":6804,"ĠCour":6805,"Ġnetworking":6806,"isc":6807,"Ġlesson":6808,"eles":6809,"Ġperspectives":6810,"Ġhur":6811,"Ġtoss":6812,"Ġfinished":6813,"Ġsteel":6814,"Ġthreats":6815,"Ġgrass":6816,"Ġdocuments":6817,"Ġshoot":6818,"Ġinfect":6819,"Ġscholars":6820,"ucchini":6821,"Ġsuggested":6822,"natural":6823,"kend":6824,"Ġsupported":6825,"Ġsmoothie":6826,"Ġfinds":6827,"Ġbeer":6828,"Ġid":6829,"ĠFest":6830,"Ġaccessories":6831,"Ġreturned":6832,"Ġtests":6833,"Ġbake":6834,"Ġgrab":6835,"ĠSil":6836,"ĠStore":6837,"Ġgaming":6838,"Ġsod":6839,"ĠStudents":6840,"Ġpairs":6841,"ĠMaria":6842,"Ar":6843,"Ġstreaming":6844,"Ġresc":6845,"Ġmindset":6846,"Ġclearly":6847,"orge":6848,"reement":6849,"pecific":6850,"Ġviewers":6851,"Ġnar":6852,"ĠMac":6853,"Ġchecking":6854,"Ġdecrease":6855,"à¤":6856,"ĠExample":6857,"Ġemployment":6858,"Ġshrimp":6859,"ĠReview":6860,"anut":6861,"amel":6862,"inf":6863,"Ġagricultural":6864,"IP":6865,"Ġcomment":6866,"Ġoppos":6867,"Ġformation":6868,"Ġlent":6869,"Ġepis":6870,"ĠPresident":6871,"ðŁ":6872,"ĠBake":6873,"rol":6874,"Ġmoon":6875,"Ġasking":6876,"Ġbeneath":6877,"ĠAustralia":6878,"ĠBur":6879,"ĠNut":6880,"Ġguard":6881,"Ġtap":6882,"ĠProf":6883,"path":6884,"vision":6885,"Ġfort":6886,"endar":6887,"ĠWhite":6888,"lower":6889,"ĠLearning":6890,"Ġentered":6891,"\";":6892,"Ġcart":6893,"istry":6894,"Ġsprinkle":6895,"anes":6896,"Ġexceptional":6897,"Ġcomposition":6898,"IL":6899,"Ġfoss":6900,"Ġflight":6901,"ĠSun":6902,"Ġapproximately":6903,"ĠBu":6904,"17":6905,"ĠIndust":6906,"Ġraw":6907,"Ġlose":6908,"Ġcub":6909,"Ġbill":6910,"Ġhospit":6911,"Ġbreeze":6912,"Ġmarine":6913,"Ġrequests":6914,"Ġprovider":6915,"Ġattach":6916,"Ġfalse":6917,"Ġformula":6918,"Ġfem":6919,"ccoli":6920,"Ġcompat":6921,"Ġpride":6922,"ĠReal":6923,"rab":6924,"åı":6925,"Ġlunch":6926,"Ġblank":6927,"Ġjar":6928,"Ġfoundation":6929,"Ġbuying":6930,"Ġchecks":6931,"ĠFore":6932,"Ġimpossible":6933,"Ġtreasure":6934,"Ġrough":6935,"Ġformed":6936,"Ġstands":6937,"Ġblender":6938,"through":6939,"Ġconfront":6940,"Ġcountless":6941,"zer":6942,"Ġplate":6943,"Ġhardware":6944,"Ġvoc":6945,"ĠCanada":6946,"Ġpreviously":6947,"ĠChick":6948,"Ġhuge":6949,"Ġpine":6950,"ĠYouTube":6951,"ĠSen":6952,"Ġterror":6953,"Ġinvestors":6954,"Ġfrag":6955,"Ġbodies":6956,"Ġpurpos":6957,"ĠMat":6958,"rue":6959,"Ġindependent":6960,"Ġarise":6961,"ockt":6962,"idth":6963,"Ġrising":6964,"rich":6965,"oe":6966,"Ġ2020":6967,"such":6968,"Ġrocks":6969,"ĠBlue":6970,"estic":6971,"ĠWestern":6972,"Ġfoster":6973,"Ġchaos":6974,"ĠÐ·":6975,"Ġindustrial":6976,"Ġspring":6977,"Ġdurable":6978,"Ġoils":6979,"Ġisn":6980,"Ġsaut":6981,"ĠAssociation":6982,"Ġsaved":6983,"ala":6984,"raction":6985,"Ġformal":6986,"Ġgrid":6987,"Ġphilos":6988,"Ġpound":6989,"men":6990,"atin":6991,"ĠEv":6992,"Ġspect":6993,"Ġtrauma":6994,"Ġmode":6995,"Ġstain":6996,"Ġcomo":6997,"Ġsaying":6998,"ĠIns":6999,"Ġinjuries":7000,"Ġdisasters":7001,"Ġemerging":7002,"Ġsubscrib":7003,"Ġmouth":7004,"Ġcharity":7005,"ĠInstitute":7006,"ĠService":7007,"eah":7008,"ĠVisual":7009,"effective":7010,"Ġtrial":7011,"Ġcalming":7012,"eters":7013,"Ġcilantro":7014,"Ġthyme":7015,"ĠDigital":7016,"ÐµÑĢ":7017,"Ġourselves":7018,"Ġawe":7019,"Ġteen":7020,"Ġshipping":7021,"Ġrooms":7022,"Ġconsidering":7023,"QL":7024,"ĠsautÃ©":7025,"Ġsan":7026,"Ġbub":7027,"Ġfantastic":7028,"Ġlasting":7029,"ĠSeason":7030,"Ġterrain":7031,"rian":7032,"Ġretrie":7033,"Ġdepict":7034,"Ġcash":7035,"Ġfalling":7036,"Ġcooper":7037,"EL":7038,"Ġrevised":7039,"Ġminute":7040,"ĠDem":7041,"iances":7042,"ras":7043,"Ġbrew":7044,"Ġfriendship":7045,"Ġpurposes":7046,"Ġenhancing":7047,"Ġreflection":7048,"Ġagencies":7049,"Ġwitness":7050,"Ġchannel":7051,"Ġsequence":7052,"Ġphotography":7053,"ĠSecond":7054,"ĠThom":7055,"ĠHeat":7056,"99":7057,"Ġcertainly":7058,"tery":7059,"iments":7060,"Ġpaintings":7061,"Ġhoping":7062,"Ġsurvivors":7063,"everance":7064,"Ġclassroom":7065,"Ġwants":7066,"body":7067,"level":7068,"ĠChurch":7069,"Ġagreement":7070,"Ġcos":7071,"Ġstuff":7072,"ĠRoasted":7073,"BC":7074,"Ġautomatically":7075,"mary":7076,"Ġtargets":7077,"Ġmiles":7078,"ĠApr":7079,"Ġbarriers":7080,"ĠHel":7081,"Ġgrated":7082,"reens":7083,"Ġlegacy":7084,"Ġamounts":7085,"ĠSpanish":7086,"Ġversatile":7087,"ĠÐ½Ðµ":7088,"Ġcivilization":7089,"13":7090,"ingers":7091,"Ġmindful":7092,"yan":7093,"Ġpaste":7094,"Ġstirring":7095,"omen":7096,"ĠCreating":7097,"Ġadapted":7098,"ĠRob":7099,"Ġconversations":7100,"Ġattribut":7101,"Ð¾Ð¹":7102,"Ġwife":7103,"ĠSee":7104,"Ġtun":7105,"Ġstack":7106,"ĠDear":7107,"Ġmodify":7108,"Ġcharacteristics":7109,"Ġwondering":7110,"ĠStrateg":7111,"Ġprivacy":7112,"ĠCare":7113,"Ġcurse":7114,"ĠShow":7115,"Ġcharacterized":7116,"ĠGold":7117,"Ġder":7118,"500":7119,"ĠJen":7120,"MS":7121,"ĠRest":7122,"redient":7123,"ona":7124,"ĠEss":7125,"Ġexplored":7126,"AP":7127,"Ġune":7128,"Ġlayers":7129,"Ġtransformed":7130,"ĠLinkedIn":7131,"Ġmanual":7132,"Ġexactly":7133,"ville":7134,"ĠImp":7135,"Ġsatisfied":7136,"Ġtrapped":7137,"Ġapproached":7138,"ĠStay":7139,"cher":7140,"Ġhappening":7141,"agraph":7142,"ĠBas":7143,"Ġthousands":7144,"ĠClean":7145,"ĠHost":7146,"ĠIslam":7147,"actions":7148,"ĠVirtual":7149,"Ġincreases":7150,"Ġbeginners":7151,"Ġcircum":7152,"Ġkid":7153,"Ġwooden":7154,"Ġofferings":7155,"Ġalcohol":7156,"Ġoptimizing":7157,"aws":7158,"Ġjazz":7159,"Ġrelatively":7160,"Ġevening":7161,"ĠJohnson":7162,"Ġresponses":7163,"rete":7164,"Ãº":7165,"net":7166,"Ġwalks":7167,"Ġunit":7168,"Ġshredded":7169,"rays":7170,"ĠAnalytics":7171,"ĠInteg":7172,"Ġpromotes":7173,"ĠStar":7174,"ĠEmpire":7175,"Ġhearing":7176,"ĠST":7177,"Ġlever":7178,"ĠBrand":7179,"Ġcope":7180,"iders":7181,"Ġdeals":7182,"Ġtit":7183,"Ġpurchasing":7184,"Ġbranding":7185,"Ġbottle":7186,"70":7187,"leep":7188,"Ġniche":7189,"Ġinstalled":7190,"Ġfierce":7191,"ĠBudd":7192,"Ġcombat":7193,"Ġspice":7194,"Ġenvironmentally":7195,"Ġthoroughly":7196,"Ġdining":7197,"Ġaccessibility":7198,"za":7199,"ĠMiddle":7200,"alsa":7201,"tles":7202,"Ġcrowd":7203,"Ġprompts":7204,"lla":7205,"orter":7206,"Ġtangy":7207,"ĠAdv":7208,"rote":7209,"ĠPass":7210,"Ġelev":7211,"Ġshake":7212,"Ġdivid":7213,"Ġprocedures":7214,"Ġfishing":7215,"izers":7216,"Ġdestroy":7217,"otal":7218,"Ġmatches":7219,"Ġproducing":7220,"Ġfinance":7221,"ĠLight":7222,"ruption":7223,"Ġlosing":7224,"Ġdip":7225,"Ġspoke":7226,"Ġforecast":7227,"Ġlibraries":7228,"cery":7229,"Ð¾Ð¶":7230,"ĠDIY":7231,"Ġneuro":7232,"Script":7233,"ÑĤÐ¸":7234,"RL":7235,"ĠCSS":7236,"ĠConnect":7237,"Ġduration":7238,"Ġsculpture":7239,"ares":7240,"Ġendless":7241,"apes":7242,"');":7243,"ĠHold":7244,"ĠMost":7245,"Ġcoverage":7246,"ĠWhy":7247,"Ġbackgrounds":7248,"ĠMindfulness":7249,"Ġhus":7250,"Ġguest":7251,"orship":7252,"Ġslice":7253,"Ġseg":7254,"Ġtutor":7255,"Ġinval":7256,"ĠSpe":7257,"Ġnuc":7258,"ĠLead":7259,"Ġsweetness":7260,"Ġagg":7261,"ĠIT":7262,"ĠRenew":7263,"Ġcitizens":7264,"Ġfundra":7265,"Ġcontainers":7266,"Ñĸ":7267,"Ġpopularity":7268,"Ġpushing":7269,"ĠCoc":7270,"usable":7271,"Ġspecified":7272,"Ġcontributing":7273,"ĠServices":7274,"roph":7275,"ĠBuilding":7276,"Ġhotels":7277,"Ġtire":7278,"Ġextended":7279,"Ġtimeline":7280,"ĠAccess":7281,"Ġunknown":7282,"ĠUnion":7283,"Ġwindows":7284,"oral":7285,"Ġlearners":7286,"Ġmillions":7287,"Ġestate":7288,"Ġnoodles":7289,"nger":7290,"Ġstrengthen":7291,"Ġdrawing":7292,"front":7293,"ald":7294,"ĠStand":7295,"Ġpromotion":7296,"ĠMil":7297,"rum":7298,"esteem":7299,"Ġtu":7300,"Ġdirectory":7301,"insp":7302,"ĠNav":7303,"Ġlists":7304,"Ġinstrument":7305,"driven":7306,"RO":7307,"table":7308,"adow":7309,"Ġdifficulty":7310,"Ġanimation":7311,"Ġworkouts":7312,"ĠMicrosoft":7313,"Ġquantum":7314,"ĠKey":7315,"Ġsignal":7316,"Ġpredators":7317,"Ġmedit":7318,"Ð½Ð°":7319,"ĠWrit":7320,"Ġprime":7321,"ĠYog":7322,"Ġrepeat":7323,"Ġokay":7324,"Ġgear":7325,"Ġwhatever":7326,"made":7327,"Cl":7328,"Ġquotes":7329,"Ġshares":7330,"Ġtrib":7331,"Ġfought":7332,"Ġsymbolism":7333,"Ġwish":7334,"Ġactively":7335,"value":7336,"ĠGrand":7337,"Ġroutes":7338,"Ġavoiding":7339,"ĠAny":7340,"Ġquarter":7341,"Ġvot":7342,"othe":7343,"Ġshaped":7344,"ĠEvent":7345,"Ġreporting":7346,"Ġma":7347,"Ġteamwork":7348,"Ġrush":7349,"arant":7350,"Ġarguments":7351,"Ġinsect":7352,"Ġvolunteers":7353,"ĠLila":7354,"Ġwash":7355,"Ġnice":7356,"Ġsad":7357,"Ġpool":7358,"à¸Ļ":7359,"Ġcrim":7360,"ĠBer":7361,"100":7362,"ressive":7363,"Ġvisited":7364,"Ġoverwhelmed":7365,"Ġinqu":7366,"ella":7367,"Ġintuitive":7368,"urpose":7369,"Ġhoriz":7370,"ÑģÑı":7371,"ĠGard":7372,"Ġowner":7373,"Ġdaughter":7374,"ĠHand":7375,"Ġattending":7376,"Ġcategories":7377,"Ġsurprise":7378,"IG":7379,"Ġenjoyable":7380,"Ġbaked":7381,"Ġinflamm":7382,"Ġdiscussion":7383,"Ġplug":7384,"ĠQue":7385,"iner":7386,"ivating":7387,"Ġfuels":7388,"storm":7389,"acher":7390,"ĠAcad":7391,"Ġhonor":7392,"ĠAva":7393,"Ġfossil":7394,"anches":7395,"Ġvisualization":7396,"Ġ2014":7397,"etime":7398,"rase":7399,"Ġperseverance":7400,"Ġcurs":7401,"Ġshowcasing":7402,"Ġshowcases":7403,"Ġpanel":7404,"ĠSales":7405,"Ġbinary":7406,"Ġconference":7407,"ĠSelect":7408,"->":7409,"Ġdescribed":7410,"Ġaccurately":7411,"Ġingredient":7412,"ĠVerse":7413,"Ġdiscussing":7414,"ifies":7415,"Ġcabin":7416,"Ġcategory":7417,"Ġcolumn":7418,"Ġpossibilities":7419,"ĠStudies":7420,"Ġalongside":7421,"Ġneut":7422,"eal":7423,"Ð»ÑĮ":7424,"ello":7425,"umps":7426,"user":7427,"Ġbasket":7428,"Ġencryption":7429,"Ġtracks":7430,"ĠTogether":7431,"ĠMart":7432,"Ġfats":7433,"Ġdecl":7434,"Ġmort":7435,"Ġmild":7436,"smiling":7437,"uing":7438,"ulum":7439,"Ġsport":7440,"rence":7441,"Ġparticipation":7442,"ĠSuper":7443,"Ġbasis":7444,"Ġrecon":7445,"Ġhonest":7446,"sized":7447,"Ġprey":7448,"uit":7449,"indu":7450,"Ġessays":7451,"Ġmustard":7452,"ĠFranc":7453,"ecd":7454,"uel":7455,"Ġmanagers":7456,"Ġconscious":7457,"Ġunderst":7458,"ESS":7459,"Ġshell":7460,"ĠStreet":7461,"Ġvariables":7462,"ĠRich":7463,"Ġpreparation":7464,"ikes":7465,"Ġanecd":7466,"Ġhearts":7467,"Ġoperate":7468,"Ġpreparing":7469,"ĠFestival":7470,"itable":7471,"Ġnervous":7472,"Ġinequality":7473,"ĠSqu":7474,"ĠMaterial":7475,"ĠClimate":7476,"Ġmeasuring":7477,"olic":7478,"ĠCult":7479,"Ġoptimized":7480,"Ġdebt":7481,"stract":7482,"Ġchatbot":7483,"ĠApril":7484,"Ġ21":7485,"ĠDNA":7486,"ĠAgreement":7487,"enery":7488,"gs":7489,"Ã¼":7490,"Ġmathe":7491,"æľ":7492,"Ġsalmon":7493,"Ġentry":7494,"ÑĢÐ¾":7495,"peat":7496,"Ġediting":7497,"ĠCam":7498,"Ġroof":7499,"Ġflash":7500,"Ġlimits":7501,"mo":7502,"anged":7503,"Ġdesigning":7504,"Ġorigin":7505,"Ġputting":7506,"SD":7507,"Ġcelebrated":7508,"Ġbackup":7509,"ĠBreak":7510,"Ġlandmarks":7511,"ref":7512,"Ġphrases":7513,"haust":7514,"ĠTem":7515,"Ġbooking":7516,"List":7517,"ĠSelf":7518,"âĢ¦":7519,"Company":7520,"ĠIN":7521,"ĠBuild":7522,"Ġdisorder":7523,"pects":7524,"Ġunits":7525,"ĠĠĠĠĠĠĠĠĠĠĠĠĠĠĠĠĠĠĠĠ":7526,"Ġspray":7527,"Ġprimarily":7528,"ĠFresh":7529,"ĠEnviron":7530,"Ġfees":7531,"Ġwhose":7532,"Ġhorror":7533,"Ġsending":7534,"Ġpreferred":7535,"Ġsett":7536,"ĠRoad":7537,"most":7538,"Ġwet":7539,"otion":7540,"Ġcockt":7541,"Ġcoping":7542,"ĠChall":7543,"ĠNext":7544,"Ġcherry":7545,"Ġkick":7546,"Ġdetection":7547,"folio":7548,"TP":7549,"inse":7550,"ĠEnd":7551,"Ġwoods":7552,"Ġvolunteering":7553,"Ġdegrees":7554,"Ġhall":7555,"obile":7556,"Ġdestruction":7557,"Ġnearly":7558,"Ġstable":7559,"Ġranking":7560,"ĠBring":7561,"Ġfarming":7562,"Ġkingdom":7563,"Ġborn":7564,"orted":7565,"Ġdealing":7566,"def":7567,"nic":7568,"Ġleather":7569,"ĠHope":7570,"ĠJe":7571,"Ġpercentage":7572,"Ġlic":7573,"Ġlean":7574,"Ġproductive":7575,"Ġpace":7576,"Ġgreatest":7577,"ĠRenewable":7578,"athered":7579,"Ġcomed":7580,"Ġinvestig":7581,"Ġutilizing":7582,"ĠCollabor":7583,"Ġlanding":7584,"Ġentirely":7585,"ingu":7586,"cell":7587,"ĠGermany":7588,"Ġham":7589,"bled":7590,"ĠFam":7591,"Ġyounger":7592,"Ġpreserve":7593,"Ġcow":7594,"ĠÑĥ":7595,"22":7596,"ĠEngland":7597,"ĠAutom":7598,"ĠContin":7599,"ĠCloud":7600,"Ġgenerating":7601,"Ġbacon":7602,"Ġwearing":7603,"Ġpreference":7604,"Ġtrails":7605,"Ġrevealed":7606,"Ġdepart":7607,"otics":7608,"iov":7609,"while":7610,"bris":7611,"Ġcyber":7612,"Ġvendors":7613,"Ġdiam":7614,"Ġfry":7615,"Ġmakeup":7616,"Ġcloth":7617,"oa":7618,"erals":7619,"Ġutilized":7620,"Ġsubtle":7621,"ĠĠĠĠĠĠĠĠĠĠ":7622,"Ġabandoned":7623,"Ġpit":7624,"Ġstead":7625,"itivity":7626,"ĠmÃ¡s":7627,"Ġpink":7628,"ya":7629,"Ġroute":7630,"Ġcalling":7631,"Ġmelody":7632,"ĠHall":7633,"Ġjun":7634,"Ġflakes":7635,"Ġequipped":7636,"Ġimagine":7637,"lation":7638,"Ġharder":7639,"Ġborder":7640,"Ð²Ð°":7641,"Ġrule":7642,"Ġlyrics":7643,"vol":7644,"iones":7645,"ĠExerc":7646,"ometric":7647,"Ġemphasize":7648,"Ġthrive":7649,"celer":7650,"ĠFoundation":7651,"Ġtiss":7652,"Ph":7653,"leg":7654,"Ġbranches":7655,"Ġinterviews":7656,"Ġdrawn":7657,"Ġsought":7658,"ports":7659,"width":7660,"Ġalternatives":7661,"lymp":7662,"oir":7663,"PA":7664,"ĠBat":7665,"ĠMarch":7666,"Ġmotor":7667,"Ġweaknesses":7668,"ritious":7669,"Ġcoach":7670,"base":7671,"ä½":7672,"Ġphilosoph":7673,"Ġwrote":7674,"Ġjoint":7675,"Sh":7676,"Ġzucchini":7677,"45":7678,"alysis":7679,"ĠResp":7680,"Ġtestimon":7681,"Ġgraphic":7682,"Ġofficials":7683,"Ġcurry":7684,"Ġbust":7685,"Ġoverl":7686,"ubs":7687,"Ñī":7688,"Ġradio":7689,"pending":7690,"Ġlogistics":7691,"ido":7692,"da":7693,"Ġdash":7694,"Ġrituals":7695,"alle":7696,"Ġpriority":7697,"Ġsaving":7698,"ĠBay":7699,"Ġdirector":7700,"Ġrul":7701,"itting":7702,"Ġdebris":7703,"pie":7704,"ading":7705,"Ġsin":7706,"Ġpersist":7707,"reach":7708,"ĠScott":7709,"Ġwellbeing":7710,"ĠRepeat":7711,"Ġcalendar":7712,"Ġbanana":7713,"Ġdesert":7714,"Ġshops":7715,"\");":7716,"Ġpreventing":7717,"insert":7718,"ĠSing":7719,"Ġspell":7720,"Ġages":7721,"ĠWall":7722,"ĠEmail":7723,"Ġauth":7724,"Ġautomated":7725,"Ġembra":7726,"Ġoverc":7727,"Ġgardens":7728,"Ġroots":7729,"Ġgrocery":7730,"Ġhurt":7731,"Ġannounced":7732,"bar":7733,"osh":7734,"Ġveter":7735,"Ġsubstitut":7736,"Ġexhaust":7737,"Ġleverage":7738,"Ġvictory":7739,"Ġwis":7740,"acter":7741,"eli":7742,"Ġindicate":7743,"Ġparagraph":7744,"ampions":7745,"Ġmargin":7746,"Ġpapers":7747,"isco":7748,"Ġstew":7749,"Ġputs":7750,"Ġhusband":7751,"Ġnutritious":7752,"Ġtears":7753,"Ġappears":7754,"Ġparks":7755,"ĠCa":7756,"ĠBenef":7757,"ĠTH":7758,"ĠAllow":7759,"Ġscar":7760,"ĠLog":7761,"ÑģÐº":7762,"issance":7763,"Ġseat":7764,"Ġregional":7765,"https":7766,"ĠCover":7767,"unately":7768,"ĠCap":7769,"Ġinvested":7770,"Ġestimated":7771,"long":7772,"Ġconvent":7773,"Ġknife":7774,"Ġapartment":7775,"Ġmansion":7776,"gl":7777,"ĠBeach":7778,"ĠCarol":7779,"ĠOct":7780,"ascular":7781,"Ġwelcome":7782,"Ġshut":7783,"plant":7784,"Ġprecision":7785,"Ġrestrictions":7786,"Ġorders":7787,"Ġcircumst":7788,"Ġsuddenly":7789,"ĠProfess":7790,"Ġchair":7791,"fry":7792,"Ġtheater":7793,"ĠBack":7794,"Ġexpansion":7795,"Insert":7796,"Ġapples":7797,"Ġsurveys":7798,"Ġintended":7799,"ĠDan":7800,"Ġmale":7801,"Ġemotion":7802,"Ġclaims":7803,"Ġaer":7804,"ĠMental":7805,"Ġhumanity":7806,"Ġbear":7807,"Ġshoulder":7808,"Ġtherapist":7809,"Ġpil":7810,"Ġbridge":7811,"Ð¾Ð±":7812,"ĠInit":7813,"Ġrecycled":7814,"Ġbesides":7815,"ĠOlymp":7816,"Ġhesit":7817,"Ġlift":7818,"ris":7819,"lor":7820,"Ġtab":7821,"Ġburst":7822,"Ġmodule":7823,"Ġnewslet":7824,"Ġfib":7825,"Ġmurder":7826,"Ġintake":7827,"VID":7828,"ST":7829,"Ġpumpkin":7830,"ping":7831,"Ġgalax":7832,"Ġ80":7833,"Ġjack":7834,"ioxid":7835,"ĠConduct":7836,"ĠExamples":7837,"Ġtraveling":7838,"Ġreferral":7839,"ĠBook":7840,"ĠFit":7841,"ĠJul":7842,"Ġdevelopments":7843,"bility":7844,"Ġinstruct":7845,"Ġrelat":7846,"building":7847,"mes":7848,"ĠForm":7849,"inder":7850,"ĠSustain":7851,"ĠNative":7852,"Ġwidth":7853,"Ġinflammation":7854,"Ġpersu":7855,"Ġdriven":7856,"Ġdisplayed":7857,"33":7858,"Ġrefused":7859,"Ġ2013":7860,"Ġwhisp":7861,"Ġcurric":7862,"Ġhashtags":7863,"oos":7864,"Ġinches":7865,"Ġsections":7866,"formance":7867,"apple":7868,"Ġharvest":7869,"Ġheal":7870,"Ġchees":7871,"Ġbrother":7872,"Ġdecide":7873,"Ġvoid":7874,"Ġnarrow":7875,"arn":7876,"ĠSch":7877,"Ġtells":7878,"Ġrepet":7879,"Ġexit":7880,"well":7881,"Ġcollected":7882,"Ġuncover":7883,"Ġindigenous":7884,"OT":7885,"ĠInstall":7886,"Ġtalked":7887,"Int":7888,"ĠAugust":7889,"eras":7890,"Ġdiscipl":7891,"ĠSout":7892,"Ġclarity":7893,"ester":7894,"Ġsoap":7895,"ograp":7896,"high":7897,"Ġhorm":7898,"Ġuniversities":7899,"abetes":7900,"osion":7901,"Ġportray":7902,"Ġoutcome":7903,"Ġinvolvement":7904,"asive":7905,"Ġshadow":7906,"Ġreusable":7907,"à¹Ī":7908,"ĠCat":7909,"bell":7910,"Ġchurch":7911,"ĠColor":7912,"Ġnative":7913,"Ġabuse":7914,"Ġextend":7915,"asm":7916,"Ġassessment":7917,"ĠVeget":7918,"ĠGerman":7919,"Ġmysterious":7920,"ĠAltern":7921,"Ġtutorials":7922,"ua":7923,"inant":7924,"ĠSmall":7925,"ivia":7926,"Ġinstant":7927,"Ġholds":7928,"Ð¾Ð½":7929,"Ġregulation":7930,"Ġevil":7931,"Ġactual":7932,"othermal":7933,"Ġdut":7934,"Ġmaximize":7935,"Ġprominent":7936,"Ġintel":7937,"ĠAnn":7938,"enger":7939,"iable":7940,"Ġinvestments":7941,"Ġaffecting":7942,"Ġcircle":7943,"Ġwhis":7944,"Ġsupernatural":7945,"Ġbroccoli":7946,"Ġphotograph":7947,"ĠWashing":7948,"Ġrobust":7949,"Ġpushed":7950,"ĠBi":7951,"ricks":7952,"ĠTurn":7953,"meg":7954,"ĠWithout":7955,"Ġpretty":7956,"ĠProt":7957,"but":7958,"ĠRock":7959,"Ġregul":7960,"ĠExperiment":7961,"Ġhaz":7962,"ĠJason":7963,"Ġinn":7964,"ĠEngine":7965,"Ġcomparison":7966,"ĠLos":7967,"redict":7968,"Ġsale":7969,"Ġvisible":7970,"Con":7971,"ĠCentral":7972,"________________________________":7973,"Ġeight":7974,"Ġdeadlines":7975,"ĠBig":7976,"Ġintrig":7977,"Ġswimming":7978,"requ":7979,"Ġguess":7980,"Ġsenses":7981,"ĠWood":7982,"ĠJune":7983,"Ġquote":7984,"ĠSept":7985,"ching":7986,"Ġrecurs":7987,"gged":7988,"ĠYeah":7989,"ĠCall":7990,"ĠMonitor":7991,"Ġinitially":7992,"Ġneighb":7993,"Ġhip":7994,"Ġlaws":7995,"Ð»Ñı":7996,"ĠComb":7997,"Ġenabled":7998,"Ġceremony":7999,"Ð»Ð°":8000,"Ġultimate":8001,"cest":8002,"Ġproof":8003,"Ġvacc":8004,"To":8005,"ship":8006,"ĠSoft":8007,"Ġclinical":8008,"Ġseed":8009,"Ġdrugs":8010,"à¸Ń":8011,"Ġproteins":8012,"immer":8013,"Ġoutline":8014,"Ġknows":8015,"Ġupper":8016,"ĠHead":8017,"Ġdevast":8018,"ĠJAS":8019,"Ġapplying":8020,"Ġpurchases":8021,"Ġreligion":8022,"ĠFil":8023,"Ġcommunic":8024,"ĠPress":8025,"ĠSecurity":8026,"Ġantioxid":8027,"dep":8028,"ĠMond":8029,"ĠPhys":8030,"arding":8031,"Ġdrawbacks":8032,"Ġregardless":8033,"lements":8034,"Ġtwisted":8035,"æĪ":8036,"Ġpositions":8037,"Ġfridge":8038,"Ġovers":8039,"Ġchances":8040,"class":8041,"Ġshades":8042,"ĠAnalyze":8043,"Ġmathemat":8044,"ĠParmesan":8045,"Ġleaf":8046,"Ġspots":8047,"ĠVide":8048,"ĠHaw":8049,"ĠAsk":8050,"ĠReduc":8051,"Ġthrow":8052,"Ġyouth":8053,"CO":8054,"Ġincorporates":8055,"Ġstepped":8056,"optional":8057,"Ġsere":8058,"ĠGrilled":8059,"Ġcookie":8060,"Ġdied":8061,"arency":8062,"ĠTraining":8063,"Ġappeared":8064,"Ġfrequent":8065,"Ġmath":8066,"ados":8067,"ĠLou":8068,"Ġaffili":8069,"ĠRegular":8070,"Ġquery":8071,"Ġconsistently":8072,"Ġmarin":8073,"ĠNarr":8074,"beat":8075,"Ġnutrient":8076,"Ġlocals":8077,"ĠTwo":8078,"Ġconcrete":8079,"ĠTeam":8080,"ano":8081,"ĠAddress":8082,"ĠSometimes":8083,"ĠAdding":8084,"Ġsilence":8085,"Ġdelivering":8086,"ĠRobert":8087,"Ġprotecting":8088,"Ġbare":8089,"ĠEconom":8090,"ĠBet":8091,"opy":8092,"Ġdispos":8093,"Ġdestinations":8094,"ĠSy":8095,"])":8096,"Ġdemographics":8097,"Ġfraud":8098,"Ġutilize":8099,"Ġpayments":8100,"ĠBle":8101,"Ġdeser":8102,"Ġpromotional":8103,"Ġtransactions":8104,"Ġzero":8105,"Ġmoves":8106,"Ġopinions":8107,"Ġdriver":8108,"rus":8109,"Ġlocally":8110,"ste":8111,"Ġexplaining":8112,"Ġmissed":8113,"Ġharmony":8114,"Ġheating":8115,"Ġcollaborative":8116,"ĠVegan":8117,"Ġdragon":8118,"brid":8119,"eting":8120,"ĠIncreased":8121,"respond":8122,"sk":8123,"obal":8124,"Ġcompleting":8125,"eding":8126,"Ġinch":8127,"Ġexh":8128,"Ġphase":8129,"ando":8130,"ĠTour":8131,"ĠInformation":8132,"Ġqueries":8133,"Ġspeakers":8134,"Ġnation":8135,"Ġtwists":8136,"ĠDeterm":8137,"Ġvalued":8138,"ĠImproved":8139,"afe":8140,"Ġhaunted":8141,"using":8142,"appy":8143,"Ġmanipulate":8144,"ocated":8145,"ushi":8146,"hoot":8147,"Ġtack":8148,"Ġfacilitate":8149,"Ġadjustments":8150,"ĠSand":8151,"Ġholes":8152,"Ġkeeps":8153,"Ġspoon":8154,"Ġperhaps":8155,"ĠCong":8156,"ĠWashington":8157,"ĠTex":8158,"Ġrefrigerator":8159,"Ġanecdotes":8160,"Ġcircumstances":8161,"urious":8162,"Ġrefers":8163,"Ġsilver":8164,"ĠMexican":8165,"ĠBrown":8166,"Ġobs":8167,"gu":8168,"wareness":8169,"Ġregulate":8170,"Ġfacilit":8171,"ĠWed":8172,"ĠUN":8173,"Ġwand":8174,"Ġmeasurements":8175,"Ġgym":8176,"Ġcamping":8177,"Ġfilters":8178,"Ġviolence":8179,"inding":8180,"otton":8181,"Ġterrit":8182,"Ġgods":8183,"ENT":8184,"Ġroast":8185,"CD":8186,"acific":8187,"ĠOld":8188,"iovascular":8189,"Ġended":8190,"Ġkeyword":8191,"Ġshock":8192,"Ġpacked":8193,"Ġportion":8194,"ouds":8195,"Ġmaple":8196,"zing":8197,"ĠMexico":8198,"ĠTarget":8199,"ession":8200,"Ġfingers":8201,"Ġparaph":8202,"Ġforgiveness":8203,"Ġachievement":8204,"node":8205,"Ġnod":8206,"Ġroutines":8207,"ĠĠĠĠĠĠĠĠĠĠĠĠĠĠĠĠĠĠĠĠĠĠĠĠĠĠĠĠĠĠĠĠ":8208,"Ġmedication":8209,"ĠPhot":8210,"Ġdocumentation":8211,"Ġstoring":8212,"Ġfailed":8213,"Ġpassionate":8214,"ĠJim":8215,"ivered":8216,"ĠMad":8217,"Ġweekend":8218,"Ġhummus":8219,"undred":8220,"Ġmuseums":8221,"ĠRena":8222,"ĠString":8223,"ĠRub":8224,"Ġsalsa":8225,"Ġmilest":8226,"Ġportfolio":8227,"zil":8228,"Ġpip":8229,"acer":8230,"ĠMont":8231,"Ġrepresenting":8232,"Ġwheat":8233,"Ġschedules":8234,"Ġevaluation":8235,"specific":8236,"ĠLocal":8237,"books":8238,"Ġsear":8239,"Ġ22":8240,"Ġconfirm":8241,"Ġgathered":8242,"Ġrelaxing":8243,"Ġdangers":8244,"Ġadvers":8245,"Ġculinary":8246,"ori":8247,"Ġsentiment":8248,"bies":8249,"Ġhaven":8250,"Ġpositively":8251,"Ġbite":8252,"Ġbroader":8253,"Ġreinforce":8254,"ologies":8255,"Ġpaying":8256,"Ġinterior":8257,"Ġalmonds":8258,"iches":8259,"Ġfacility":8260,"Ġpeanut":8261,"ĠWhich":8262,"Ġinputs":8263,"Ġ198":8264,"Ġunderstood":8265,"Ġcarried":8266,"Ġparticipating":8267,"Ġblow":8268,"Ġherb":8269,"Ġvictim":8270,"Ġmonthly":8271,"Ġminerals":8272,"Ġdownt":8273,"Ġcustoms":8274,"Ġconsumed":8275,"Ġdisabilities":8276,"Ġcollaborations":8277,"Ġcucumber":8278,"Ġ($":8279,"HT":8280,"ulty":8281,"Ġbelief":8282,"ĠIP":8283,"ĠFriday":8284,"ta":8285,"ĠHam":8286,"Ġmodified":8287,"ĠVer":8288,"Ġdrain":8289,"ifted":8290,"Ġdesper":8291,"Ġrental":8292,"Ġpremium":8293,"isher":8294,"Ġwinning":8295,"ĠPaul":8296,"Ġprinc":8297,"Ġ2012":8298,"ĠHTML":8299,"Ġintent":8300,"Ġtutorial":8301,"Ġsleek":8302,"Ġsubscribers":8303,"ĠBenefits":8304,"Ġpackages":8305,"Ġrapidly":8306,"ĠJew":8307,"egin":8308,"ĠOutput":8309,"Ġphysically":8310,"lishing":8311,"Ġremoving":8312,"Ġreform":8313,"Ġbon":8314,"Ġcaut":8315,"Ġinfluences":8316,"Ġvirus":8317,"Ġcontrolled":8318,"ĠSund":8319,"Ġques":8320,"iano":8321,"Ġton":8322,"Ġcultivate":8323,"Ġcorrespond":8324,"Ġbreathtaking":8325,"aver":8326,"lim":8327,"ĠSearch":8328,"ĠLong":8329,"Ġstages":8330,"ĠEX":8331,"ĠCe":8332,"Ġtourists":8333,"ferent":8334,"ĠKh":8335,"isticated":8336,"Ġconversions":8337,"Ġseamless":8338,"Ġdoors":8339,"Ġworn":8340,"astern":8341,"reed":8342,"Ġodd":8343,"Ġphysics":8344,"Ġrepresentation":8345,"ĠCommunication":8346,"Ġartifacts":8347,"ota":8348,"Ġfewer":8349,"ĠItaly":8350,"aphor":8351,"Ġcombinations":8352,"Ġstretching":8353,"Ġsectors":8354,"Ġelectron":8355,"Ġench":8356,"Ġadequ":8357,"Ġunp":8358,"Ġanywhere":8359,"][":8360,"Ġinsec":8361,"ĠCR":8362,"Ġotherwise":8363,"ĠEliz":8364,"ĠGeorge":8365,"Ġlightweight":8366,"cers":8367,"rape":8368,"Ġreference":8369,"Ġpose":8370,"Ġsister":8371,"Ġsudden":8372,"Ġblocks":8373,"orrow":8374,"advant":8375,"ĠAnna":8376,"cend":8377,"ĠParticip":8378,"Ġtravelers":8379,"Ġrolling":8380,"Ġseven":8381,"Ġdiscussions":8382,"Ġtiny":8383,"oices":8384,"orthern":8385,"Ġvitamins":8386,"Ġoccup":8387,"Ġcohes":8388,"Ġprocessor":8389,"Ġsoda":8390,"Ġcoding":8391,"Ġconqu":8392,"Ġdurability":8393,"inars":8394,"ĠID":8395,"next":8396,"Ġguarant":8397,"connect":8398,"Ġresonates":8399,"uary":8400,"Ġexistence":8401,"Ġacquis":8402,"ĠJASON":8403,"esto":8404,"Ġstrain":8405,"As":8406,"orient":8407,"ĠClub":8408,"ooth":8409,"Ġring":8410,"Ġsurg":8411,"igor":8412,"berg":8413,"ĠJavaScript":8414,"Ġmagaz":8415,"Ġelegant":8416,"ĠLastly":8417,"Ġscreens":8418,"Ġformats":8419,"Ġgenetic":8420,"%.":8421,"Ġ400":8422,"ĠEth":8423,"aped":8424,"Ġcrystal":8425,"Ġdairy":8426,"Ġrescue":8427,"Ġlabels":8428,"worth":8429,"Ġracing":8430,"Ġcycling":8431,"ĠLem":8432,"':":8433,"Ġshower":8434,"Ġdynamics":8435,"mates":8436,"ĠCouncil":8437,"Ġfulfill":8438,"engers":8439,"Ġsandwich":8440,"ĠSalad":8441,"ĠHom":8442,"ĠFund":8443,"Ġphen":8444,"Ġdatas":8445,"Ġmigration":8446,"Ġscream":8447,"rigation":8448,"Ġ2021":8449,"Ġcompete":8450,"Ġlegend":8451,"Ġstations":8452,"ĠSant":8453,"ĠArab":8454,"Ġpeers":8455,"ĠNarrator":8456,"ĠRenaissance":8457,"Ġcomprom":8458,"Ġdecades":8459,"Ġplanned":8460,"Ġmic":8461,"ĠDiv":8462,"Ġauthority":8463,"ĠMach":8464,"ĠChildren":8465,"Ġtailor":8466,"ADE":8467,"fortunately":8468,"Ġtemplates":8469,"Ġjourn":8470,"ĠPrior":8471,"HP":8472,"ĠArch":8473,"plicated":8474,"oven":8475,"ĠBridge":8476,"valu":8477,"Ġpeel":8478,"Ġprints":8479,"Ġdecorative":8480,"rid":8481,"Ġacceler":8482,"Ġqualities":8483,"Ġ2010":8484,"Ġforests":8485,"Ġsophisticated":8486,"Ġthread":8487,"intage":8488,"Ġgiant":8489,"Ġ45":8490,"Ġaesthetic":8491,"ĠThomas":8492,"Ġgender":8493,"ĠLib":8494,"Ġnur":8495,"tee":8496,"mic":8497,"Ġcurriculum":8498,"vable":8499,"Ġaids":8500,"Ġrum":8501,"Ġgest":8502,"Ġprison":8503,"product":8504,"Ġpoly":8505,"Ġbutt":8506,"Ġcaptures":8507,"ĠVict":8508,"Ġcleaner":8509,"iene":8510,"Ġbreast":8511,"Ġdecreased":8512,"Ġreceiving":8513,"Ġimagination":8514,"ĠThroughout":8515,"Ġturkey":8516,"Ġreject":8517,"Ġcounseling":8518,"Ġtags":8519,"Ġeld":8520,"Ġdrinking":8521,"ING":8522,"Ġseasonal":8523,"sum":8524,"Ġdense":8525,"ĠJessica":8526,"Ġcharging":8527,"Ġstro":8528,"Ġwouldn":8529,"Ġ90":8530,"lands":8531,"Ġeager":8532,"ĠExt":8533,"ĠÑį":8534,"Ġpra":8535,"ĠCode":8536,"ĠFree":8537,"Ġtested":8538,"Ġmini":8539,"ĠPos":8540,"What":8541,"AB":8542,"Ind":8543,"Ġanswers":8544,"ĠSophia":8545,"Ġsaucepan":8546,"Ġconvenience":8547,"Ġloud":8548,"Ġresolve":8549,"Ġabsolutely":8550,"cal":8551,"ĠReduce":8552,"oved":8553,"Ġtroubles":8554,"Ġhomeless":8555,"IV":8556,"Ġâ":8557,"Ġmes":8558,"Ġdiabetes":8559,"Ġconcentration":8560,"hav":8561,"Ġvocal":8562,"Ġgrains":8563,"istance":8564,"Ġcanvas":8565,"ĠMel":8566,"Ġpanc":8567,"Ġattractive":8568,"Ġbands":8569,"itational":8570,"bling":8571,"Ã©s":8572,"Ġtoll":8573,"Ġecosystems":8574,"Ġbills":8575,"Ġfederal":8576,"Ġproduces":8577,"ĠFeb":8578,"phony":8579,"Ġvitamin":8580,"Ġsacrific":8581,"Ġreps":8582,"ĠFrank":8583,"Ġspok":8584,"ĠAN":8585,"Ġdefense":8586,"uality":8587,"Ġoz":8588,"oT":8589,"Ġwhenever":8590,"Ġclaim":8591,"Ġauthors":8592,"Ġpad":8593,"Ġwaters":8594,"fil":8595,"sv":8596,"spe":8597,"Ġfootball":8598,"conf":8599,"Ġtransparency":8600,"ygen":8601,"ÐµÐ¼":8602,"ĠÂ¿":8603,"uls":8604,"Ġmanufacturer":8605,"Ġcontributes":8606,"Ġprecise":8607,"Ġdemands":8608,"Ġdistant":8609,"luenc":8610,"Ġphrase":8611,"gie":8612,"utch":8613,"ĠDif":8614,"Ġoccasionally":8615,"service":8616,"ĠAp":8617,"Ġparaphrase":8618,"Ġconsume":8619,"attered":8620,"image":8621,"Ġsinging":8622,"hem":8623,"PC":8624,"ĠURL":8625,"len":8626,"Ġaligns":8627,"onna":8628,"Ġvacation":8629,"ĠMonday":8630,"Ġcarrying":8631,"Ġturbines":8632,"Ġdistrict":8633,"Ġintroduce":8634,"ĠReport":8635,"Ġhole":8636,"Ġcelery":8637,"Ġhosting":8638,"Ġshoulders":8639,"Ġobjective":8640,"va":8641,"Ġrobots":8642,"Ġdivers":8643,"Ġobstacle":8644,"Ġmobility":8645,"generated":8646,"Ġvisualize":8647,"He":8648,"Ġclouds":8649,"Ġmail":8650,"Ġod":8651,"ĠJuly":8652,"This":8653,"Ġtopping":8654,"Ġgreatly":8655,"stone":8656,"Ġretire":8657,"ĠSatur":8658,"';":8659,"Ġhabitats":8660,"Ġrecover":8661,"ĠRevolution":8662,"ĠHy":8663,"Ġlightly":8664,"åħ":8665,"oust":8666,"istical":8667,"Ġalert":8668,"Ġtestament":8669,"Ġremark":8670,"Ġpaths":8671,"Ġfragr":8672,"Ġaroma":8673,"Val":8674,"ĠNature":8675,"Ġkale":8676,"Ġdrama":8677,"ĠHindu":8678,"Ġdistributed":8679,"Ġsplit":8680,"ye":8681,"Ġmotivations":8682,"Ġepisode":8683,"oman":8684,"Ġenemy":8685,"Ġdelivered":8686,"Ã¨":8687,"nuts":8688,"Ġaddresses":8689,"Ġcontinuous":8690,"Ġhier":8691,"isa":8692,"ctic":8693,"Ġstatic":8694,"EC":8695,"Ġdefined":8696,"Ġ23":8697,"Ġmythology":8698,"ĠCapt":8699,"Ġelectrical":8700,"Ġdefeat":8701,"Ġeerie":8702,"Ġgam":8703,"Ġabstract":8704,"ĠBrazil":8705,"ION":8706,"oors":8707,"store":8708,"ĠSpread":8709,"Ġbutterf":8710,"Ġ2011":8711,"inar":8712,"Ġfellow":8713,"ĠImpact":8714,"Ġpatience":8715,"Ġtoward":8716,"Ġhyp":8717,"Ġstopped":8718,"jo":8719,"amental":8720,"fire":8721,"Ġreflecting":8722,"ovember":8723,"Ġdiscussed":8724,"ĠIslamic":8725,"anda":8726,"eping":8727,"Ġsmoked":8728,"Ġhike":8729,"Ġrefuge":8730,"Ġaccountability":8731,"Ġzone":8732,"ĠLord":8733,"Ġclues":8734,"Ġballs":8735,"UR":8736,"Ġconducting":8737,"Ġresilient":8738,"Ġfolk":8739,"Ġmentions":8740,"ĠTexas":8741,"Line":8742,"culate":8743,"ĠNon":8744,"tight":8745,"ĠLake":8746,"Ġpeak":8747,"ĠExercise":8748,"ĠSolar":8749,"obe":8750,"ĠBank":8751,"ective":8752,"Ġamen":8753,"Ġessence":8754,"ĠCompanies":8755,"mail":8756,"ba":8757,"Ġfrost":8758,"Ġsubjects":8759,"Ġassets":8760,"ĠCEO":8761,"essage":8762,"Ġperm":8763,"ĠSpace":8764,"Ġpossibility":8765,"Ġped":8766,"WS":8767,"Ġguides":8768,"Ġworkforce":8769,"Ġplain":8770,"Ġgate":8771,"Ġemployers":8772,"IA":8773,"ĠJes":8774,"icians":8775,"ĠMaterials":8776,"Ġmetaphor":8777,"Ġtourist":8778,"Ġlosses":8779,"ifice":8780,"emies":8781,"Ġevoke":8782,"Ġsensation":8783,"Ġcardiovascular":8784,"llo":8785,"bn":8786,"Ġbeings":8787,"covery":8788,"Ġtemple":8789,"Ġfixed":8790,"Ġtestimonials":8791,"Ġretreat":8792,"Ġlentils":8793,"Ġflying":8794,"ober":8795,"Ġnu":8796,"Ġcooperation":8797,"ycle":8798,"ĠHistory":8799,"Ġwonderful":8800,"mely":8801,"anqu":8802,"ĠEstab":8803,"Ġcursed":8804,"24":8805,"mm":8806,"ulf":8807,"ĠPsych":8808,"Ġbuzz":8809,"ĠLand":8810,"ĠPet":8811,"ĠBuddh":8812,"Ġcontest":8813,"Ġtelling":8814,"ĠContact":8815,"uces":8816,"Ġnuclear":8817,"Ġalien":8818,"Ġunderlying":8819,"pat":8820,"health":8821,"Ġinvestigate":8822,"orious":8823,"Ġasp":8824,"ĠLaw":8825,"vin":8826,"ĠSweet":8827,"Ġteeth":8828,"Ġoutfit":8829,"ĠSlow":8830,"ĠNetwork":8831,"Ð¼Ð¸":8832,"Ġarchitectural":8833,"inspired":8834,"Ġreminders":8835,"hesis":8836,"Ġintervention":8837,"Ġvert":8838,"ĠCOVID":8839,"iest":8840,"stream":8841,"Ġanimations":8842,"Ġfalls":8843,"à¹ī":8844,"Ġnone":8845,"irts":8846,"tes":8847,"ĠChic":8848,"oub":8849,"ĠIce":8850,"Ġsignals":8851,"Ġmold":8852,"yon":8853,"Ġseal":8854,"Ġdifficulties":8855,"ady":8856,"itative":8857,"ĠVisit":8858,"Ġsetbacks":8859,"Ġnost":8860,"Ġpersonalize":8861,"Ġdisappear":8862,"abil":8863,"Ġ+=":8864,"Ġirrigation":8865,"Ġau":8866,"index":8867,"ĠWord":8868,"æĺ":8869,"ĠMah":8870,"minute":8871,"Ġfi":8872,"Ġscrew":8873,"Ġovercoming":8874,"Ġprofiles":8875,"cember":8876,"Ġfundamental":8877,"Ġ?":8878,"Ġtries":8879,"Ġunfor":8880,"Ġhouses":8881,"Ġoats":8882,"Ġrail":8883,"Ġmotivate":8884,"ĠLeg":8885,"ĠManager":8886,"Ġincident":8887,"Ġproven":8888,"Ġcustomizable":8889,"Ġgathering":8890,"ĠChicken":8891,"pread":8892,"ĠRepublic":8893,"ĠWindows":8894,"ĠGeneral":8895,"Ġintellect":8896,"ĠFADE":8897,"Ġcout":8898,"ĠGive":8899,"kins":8900,"Ġconnecting":8901,"Ġye":8902,"Ġfreshly":8903,"++)":8904,"forest":8905,"ĠÑĢÐ°":8906,"Ġdancing":8907,"Ġshade":8908,"Ġauthorities":8909,"Ġending":8910,"Ġfur":8911,"Ġcampus":8912,"ĠDi":8913,"cribe":8914,"ĠMike":8915,"search":8916,"Ġpreserving":8917,"Ġstructured":8918,"Ġoccurred":8919,"Ġdogs":8920,"Ġreactions":8921,"ĠYoga":8922,"è¿":8923,"ĠThai":8924,"Ġ35":8925,"ĠPrep":8926,"gn":8927,"Ġore":8928,"Ġgene":8929,"Ġsubstance":8930,"elect":8931,"boards":8932,"Ġbless":8933,"Ġcaramel":8934,"ĠSociety":8935,"Ġcriminal":8936,"ĠMult":8937,"----------------":8938,"Ġtooth":8939,"ĠUtil":8940,"esome":8941,"Ġrelatable":8942,"Ġhundred":8943,"ĠLow":8944,"ĠNor":8945,"ĠMiss":8946,"Ġshots":8947,"ĠFriend":8948,"Ġstrand":8949,"Ġmoder":8950,"ĠExplain":8951,"talk":8952,"Ġbottles":8953,"CH":8954,"Ġfiction":8955,"Ġcharts":8956,"uming":8957,"ĠValley":8958,"Ġsocietal":8959,"Ġexposed":8960,"Ġmetaph":8961,"Ġreliability":8962,"ĠSeptember":8963,"BT":8964,"Ġpitch":8965,"Ġreaches":8966,"Ġthus":8967,"ĠðŁ":8968,"à¹Ģ":8969,"Ġadministr":8970,"Ġstruck":8971,"Ġcameras":8972,"ĠAcademy":8973,"Ġparameters":8974,"Ġstudio":8975,"ashed":8976,"grade":8977,"Ġdamaged":8978,"Ġpolitics":8979,"Ġexpressing":8980,"Ġlandscapes":8981,"['":8982,"rey":8983,"ocols":8984,"Ġranging":8985,"Ġceremonies":8986,"sub":8987,"hero":8988,"Ġsuits":8989,"ĠRome":8990,"Ġtasty":8991,"23":8992,"Ġnom":8993,"Ġfemale":8994,"Ġuncertainty":8995,"Ġenters":8996,"Ġevolve":8997,"Ġsquash":8998,"Ġcooling":8999,"Ġentr":9000,"Ġaddressed":9001,"Ġexpanding":9002,"mind":9003,"ĠLay":9004,"Ġcasual":9005,"Ġbeginner":9006,"purpose":9007,"Ġaqu":9008,"Ġ70":9009,"Product":9010,"Ġtemplate":9011,"Ġanger":9012,"xic":9013,"Ġhal":9014,"Ġobserv":9015,"ditional":9016,"Ġurgency":9017,"Ġdrivers":9018,"Ġsuppl":9019,"Ġsenior":9020,"CS":9021,"Ġcotton":9022,"party":9023,"trans":9024,"Ġfacts":9025,"Ġinfluential":9026,"ĠImage":9027,"ulif":9028,"Ġboat":9029,"ĠPacific":9030,"Ġdrag":9031,"ĠIll":9032,"author":9033,"Ġexperimenting":9034,"Ġsolo":9035,"eted":9036,"Ġadventures":9037,"ĠPop":9038,"oma":9039,"Ġexhibit":9040,"cending":9041,"Ġgenerates":9042,"ĠIsra":9043,"Ġhesitate":9044,"Ġupload":9045,"uliflower":9046,"power":9047,"depth":9048,"Ġfundraising":9049,"Ġoutreach":9050,"Ġpill":9051,"ĠFort":9052,"Ġbatteries":9053,"Ġcelebration":9054,"tuce":9055,"idespread":9056,"Ġindicating":9057,"Ġassemb":9058,"Ġrecording":9059,"ĠAdjust":9060,"ĠWeek":9061,"Ġversions":9062,"Ġ26":9063,"gano":9064,"Ġsorting":9065,"Ġamenities":9066,"ĠJenn":9067,"Ġoxygen":9068,"Im":9069,"Ġnest":9070,"umbers":9071,"Ġarmy":9072,"Ġcontrols":9073,"Ġsick":9074,"Ġfate":9075,"dess":9076,"Ġsole":9077,"gent":9078,"Ġovernight":9079,"Ġscratch":9080,"ĠJoin":9081,"Ġcham":9082,"ĠChocolate":9083,"ĠGlobal":9084,"number":9085,"rary":9086,"Ġtip":9087,"Ġjoined":9088,"Ġaffirm":9089,"anguage":9090,"Ġstuck":9091,"organ":9092,"ecurity":9093,"Ã¤":9094,"Ġgrief":9095,"ancers":9096,"Ġdelight":9097,"Ġcorporate":9098,"Ġnegatively":9099,"ĠJanuary":9100,"Ġrustling":9101,"Ġinsects":9102,"ĠWhere":9103,"Ġdonations":9104,"ACK":9105,"Ġsoothing":9106,"ĠExp":9107,"Ġsteak":9108,"password":9109,"ĠRad":9110,"Ġmask":9111,"ĠPeter":9112,"Ġhunt":9113,"Ġsamples":9114,"idal":9115,"cules":9116,"ymakers":9117,"ĠWild":9118,"Ġappliances":9119,"Ð¾Ð³Ð¾":9120,"oria":9121,"Ġtrouble":9122,"ocate":9123,"Ġpursuing":9124,"abeth":9125,"Ġtrips":9126,"Ġbuttons":9127,"Ġsafely":9128,"Ġscheduling":9129,"Ġprotected":9130,"Ġcandidate":9131,"Ġfeta":9132,"ĠJesus":9133,"ĠMrs":9134,"Ġow":9135,"Ġaccommodate":9136,"iens":9137,"Ġvalidation":9138,"Ġtightly":9139,"Ġsacrifice":9140,"Ġcontinuously":9141,"ĠVan":9142,"oming":9143,"Ġexpressions":9144,"Ġtransparent":9145,"Cont":9146,"range":9147,"Ġwidespread":9148,"ĠMer":9149,"Ġstatements":9150,"Ġburning":9151,"Ġwheel":9152,"Ġwarning":9153,"ĠTer":9154,"Ġlapt":9155,"Ġtowns":9156,"ĠDetermine":9157,"Ġmentor":9158,"Ġsubscription":9159,"Ġwealthy":9160,"Ġhide":9161,"Ġlock":9162,"umns":9163,"Ġrib":9164,"Ġimmediate":9165,"tein":9166,"Ġtreating":9167,"Ġintegral":9168,"Ġsmoke":9169,"Ġemotionally":9170,"Ġexhibits":9171,"ema":9172,"Ġalthough":9173,"Ġorganizing":9174,"Ġgenu":9175,"Ġmagnetic":9176,"ooked":9177,"Ġpersonalities":9178,"road":9179,"Ġbench":9180,"Ð´Ð°":9181,"Ġownership":9182,"Ġagreed":9183,"ĠNovember":9184,"alsamic":9185,"55":9186,"Ġmashed":9187,"tical":9188,"onomic":9189,"ĠRyan":9190,"uous":9191,"Ġsaus":9192,"Ð¾Ð²Ð°":9193,"html":9194,"Ġloan":9195,"Ã¶":9196,"ĠMobile":9197,"ttp":9198,"Ġ28":9199,"Ġdoctor":9200,"onds":9201,"Ġbanks":9202,"Ġintegrating":9203,"oured":9204,"Ð¾ÑĢ":9205,"å¤":9206,"ĠNight":9207,"Ġpromise":9208,"ackson":9209,"ĠAD":9210,"Ġprotocols":9211,"ĠAsian":9212,"è¯":9213,"Ġstylish":9214,"Ġcombines":9215,"ĠSever":9216,"Ġfon":9217,"ĠčĊ":9218,"ĠHen":9219,"Ġenhances":9220,"Ġcave":9221,"Ġcoastal":9222,"ĠOptimize":9223,"Ġcompan":9224,"Ġsteam":9225,"Ġfits":9226,"ĠOffice":9227,"Ġconvin":9228,"Ġwake":9229,"rency":9230,"ĠTrump":9231,"ĠMarc":9232,"println":9233,"ĠFirstly":9234,"hew":9235,"Ġdefend":9236,"Ġcasting":9237,"ĠBec":9238,"Ġdiffer":9239,"Ġmanufacturers":9240,"Ġpresident":9241,"ĠFinancial":9242,"piece":9243,"Ġgap":9244,"max":9245,"Ġpulled":9246,"Ġnewsp":9247,"Ġcandidates":9248,"MA":9249,"Ġremarkable":9250,"inity":9251,"Ġletting":9252,"array":9253,"iosity":9254,"Ġencouragement":9255,"Ġvintage":9256,"Ġmerch":9257,"Ġaug":9258,"python":9259,"boh":9260,"Ġdelay":9261,"Ġairtight":9262,"kyo":9263,"ĠSaf":9264,"Ġcharged":9265,"Ġtranqu":9266,"Ġawards":9267,"ĠLine":9268,"Ġprevention":9269,"omy":9270,"Ġinvalid":9271,"ĠBegin":9272,"Ġsurfaces":9273,"Ġrefine":9274,"map":9275,"Ġinhab":9276,"Ġstreamline":9277,"anas":9278,"Ġradius":9279,"ressed":9280,"Ġsunset":9281,"ĠAtl":9282,"Ġhobbies":9283,"Ġbattles":9284,"unting":9285,"Ġtelevision":9286,"ĠSign":9287,"Ġcustomization":9288,"ename":9289,"Ġstrict":9290,"Ġindependence":9291,"Ġfulfilling":9292,"ĠSea":9293,"ĠSuccess":9294,"Ġisolated":9295,"Ġmetaphors":9296,"Ġsushi":9297,"Ġconfusion":9298,"Ġcuts":9299,"Ġcastle":9300,"Ġlaughter":9301,"Ġparticles":9302,"Phone":9303,"Ġsensations":9304,"ule":9305,"Ġaircraft":9306,"Ġbreaths":9307,"ĠSaturday":9308,"Ġdetective":9309,"Ġhunting":9310,"Ġmarked":9311,"Ġantioxidants":9312,"interest":9313,"ĠEnvironmental":9314,"ivation":9315,"Ġimper":9316,"Ġrows":9317,"Ġenemies":9318,"Ġspecify":9319,"ĠInternet":9320,"Ġmirror":9321,"ĠCross":9322,"ool":9323,"Ġadopting":9324,"ĠBan":9325,"ĠUnfortunately":9326,"lers":9327,"ÑĨÐ¸":9328,"ĠCase":9329,"ĠTransport":9330,"ĠUnderstanding":9331,"ocket":9332,"Ġexpanded":9333,"ĠVolunte":9334,"ĠDifferent":9335,"ĠOctober":9336,"ĠNatural":9337,"ĠDecember":9338,"Ġannounce":9339,"Ġdirections":9340,"à¹Ģà¸":9341,"Ġpromising":9342,"Ġhabitat":9343,"Ġgifts":9344,"Ġglobally":9345,"ĠMeditation":9346,"Ġagents":9347,"ĠAndroid":9348,"Ġreflected":9349,"Ġjal":9350,"anean":9351,"Ġski":9352,"CA":9353,"ĠRose":9354,"Ġaccomp":9355,"bohyd":9356,"Ġdramatic":9357,"Ð¾Ð»ÑĮ":9358,"90":9359,"noon":9360,"Ġpoet":9361,"Ġfascinated":9362,"Ġcareers":9363,"Ġrelie":9364,"ĠDisplay":9365,"Ġacquisition":9366,"ĠCast":9367,"anting":9368,"Ġextremely":9369,"ĠArts":9370,"Ġenthusiasts":9371,"ĠLemon":9372,"Ġmint":9373,"acci":9374,"Ġsignature":9375,"Ġtimely":9376,"ĠFarm":9377,"Ġexperiments":9378,"ĠSunday":9379,"ĠElizabeth":9380,"ieval":9381,"ĠChicago":9382,"ĠCharl":9383,"Ġlake":9384,"Ġvulnerability":9385,"Ġtie":9386,"Ġfried":9387,"istan":9388,"Ġconnectivity":9389,"Ã§":9390,"Ġrelaxed":9391,"Ġunderground":9392,"isible":9393,"Ġworkshop":9394,"Ġpic":9395,"Ġclubs":9396,"label":9397,"Ġfee":9398,"Ġtraveled":9399,"\"?":9400,"Ġmaps":9401,"bsite":9402,"Ġproc":9403,"ĠDiscuss":9404,"ami":9405,"Ġclock":9406,"Ġqueue":9407,"Ġtheat":9408,"ĠSeveral":9409,"Ġpersuasive":9410,"ĠStory":9411,"Ġadvis":9412,"ĠWriting":9413,"Ġsees":9414,"Ġalike":9415,"Ġconsideration":9416,"Ġinquir":9417,"Ġmotif":9418,"Ġoutlines":9419,"ÑĤÐ°":9420,"ĠLearn":9421,"Ġdomain":9422,"lyn":9423,"ders":9424,"Ġmerg":9425,"ropical":9426,"giving":9427,"Ġcomputers":9428,"Ġneutral":9429,"ĠRoll":9430,"Ġeth":9431,"Ġcocoa":9432,"IF":9433,"mother":9434,"win":9435,"pted":9436,"orporation":9437,"Ġdesserts":9438,"Ġearned":9439,"Ġchatbots":9440,"Ġcongest":9441,"ĠPrint":9442,"bersecurity":9443,"Ġattitude":9444,"ĠVen":9445,"gets":9446,"Ġkeys":9447,"Ġobserved":9448,"Ġadjusting":9449,"Ġprocessed":9450,"Ġbelieves":9451,"ĠMean":9452,"eed":9453,"ĠJackson":9454,"Ġsi":9455,"Ġgeothermal":9456,"ĠCard":9457,"ĠMedit":9458,"Ġimproves":9459,"Ġgravitational":9460,"åĴ":9461,"duction":9462,"break":9463,"ĠEastern":9464,"Ġmetab":9465,"fits":9466,"Ġvow":9467,"Ġmistake":9468,"BA":9469,"Ġsalads":9470,"makers":9471,"åĪ":9472,"enne":9473,"Ġicon":9474,"Ġminor":9475,"Ġfluid":9476,"Ġhorse":9477,"Ġforgot":9478,"Ġintim":9479,"Ġacceptance":9480,"itan":9481,"Ġampl":9482,"arks":9483,"feren":9484,"Ġ27":9485,"Ġautonom":9486,"Ġworkflow":9487,"ruary":9488,"Ġminds":9489,"Ġoccurs":9490,"ĠDu":9491,"Ġbonds":9492,"ĠFrancisco":9493,"Ġwines":9494,"Ġdisadvant":9495,"Ġsights":9496,"ĠRussia":9497,"ÑĢÑĥ":9498,"Ġeducate":9499,"Ġrepeated":9500,"ĠLatin":9501,"nowned":9502,"Ġgrammar":9503,"Ġsweat":9504,"Ġcubes":9505,"Ġyeast":9506,"olt":9507,"ĠEll":9508,"ĠLeague":9509,"Ġelig":9510,"ĠSustainable":9511,"Ġacknowled":9512,"ĠEXT":9513,"rors":9514,"Ġvenue":9515,"ĠDev":9516,"Ġdiscoveries":9517,"Ġadopted":9518,"Ġacts":9519,"ito":9520,"ĠCT":9521,"Ġangle":9522,"ĠTrail":9523,"Ġtowel":9524,"nament":9525,"ĠOper":9526,"Ġattempts":9527,"Ġsne":9528,"ĠKnow":9529,"Ġdemonstrated":9530,"ĠSS":9531,"ocument":9532,"ĠNode":9533,"ĠPartners":9534,"yard":9535,"ĠKat":9536,"vo":9537,"ĠKen":9538,"ĠApply":9539,"File":9540,"wear":9541,"Ġliteracy":9542,"Ġcrypt":9543,"YZ":9544,"Ġfertil":9545,"illas":9546,"Ġmaze":9547,"Ġjudgment":9548,"ĠAS":9549,"Ġdrum":9550,"Ġlur":9551,"ĠClient":9552,"Ġobserve":9553,"ĠSche":9554,"Ġdivide":9555,"!!":9556,"astics":9557,"ushes":9558,"aded":9559,"Ġclut":9560,"ĠAnalysis":9561,"Ġadaptations":9562,"Ġgrain":9563,"Ġ});":9564,"å®":9565,"ĠAttend":9566,"ali":9567,"Ġbustling":9568,"Ġhyper":9569,"Ġrect":9570,"Ġenhanced":9571,"proof":9572,"Ġconsists":9573,"Ġillustrations":9574,"sis":9575,"unks":9576,"ĠPlus":9577,"Ġsteady":9578,"35":9579,"Ġlamb":9580,"Ġdefault":9581,"Ġluxurious":9582,"Ġindoor":9583,"Ġstrike":9584,"rec":9585,"ĠAz":9586,"Ġroads":9587,"Ġcir":9588,"Ġimpression":9589,"ĠTokyo":9590,"Ġmolecules":9591,"Ġadversity":9592,"ĠSou":9593,"Ġhat":9594,"email":9595,"dig":9596,"Ġkilled":9597,"Ġburden":9598,"ĠLED":9599,"umph":9600,"Ġrecommendation":9601,"Ġdescribes":9602,"ĠPers":9603,"Ġplayful":9604,"Ġdesigner":9605,"ĠVideo":9606,"Invalid":9607,"erranean":9608,"acteria":9609,"Ġrolls":9610,"Ġtor":9611,"Ġpinch":9612,"Ġbiom":9613,"aple":9614,"izzes":9615,"ĠIoT":9616,"Ġhumid":9617,"Ġnegoti":9618,"Ġoregano":9619,"empl":9620,"ĠBud":9621,"ĠIncorpor":9622,"ĠObject":9623,"Ġboss":9624,"Ġaccommodations":9625,"Ġjungle":9626,"Ġdamp":9627,"Ġhung":9628,"Ġinvolving":9629,"ĠÐ·Ð°":9630,"Ġstrawberries":9631,"Qu":9632,"ĠDen":9633,"chers":9634,"ouble":9635,"how":9636,"ĠSpecial":9637,"Ġunne":9638,"Ġheads":9639,"eliness":9640,"charge":9641,"Ġratio":9642,"[]":9643,"Ġenerg":9644,"ĠBill":9645,"lay":9646,"Ġlies":9647,"ĠMedical":9648,"Ġdesp":9649,"Ġperce":9650,"Ġretrieve":9651,"ÐºÐ°":9652,"Ġchemicals":9653,"Ġplanting":9654,"Ġtrem":9655,"åĴĮ":9656,"atter":9657,"Ġhub":9658,"Ġsigned":9659,"adian":9660,"Ġshorter":9661,"archy":9662,"ĠCelebr":9663,"Ġdecimal":9664,"Ġincentiv":9665,"vy":9666,"alg":9667,"Ġeditor":9668,"Ġlettuce":9669,"Ġparking":9670,"Ġreplaced":9671,"Ġhang":9672,"Ġaccomplishments":9673,"Ġmechanism":9674,"çĶ":9675,"Ġengineers":9676,"Ġwhipped":9677,"Ġrewarding":9678,"ĠROI":9679,"Â®":9680,"ĠKit":9681,"elly":9682,"Ġfunctioning":9683,"Ġcircular":9684,"function":9685,"ante":9686,"Ġbetray":9687,"Ġactors":9688,"Ġbone":9689,"ĠEr":9690,"Ġstudied":9691,"ĠMic":9692,"Ġcovering":9693,"ĠFlor":9694,"Ġtitles":9695,"Ġvel":9696,"Ġlip":9697,"bow":9698,"Ġleveraging":9699,"math":9700,"Ġnecess":9701,"ango":9702,"athan":9703,"Ġpersonnel":9704,"ĠHotel":9705,"ĠDra":9706,"ĠVir":9707,"But":9708,"ĠCup":9709,"Ġpeer":9710,"Ġclosing":9711,"ĠEffective":9712,"Ġtrials":9713,"Ġjoining":9714,"ĠBob":9715,"ĠLar":9716,"Ġentity":9717,"Ġdrops":9718,"Ġphilosophy":9719,"Ġconferences":9720,"ĠPHP":9721,"Ġstriking":9722,"Ġtypography":9723,"Ġwisdom":9724,"rer":9725,"Ġremoved":9726,"Ġtart":9727,"Ġlid":9728,"ĠRun":9729,"Ġscared":9730,"stick":9731,"Ġgarnish":9732,"rac":9733,"Ġfootage":9734,"Ġratings":9735,"ĠTower":9736,"ĠMass":9737,"Ġdisp":9738,"Ġimmig":9739,"ĠMediterranean":9740,"Ġrating":9741,"Ġintellectual":9742,"Ġdigest":9743,"Ġburnout":9744,"Ġopinion":9745,"Ġhanging":9746,"oty":9747,"ĠProper":9748,"havior":9749,"Ġsculptures":9750,"cha":9751,"Ġscope":9752,"Ġhybrid":9753,"ĠExplore":9754,"ĠEqu":9755,"Ġcollections":9756,"Ġvess":9757,"Ġunpredict":9758,"ĠÐ»":9759,"Ġminimalist":9760,"pet":9761,"ĠHuman":9762,"Ġcompatible":9763,"ĠCath":9764,"Ġchapter":9765,"ĠNutrition":9766,"ude":9767,"Ġoperational":9768,"Ġ**":9769,"Ġrosemary":9770,"Ġrepresented":9771,"Ġexecutive":9772,"Ġearthqu":9773,"Ġpreval":9774,"Ġexamine":9775,"ĠIncorporating":9776,"Ġinnovations":9777,"Ġgardening":9778,"Ġbravery":9779,"umer":9780,"Ġbreathe":9781,"Ġplane":9782,"Ġ1000":9783,"Ġtrading":9784,"Ġimmense":9785,"Ġbreakdown":9786,"rem":9787,"Ġabund":9788,"Ġadequate":9789,"Ġsed":9790,"Ġinsert":9791,"ĠJac":9792,"osa":9793,"Ġdiss":9794,"ĠJon":9795,"Ġmodes":9796,"Ġimpressed":9797,"Ġadult":9798,"Ġradiation":9799,"Ġhopes":9800,"ĠPM":9801,"Ġguys":9802,"enes":9803,"ĠSpec":9804,"Ġdipping":9805,"Ġdeployment":9806,"oft":9807,"reate":9808,"uesday":9809,"Ġboards":9810,"Ġdoubt":9811,"Ġbio":9812,"Ġshore":9813,"Ġpastry":9814,"Ġlifetime":9815,"Ġstreams":9816,"ĠAM":9817,"ĠComput":9818,"Ġprobably":9819,"65":9820,"hi":9821,"ĠPack":9822,"ĠEvalu":9823,"title":9824,"Ġarrest":9825,"Ġquesion":9826,"Re":9827,"Ġspat":9828,"Ġaccompan":9829,"Ġconfiguration":9830,"Ġdipl":9831,"Ġsubsid":9832,"away":9833,"fting":9834,"Ġchill":9835,"Ġfluff":9836,"urable":9837,"ĠCream":9838,"pool":9839,"Ġsail":9840,"Ġtrusted":9841,"Ġtroubleshoot":9842,"ĠLit":9843,"ĠSimply":9844,"dem":9845,"no":9846,"Ġterrifying":9847,"Ġlun":9848,"ÑģÑĤÐ²":9849,"Ġdashboard":9850,"```":9851,"ieties":9852,"fish":9853,"Ġpresents":9854,"Ġbarely":9855,"Ġpassengers":9856,"ĠMaggie":9857,"Date":9858,"ĠRoyal":9859,"elihood":9860,"ĠBir":9861,"Ġseasons":9862,"inates":9863,"Ġprove":9864,"Ġwinds":9865,"Ġearthy":9866,"FF":9867,"resist":9868,"Ġestablishing":9869,"Ġtowering":9870,"erly":9871,"mn":9872,"Ġreaction":9873,"Ġfir":9874,"Ġfinger":9875,"Ġdrew":9876,"ĠNews":9877,"Ġwillingness":9878,"ĠFebruary":9879,"ĠBlend":9880,"ĠUr":9881,"ĠPhil":9882,"asures":9883,"Ġhandles":9884,"åĲ":9885,"ĠProviding":9886,"Ġinstrumental":9887,"Ġclimb":9888,"Col":9889,"Ġpottery":9890,"ĠRegarding":9891,"inn":9892,"Ġblending":9893,"Ġcontaining":9894,"ĠWi":9895,"indrome":9896,"Ġperception":9897,"Ġdifferentiate":9898,"Ġappreciated":9899,"ä¸Ģ":9900,"Ġears":9901,"ĠÐ°":9902,"Ġaccomplishment":9903,"ĠGame":9904,"imm":9905,"agus":9906,".]":9907,"steps":9908,"Ġpuzzles":9909,"ĠCombine":9910,"Ġpy":9911,"Ġcaptured":9912,"abul":9913,"Ġcapability":9914,"LL":9915,"Ġloose":9916,"SON":9917,"ĠKaren":9918,"iffs":9919,"Ġdimensions":9920,"Ġmeditations":9921,"Ġlikelihood":9922,"ĠRecommend":9923,"Ġmuff":9924,"Ġlikes":9925,"ĠSprinkle":9926,"Ġsteep":9927,"ĠSlide":9928,"Ġbun":9929,"ĠLee":9930,"Ġ350":9931,"Ġdisput":9932,"vings":9933,"ĠRussian":9934,"Ġvoices":9935,"Ġregistration":9936,"Ġcohesive":9937,"Ġcongestion":9938,"Ġtriumph":9939,"bage":9940,"ĠChange":9941,"Ġguilt":9942,"root":9943,"Ġmechanics":9944,"rub":9945,"II":9946,"pm":9947,"ĠRecipe":9948,"onacci":9949,"ĠĠĠĠĠĠĠĠĠĠĠĠĠ":9950,"ĠDate":9951,"Ġlisted":9952,"erness":9953,"Fi":9954,"rowave":9955,"Ġrack":9956,"ugar":9957,"Ġbrowser":9958,"Ġpainted":9959,"Ġbuyers":9960,"Ġaccountable":9961,"iar":9962,"button":9963,"Ġskincare":9964,"Ġimagined":9965,"ĠEp":9966,"west":9967,"Ġhouseholds":9968,"dar":9969,"Ġwore":9970,"otive":9971,"ĠIrish":9972,"Number":9973,"ĠPage":9974,"Ġconstra":9975,"Ġcredibility":9976,"ao":9977,"Ġyields":9978,"Ġextension":9979,"Ġunnecessary":9980,"igraph":9981,"ĠÐ³":9982,"ĠText":9983,"ĠBoard":9984,"Ġfram":9985,"Ġcuriosity":9986,"ĠAustralian":9987,"Ġfonts":9988,"Ġsuppliers":9989,"ĠBang":9990,"Ġscroll":9991,"esame":9992,"Ġtissue":9993,"Ġhospitality":9994,"Ġscores":9995,"Ġsymphony":9996,"burg":9997,"Ġfabrics":9998,"Ġneckl":9999,"ĠTaking":10000,"mod":10001,"Ġprioritizing":10002,"Ġplacing":10003,"Ġsauces":10004,"Ġ->":10005,"Ġreminded":10006,"Ġsuffering":10007,"Ġbacteria":10008,"ĠJESS":10009,"tti":10010,"Don":10011,"Ġleng":10012,"ĠThurs":10013,"ĠEngage":10014,"Ġactionable":10015,"Ġpuzzle":10016,"CC":10017,"Ġafternoon":10018,"ĠMindful":10019,"ĠPen":10020,"Ġmodifications":10021,"ĠInfluenc":10022,"Ġexplained":10023,"ART":10024,"riage":10025,"Ġexecute":10026,"arted":10027,"Ġ!=":10028,"Ġlush":10029,"Ġfloral":10030,"Ġweapon":10031,"yles":10032,"rette":10033,"Ġouts":10034,"Ã±o":10035,"plit":10036,"ATE":10037,"Ġoppon":10038,"Ġvictims":10039,"ador":10040,"ĠAmericans":10041,"Ġtent":10042,"ĠTuesday":10043,"Ġthreatened":10044,"RI":10045,"Ġgirls":10046,"adas":10047,"Ġdecade":10048,"Ġrestore":10049,"Ġdecorations":10050,"sl":10051,"ĠWednes":10052,"Ġdistribute":10053,"ĠJenna":10054,"Ġner":10055,"Ġdigit":10056,"Ġbigger":10057,"ĠFamily":10058,"error":10059,"Ġcontribution":10060,"Ġfragrance":10061,"Ġcodes":10062,"ĠSupp":10063,"ership":10064,"ĠGarden":10065,"rapeut":10066,"prise":10067,"Ġenroll":10068,"Ġcoaches":10069,"Ġvaried":10070,"Ġdeadline":10071,"Ġdepicted":10072,"Ġfaculty":10073,"bound":10074,"yr":10075,"Ġgoddess":10076,"ĠCla":10077,"Ġtro":10078,"bnb":10079,"Ġstd":10080,"Ġadvertise":10081,"Ġsquee":10082,"Ġharmon":10083,"aturally":10084,"Ġbranch":10085,"Ġtorn":10086,"ĠFre":10087,"Ġcommission":10088,"ancer":10089,"ĠCampaign":10090,"Ġtalented":10091,"ĠThough":10092,"Ġheated":10093,"ĠSetting":10094,"ĠDetective":10095,"awareness":10096,"Ġachievable":10097,"Ġpracticed":10098,"Ġaliens":10099,"ĠBB":10100,"ĠAdvert":10101,"Ġdelete":10102,"Ġreferences":10103,"Ġrank":10104,"ocratic":10105,"Ġnull":10106,"placement":10107,"ĠÐ¾Ð±":10108,"Ġdistances":10109,"ĠTrack":10110,"rades":10111,"Ġstartup":10112,"ĠQuestion":10113,"Ġcomplicated":10114,"Ġenforce":10115,"atis":10116,"ĠMot":10117,"Ġquizzes":10118,"ĠÐ¿Ð¾":10119,"Ġabsorb":10120,"ki":10121,"ĠAngeles":10122,"Ġfoam":10123,"catching":10124,"Ġwithstand":10125,"Ġmeats":10126,"Ġtherefore":10127,"Ġcolumns":10128,"Ġbrowned":10129,"ĠPerformance":10130,"uer":10131,"ĠFour":10132,"Ġanxious":10133,"Ġhearty":10134,"Ġcoordination":10135,"Ġrelate":10136,"ĠXYZ":10137,"ione":10138,"aved":10139,"apse":10140,"Ġdistur":10141,"Ġdressed":10142,"DF":10143,"elcome":10144,"ibl":10145,"Ġpeas":10146,"Ġseasoned":10147,"ĠQueen":10148,"Ġpreservation":10149,"Ġexport":10150,"paced":10151,"cipl":10152,"ĠGuide":10153,"Ġharness":10154,"Ġmolec":10155,"site":10156,"lywood":10157,"osing":10158,"Ġdirected":10159,"Ġbasketball":10160,"ja":10161,"Ġgrant":10162,"Ġcalculates":10163,"Ġdivine":10164,"Ġarrangements":10165,"Ġforth":10166,"ĠAlways":10167,"Ġtoast":10168,"Ġemphasizing":10169,"Ġloneliness":10170,"Ġdefin":10171,"oriented":10172,"Ġaffirmations":10173,"Ġpiv":10174,"left":10175,"otta":10176,"Ġhaunting":10177,"compassion":10178,"ĠDark":10179,"Ġtickets":10180,"Ġliber":10181,"Ġundergo":10182,"ais":10183,"eder":10184,"Ġcomedy":10185,"Ġfict":10186,"Ġlistened":10187,"ĠTravel":10188,"ĠKorean":10189,"åľ":10190,"Ġlung":10191,"umble":10192,"Ġphotographs":10193,"Ġerosion":10194,"discovery":10195,"Ġ197":10196,"ias":10197,"Ġfourth":10198,"bohydrates":10199,"Ġbean":10200,"Ġcort":10201,"Ġthrilling":10202,"Ġsorce":10203,"Ġsocieties":10204,"Ġindul":10205,"Ġregulatory":10206,"Node":10207,"Pr":10208,"opes":10209,"ĠLooking":10210,"Ġpalette":10211,"Ġgravity":10212,"Ġfragrant":10213,"Ġwax":10214,"Ġgig":10215,"Ġexplo":10216,"Ġstaring":10217,"Ġresort":10218,"Ġdirt":10219,"lists":10220,"ĠSpain":10221,"Ġgrants":10222,"inaig":10223,"Ġseasonings":10224,"Ġseparated":10225,"Ġancest":10226,"Ġmedieval":10227,"ĠVoice":10228,"Ġmissions":10229,"Ġbelonging":10230,"Ġnan":10231,"ĠEnt":10232,"Ġscenery":10233,"type":10234,"ĠVisitors":10235,"Ġproactive":10236,"Ġdrizzle":10237,"Ġdemographic":10238,"Ġaccepted":10239,"Ġdating":10240,"Ġedit":10241,"Ġantib":10242,"Ġtranslation":10243,"Ġdiagram":10244,"Ġfinancing":10245,"à¸ģ":10246,"Ġweekly":10247,"Ġpicked":10248,"drop":10249,"Ġagent":10250,"Ġsmartphone":10251,"Ġstrips":10252,"Ġtricks":10253,"Ġlisteners":10254,"oving":10255,"Ġmarks":10256,"Ġsmells":10257,"state":10258,"ĠFlorida":10259,"ĠAlternatively":10260,"ĠHeart":10261,"ĠPartner":10262,"Ġfacial":10263,"yer":10264,"ĠHyd":10265,"ĠHi":10266,"ĠBody":10267,"Ġblues":10268,"Ġbones":10269,"ĠClear":10270,"Ġeducators":10271,"sters":10272,"Ġcomposting":10273,"heat":10274,"Ġstatistical":10275,"Ġtirelessly":10276,"edge":10277,"Ġpolicymakers":10278,"arella":10279,"amboo":10280,"Ġfrosting":10281,"AG":10282,"Time":10283,"Ġtransit":10284,"Ġplacement":10285,"ĠThursday":10286,"Ġinnoc":10287,"Ġnose":10288,"Ġexpressed":10289,"Ġles":10290,"Ġgrip":10291,"Ġposes":10292,"ĠEnh":10293,"ĠMia":10294,"Ġdiscovers":10295,"ĠButter":10296,"ĠCustomers":10297,"Ġsex":10298,"Ġprinted":10299,"Ġexecution":10300,"Ġproducers":10301,"Ġmentorship":10302,"ker":10303,"Sc":10304,"Ġspa":10305,"ĠWednesday":10306,"Ð»Ðµ":10307,"inaigrette":10308,"Ġmining":10309,"Ġscenic":10310,"Ġmajority":10311,"ĠJoe":10312,"Ġpin":10313,"Ġlighter":10314,"olves":10315,"ĠHappy":10316,"arse":10317,"Ġloading":10318,"Ġinsightful":10319,"Ġblur":10320,"ĠTraditional":10321,"Ġstom":10322,"Ġhosts":10323,"Ġunders":10324,"zzarella":10325,"Ġadministration":10326,"Ġtrigger":10327,"Ġoperator":10328,"ĠĠĠĠĠĠĠĠĠĠĠĠĠĠĠĠĠ":10329,"ĠHill":10330,"ĠLive":10331,"Ġtape":10332,"entials":10333,"Ġignore":10334,"ĠIndustry":10335,"ĠExperience":10336,"uster":10337,"Ġnob":10338,"ĠPrompt":10339,"Ġcakes":10340,"Ġunlike":10341,"Ġminimizing":10342,"ĠDeveloping":10343,"ĠProcess":10344,"Ġpriorities":10345,"Ġresonate":10346,"ĠEconomic":10347,"ighs":10348,"Ġaccounting":10349,"æĺ¯":10350,"ĠAirbnb":10351,"My":10352,"hetti":10353,"ĠLanguage":10354,"à¸£":10355,"Ġdivided":10356,"Ġbeloved":10357,"ĠBeing":10358,"ĠType":10359,"Ġwashing":10360,"Ġships":10361,"ĠRice":10362,"td":10363,"agna":10364,"Ġassessments":10365,"ĠOlivia":10366,"ĠSpring":10367,"ĠPT":10368,"Ġworse":10369,"Ġbowls":10370,"ĠForest":10371,"ĠBecause":10372,"Ġcompletion":10373,"ĠCSV":10374,"Ġ\\":10375,"Ġworried":10376,"aints":10377,"Ġcorruption":10378,"Ġillnesses":10379,"Ġpuede":10380,"Ġprev":10381,"ĠSleep":10382,"Ġcharges":10383,"Ġknees":10384,"Ġtoys":10385,"Ġsubsequ":10386,"Ġ2000":10387,"Ġworst":10388,"BS":10389,"nut":10390,"ĠCooking":10391,"Ġallerg":10392,"abulary":10393,"Ġdistinctive":10394,"ĠMartin":10395,"Ġretirement":10396,"ĠWay":10397,"ĠLouis":10398,"aron":10399,"ĠCD":10400,"Ġendurance":10401,"Ġmutual":10402,"Ġcocktail":10403,"Ġhesitant":10404,"Ġpurchased":10405,"åĬ":10406,"Ġcider":10407,"ĠInnov":10408,"Ġfoil":10409,"itudes":10410,"Ġextent":10411,"Ġtreacher":10412,"Ġalerts":10413,"Ġaugmented":10414,"ĠOcean":10415,"Ġcrafts":10416,"Ġastronaut":10417,"Ġlegis":10418,"paragus":10419,"ĠIS":10420,"Ġseamlessly":10421,"otional":10422,"ĠAWS":10423,"ĠDutch":10424,"Ġassignments":10425,"imedia":10426,"Ġnights":10427,"Ġcostumes":10428,"Ġunus":10429,".\")":10430,"ICA":10431,"Ġcowork":10432,"Ġalph":10433,"war":10434,"hop":10435,"Ġlined":10436,"32":10437,"ĠGames":10438,"ĠThose":10439,"Ġloans":10440,"Ġloving":10441,"Ġfulfillment":10442,"IGHT":10443,"Ġmilestones":10444,"ĠAff":10445,"Ġcybersecurity":10446,"ä¹":10447,"Ġdrives":10448,"ĠLisa":10449,"ĠHealthcare":10450,"Ġgraduate":10451,"Ġ\"$":10452,"Ġsurge":10453,"Ġviewer":10454,"ĠFeed":10455,"ĠTor":10456,"Ġspine":10457,"Add":10458,"lined":10459,"Ġrenowned":10460,"Ġautomate":10461,"Ġcomplements":10462,"ĠBlock":10463,"Ġfounded":10464,"forward":10465,"Ġconcert":10466,"Ġsadness":10467,"ĠĠĠĠĠĠĠĠĠĠĠ":10468,"Ġbloom":10469,"Ġstartups":10470,"Ġglue":10471,"Ġreverse":10472,"Ġemployed":10473,"ashes":10474,"aghetti":10475,"Ġvirt":10476,"Ġhash":10477,"arrant":10478,"Ġhappens":10479,"Ġgeometric":10480,"Ġfictional":10481,"64":10482,"Ġax":10483,"Ġmasks":10484,"iva":10485,"Ġsticks":10486,"Ġacids":10487,"à¸±":10488,"KE":10489,"ĠHawai":10490,"Ġplates":10491,"pot":10492,"Ġtiming":10493,"Ġstur":10494,"Ġtraits":10495,"Ġremot":10496,"Ġallev":10497,"elia":10498,"ĠWilliams":10499,"lasting":10500,"terior":10501,"archment":10502,"Ġbeaches":10503,"Ġcharming":10504,"Ġglowing":10505,"Ġsausage":10506,"ÑģÑĤÐ°":10507,"ĠMeanwhile":10508,"à¸¡":10509,"ercase":10510,"Ġghosts":10511,"Ġkill":10512,"rows":10513,"ÑģÑĤÐ¸":10514,"ĠElectric":10515,"Ġprecious":10516,"Ġelectronics":10517,"ca":10518,"Ġdraft":10519,"Ġcertific":10520,"igned":10521,"Ã©n":10522,"Ġhorizon":10523,"Ġlect":10524,"Ġvarying":10525,"Ġwireless":10526,"Ġmarinade":10527,"Ġ<=":10528,"chest":10529,"Ġprosper":10530,"ĠIncrease":10531,"Ġmand":10532,"Ġworship":10533,"heddar":10534,"Ġtwice":10535,"Ġwhispers":10536,"rings":10537,"Ġmant":10538,"Ġattached":10539,"itches":10540,"Ġrecorded":10541,"Ġargue":10542,"Ġtaxes":10543,"ulent":10544,"inals":10545,"ĠPhysical":10546,"Ġinviting":10547,"Ġcandles":10548,"run":10549,"Ġcoal":10550,"Ġcauliflower":10551,"ĠTools":10552,"Ġpounding":10553,"Ġstones":10554,"Ġsecurely":10555,"Ġtac":10556,"Ġchia":10557,"df":10558,"Ġtravels":10559,"ĠÂ£":10560,"Ġprofitability":10561,"och":10562,"Ġparalle":10563,"Ġsurprised":10564,"authorized":10565,"Ġbalsamic":10566,"story":10567,"Ġbitter":10568,"Ġplus":10569,"employ":10570,"see":10571,"Ġeliminate":10572,"Ġwilderness":10573,"Ġspreading":10574,"Ġformatting":10575,"market":10576,"Ġbees":10577,"Ġmarketers":10578,"Ġtreacherous":10579,"ĠÑı":10580,"Ġtopped":10581,"ented":10582,"ente":10583,"Ġ29":10584,"wall":10585,"Ġdonation":10586,"Ġoutdoors":10587,"bi":10588,"eness":10589,"iform":10590,"anz":10591,"ĠAdam":10592,"ĠJose":10593,"Ġgrandmother":10594,"Ġtower":10595,"ĠIndividual":10596,"Ġdowns":10597,"Ġnaturally":10598,"Ġrasp":10599,"ĠNike":10600,"Ġdelays":10601,"Ġchains":10602,"start":10603,"ĠMaster":10604,"Ġproved":10605,"ĠTHE":10606,"bra":10607,"ĠParty":10608,"Ġunsure":10609,"Ġregards":10610,"Ġdisappoint":10611,"igue":10612,"othic":10613,"Ġtalks":10614,"ĠPut":10615,"Ġworkload":10616,"ĠGradu":10617,"Ġcoated":10618,"ĠFeel":10619,"Ġdepartments":10620,"itory":10621,"Ġaged":10622,"Ġ*/":10623,"Ġstomach":10624,"ĠInitial":10625,"ĠÐµ":10626,"Ġdrained":10627,"ĠUSA":10628,"Ġfav":10629,"orie":10630,"Ġlamp":10631,"Ġprayer":10632,"ĠMarcus":10633,"]:":10634,"bro":10635,"illy":10636,"etch":10637,"Ġripe":10638,"Ġdeadly":10639,"with":10640,"Ġcompens":10641,"Ġcommunicating":10642,"ĠTrust":10643,"looking":10644,"And":10645,"omfort":10646,"Ġwarming":10647,"Ġram":10648,"Ġnewsletter":10649,"source":10650,"Ġanalyzed":10651,"Ġbeads":10652,"ĠAward":10653,"Ġtired":10654,"Ġ\");":10655,"Ġhyg":10656,"ĠReact":10657,"Ġventure":10658,"otherapy":10659,"Ġsimulations":10660,"ĠScient":10661,"Ġoccasion":10662,"Ġpharm":10663,"Ġceiling":10664,"Ġcombining":10665,"Ġshooting":10666,"osc":10667,"Ġpets":10668,"Ġsuperhero":10669,"Ġbay":10670,"sharing":10671,"Ġrival":10672,"ĠÐ¾ÑĤ":10673,"Ġreplacement":10674,"ĠEmployee":10675,"uum":10676,"ĠPlant":10677,"ĠPassage":10678,"Ġcable":10679,"ĠInterest":10680,"igraphy":10681,"OL":10682,"exp":10683,"Ġsmoothly":10684,"ĠGovernment":10685,"Ġvolcan":10686,"Ġgaining":10687,"Ġexcessive":10688,"Ġhack":10689,"Ġfork":10690,"ĠIran":10691,"Ġimmerse":10692,"Ġtypical":10693,"Ġclimbing":10694,"meal":10695,"Ġbrave":10696,"Ġric":10697,"Ġcommunications":10698,"Ġfootsteps":10699,"Ġgranola":10700,"aid":10701,"encia":10702,"Ġprospects":10703,"CE":10704,"ĠGarlic":10705,"ĠHaving":10706,"Ġremotely":10707,"bread":10708,"ĠShop":10709,"Ġmicrowave":10710,"Ġum":10711,"IE":10712,"Ġ...":10713,"Ġcanned":10714,"Ġcapturing":10715,"Ġtensions":10716,"Ġtropical":10717,"Ġrid":10718,"Ġdesignated":10719,"Ġcorresponding":10720,"Ġmine":10721,"Ġphotograp":10722,"Ġvisits":10723,"Ġraising":10724,"Ġpests":10725,"Ġrehab":10726,"ĠSym":10727,"gettable":10728,"ĠConst":10729,"Ġdonate":10730,"ÑĩÐ¸":10731,"Ġdiox":10732,"udding":10733,"Ġgranted":10734,"Ġsuspenseful":10735,"Ġdiscovering":10736,"Ġsorry":10737,"Ġsegments":10738,"ĠÃ©":10739,"sem":10740,"ĠSystems":10741,"ĠPriorit":10742,"resistant":10743,"Ġopens":10744,"Ġsandwiches":10745,"Ġneglect":10746,"Ġcontinuing":10747,"Ġnavig":10748,"Ġlongest":10749,"Ġmozzarella":10750,"onym":10751,"Ġpasswords":10752,"Ġlaughing":10753,"Ġsubstant":10754,"ania":10755,"mitted":10756,"Ġfusion":10757,"Ġvote":10758,"holder":10759,"Ġinterns":10760,"Ġcomforting":10761,"ĠBon":10762,"Ġindicates":10763,"embered":10764,"Ġpineapple":10765,"ĠSoftware":10766,"Ġprotective":10767,"imeter":10768,"Ġfert":10769,"Ġmostly":10770,"Ġspoken":10771,"Ġaren":10772,"Ġdiplom":10773,"Ġblind":10774,"Ġinfographics":10775,"Ġauto":10776,"ÑĦ":10777,"ĠLu":10778,"ĠCommon":10779,"ela":10780,"Ġdimension":10781,"ĠHub":10782,"Ġbuck":10783,"Ġunforgettable":10784,"renal":10785,"Ġflowing":10786,"Ġempower":10787,"Ġuniversal":10788,"Ġassigned":10789,"foot":10790,"Ġmatters":10791,"Ġconcerned":10792,"writing":10793,"izar":10794,"Ġbroke":10795,"Ġresponding":10796,"Ġthesis":10797,"ĠComple":10798,"Ġdioxide":10799,"ĠWas":10800,"Ġpiano":10801,"ĠOil":10802,"Ġcontrolling":10803,"Ġunusual":10804,"ifer":10805,"ĠFut":10806,"Ġpanic":10807,"iana":10808,"Ġdespair":10809,"father":10810,"ÐºÐ¸":10811,"Ġseating":10812,"Ġelderly":10813,"ayenne":10814,"Ġwhites":10815,"anche":10816,"Ġdivision":10817,"Ġfloat":10818,"Res":10819,"Un":10820,"æĸ":10821,"Ġthereby":10822,"Ġunderwater":10823,"heast":10824,"ingly":10825,"ormal":10826,"PT":10827,"An":10828,"Ġdensity":10829,"Ġnations":10830,"Ġsurgery":10831,"ĠSM":10832,"Ġlogin":10833,"Ġdestroyed":10834,"PN":10835,"Ġobl":10836,"Ġicons":10837,"Ġcertification":10838,"Ġperman":10839,"Ġdoctors":10840,"Ġviewed":10841,"ĠDistrict":10842,"Ġzest":10843,"Ġcrowded":10844,"Ġcer":10845,"ifest":10846,"asty":10847,"eded":10848,"Ġaccum":10849,"ĠCatholic":10850,"ĠSky":10851,"ĠStat":10852,"Ġstem":10853,"ĠWomen":10854,"conscious":10855,"Ġparchment":10856,"Ġnavigating":10857,"ĠÐ²Ñĭ":10858,"emption":10859,"Ġevolving":10860,"ptic":10861,"Ġ2008":10862,"Ġcond":10863,"Ġtransmission":10864,"Ġexperimental":10865,"Ġunpredictable":10866,"ĠTreat":10867,"ĠCas":10868,"Ġacting":10869,"Ġcircul":10870,"28":10871,"DA":10872,"ĠRequ":10873,"Ġwr":10874,"ĠMethod":10875,"Ġbarrier":10876,"Ġsmartphones":10877,"ĠLittle":10878,"à¸ĩ":10879,"Ġentering":10880,"Ġcrumbled":10881,"Ġsoftened":10882,"ÑĩÐµ":10883,"Ġaccomplished":10884,"Ġmatching":10885,"imens":10886,"Image":10887,"bul":10888,"hyd":10889,"Ġliv":10890,"ĠPR":10891,"ĠSQL":10892,"Ġ\"\"":10893,"ĠPersonalized":10894,"ĠDrizzle":10895,"ĠEffect":10896,"Ġ2009":10897,"Ġrivers":10898,"Ġattended":10899,"Ġtortilla":10900,"Ġstrive":10901,"Ġtexts":10902,"Ġleftover":10903,"Ġsuffered":10904,"ĠGall":10905,"ĠAds":10906,"ĠControl":10907,"Ġappet":10908,"Ġpossibly":10909,"Ġdigits":10910,"Ġsilk":10911,"Ġvocabulary":10912,"Ġoverhead":10913,"Ġfrustration":10914,"Ġnurt":10915,"iento":10916,"Ġkinds":10917,"apers":10918,"Ġcooker":10919,"bu":10920,"Ġneural":10921,"Ġremembered":10922,"Ġnodes":10923,"Ġroy":10924,"Ġlots":10925,"Ġresume":10926,"Ġforming":10927,"Ġcalculated":10928,"ĠGreece":10929,"Ġtranslate":10930,"Ġcord":10931,"ĠAge":10932,"ĠMid":10933,"Ġservers":10934,"Ġinsecurity":10935,"Ġslide":10936,"ĠJESSICA":10937,"avering":10938,"uct":10939,"ĠBeaut":10940,"Ġclaimed":10941,"Ġfeas":10942,"ĠWebsite":10943,"Ġsymbolic":10944,"Ġchop":10945,"Ġshine":10946,"Ġspeaks":10947,"Ġcherish":10948,"Ġentrance":10949,"Ġtemporary":10950,"imer":10951,"ige":10952,"ĠHard":10953,"Ġnour":10954,"Ġpodcasts":10955,"().":10956,"Ġsturdy":10957,"Data":10958,"Ġworlds":10959,"Ġbow":10960,"Ġtherapeut":10961,"Ġaccidentally":10962,"ctuation":10963,"Ġsesame":10964,"Ð¾Ð·":10965,"Ġartis":10966,"Ġsatell":10967,"Ġmotifs":10968,"asses":10969,"Ġsuccesses":10970,"ani":10971,"ĠArctic":10972,"dered":10973,"Ġchef":10974,"ĠLin":10975,"Ġromance":10976,"rier":10977,"Ġticket":10978,"ĠGen":10979,"cut":10980,"hire":10981,"Ġboiling":10982,"Ġposture":10983,"themed":10984,"owns":10985,"Ġtreats":10986,"vity":10987,"Ġpubl":10988,"ĠÐ¿ÑĢÐ¸":10989,"Ġrecipient":10990,"Ġserene":10991,"Ġunauthorized":10992,"Ġpairing":10993,"Ġchip":10994,"Ġmango":10995,"Ġdesires":10996,"Ġdepic":10997,"Ġattracting":10998,"ĠKorea":10999,"Ġreads":11000,"Ġscenario":11001,"Ġfirms":11002,"luding":11003,"Ġsentences":11004,"Ġcashew":11005,"Ġsmoky":11006,"Ġware":11007,"ĠTransfer":11008,"Ġreleases":11009,"ĠModern":11010,"Ġaffiliate":11011,"Ġgalaxies":11012,"BI":11013,"icit":11014,"ãĢģ":11015,"ĠHosp":11016,"olute":11017,"ĠMachine":11018,"Ġmelt":11019,"ĠLocated":11020,"anned":11021,"ĠTransportation":11022,"ĠCy":11023,"à¸µ":11024,"Ġjumping":11025,"Ġfluffy":11026,"inson":11027,"Ġbreadc":11028,"Ġ,":11029,"Ġtransported":11030,"Ġcaptivating":11031,"plicity":11032,"Ġsolving":11033,"Ġrevolutionized":11034,"Ġasset":11035,"ĠExecut":11036,"Ġclarify":11037,"ĠCongress":11038,"ĠAdobe":11039,"Ġvinaigrette":11040,"luded":11041,"Ġloves":11042,"']":11043,"Ġsmallest":11044,"De":11045,"Ġestimate":11046,"ĠGovernments":11047,"connected":11048,"Ġspeeds":11049,"Ġstayed":11050,"main":11051,"Ġtreated":11052,"Ġtackle":11053,"Ġadaptation":11054,"Ġframeworks":11055,"Ġvector":11056,"ĠSecondly":11057,"rise":11058,"ĠScot":11059,"Ġcautious":11060,"Ġbak":11061,"Ġviewing":11062,"Ġofficers":11063,"Ġneighborhoods":11064,"Ġhurric":11065,"Ġinstinct":11066,"Ġscored":11067,"Ġwhom":11068,"boarding":11069,"Ġunwavering":11070,"igma":11071,"phins":11072,"Ġbrill":11073,"ĠCommission":11074,"ĠQuality":11075,"Ġhiding":11076,"Ġ300":11077,"breaking":11078,"ĠVirgin":11079,"Ġtherapies":11080,"Ġappointment":11081,"ĠLas":11082,"Ġelection":11083,"ĠSci":11084,"Ġinstalling":11085,"Ġvulnerabilities":11086,"Ġfiltering":11087,"iser":11088,"Ġje":11089,"ĠLimited":11090,"iere":11091,"Ġinhabit":11092,"ivities":11093,"ĠInteractive":11094,"mond":11095,"ĠSafety":11096,"Ġprize":11097,"Ġchir":11098,"Ġtastes":11099,"ĠPositive":11100,"iander":11101,"include":11102,"Ġseriously":11103,"fe":11104,"LA":11105,"ĠTrue":11106,"Ġbuff":11107,"ĠTay":11108,"Ġunt":11109,"ĠZeal":11110,"ĠLucy":11111,"Ġteenagers":11112,"Ġsourced":11113,"Ġhiring":11114,"ĠPC":11115,"Ġbirthday":11116,"Ġscheduled":11117,"pering":11118,"Ġ32":11119,"ĠWorks":11120,"Ġanch":11121,"aki":11122,"ĠDeep":11123,"Ġturmeric":11124,"ĠRichard":11125,"UC":11126,"ĠRE":11127,"Ġbreakthrough":11128,"ĠEstablish":11129,"Ġaligned":11130,"oston":11131,"adequ":11132,"racy":11133,"ĠGraph":11134,"Ġyield":11135,"Ġsheets":11136,"inst":11137,"Ġcandy":11138,"ĠDub":11139,"Ġhydrogen":11140,"Ġtear":11141,"ucks":11142,"Ġtemples":11143,"Ġnorms":11144,"Ġtrains":11145,"ĠRegularly":11146,"Ġdollars":11147,"RA":11148,"));":11149,"Ġtraps":11150,"Ġpoets":11151,"Ġrealm":11152,"ĠIsrael":11153,"Ġparallel":11154,"ĠCool":11155,"Ġalter":11156,"ĠKn":11157,"Ġcounts":11158,"Ġgalleries":11159,"ĠMeasure":11160,"Ġ31":11161,"Ġrecruit":11162,"ĠZealand":11163,"Ġfunny":11164,"Ġcollecting":11165,"Ġrolled":11166,"UN":11167,"ĠTen":11168,"ĠUtilize":11169,"Ġlocate":11170,"Ġperformers":11171,"Ġrankings":11172,"Ġtrim":11173,"ribute":11174,"Ġbalancing":11175,"Ġmultimedia":11176,"ĠSound":11177,"ĠConvers":11178,"Ġrenewed":11179,"Ġsupplement":11180,"Ġgolf":11181,"Ġexists":11182,"Ġqualifications":11183,"Ġconstraints":11184,"ĠSi":11185,"ects":11186,"ugs":11187,"%,":11188,"uminum":11189,"ĠTele":11190,"ĠJewish":11191,"oops":11192,"Ġcolonial":11193,"Or":11194,"vance":11195,"Ġscram":11196,"Ġdiscomfort":11197,"minded":11198,"ĠSouthern":11199,"lar":11200,"ĠVin":11201,"Ġorigins":11202,"ĠValue":11203,"oons":11204,"rely":11205,"Ġpassions":11206,"Ġgenuine":11207,"rat":11208,"ĠSeries":11209,"onnect":11210,"Ġnewly":11211,"Ġexecuted":11212,"Ġcriticism":11213,"child":11214,"Ġfinely":11215,"aping":11216,"Ġtransaction":11217,"Ð¾Ðº":11218,"Ġportal":11219,"Ġmassage":11220,"Ġhills":11221,"abs":11222,"Ġ375":11223,"ĠImport":11224,"Ġcitrus":11225,"âĢĵ":11226,"ĠArmy":11227,"Ġordinary":11228,"BM":11229,"Ġfreel":11230,"Ð´Ðµ":11231,"Ġgallery":11232,"ĠHenry":11233,"Ġlob":11234,"ultane":11235,"Ġinstability":11236,"Ġeconomies":11237,"amm":11238,"acam":11239,"Ġrespected":11240,"Ġgrade":11241,"Ġboxes":11242,"Ġalleviate":11243,"Ġtar":11244,"Ġdifferently":11245,"Ġcelebrations":11246,"bel":11247,"Ġclay":11248,"Ġfailures":11249,"Ġglasses":11250,"ĠÑĩÑĤÐ¾":11251,"Ġfreeze":11252,"Ġhundreds":11253,"ĠWH":11254,"Ġworkspace":11255,"Ġblueberries":11256,"==":11257,"itical":11258,"Ġgem":11259,"oto":11260,"ĠIndigenous":11261,"Ġeggplant":11262,"ĠCultural":11263,"Ġtones":11264,"Ġforums":11265,"ĠBBQ":11266,"etary":11267,"Ġoneself":11268,"Ģâ":11269,"Ġinh":11270,"Ġdrought":11271,"ymes":11272,"Ġtoile":11273,"ĠCreative":11274,"ĠBell":11275,"Ġtriangle":11276,"Ð¼Ð°":11277,"Ġjournaling":11278,"deg":11279,"City":11280,"Ġemer":11281,"Ġcolored":11282,"Ġcrackers":11283,"Ġhues":11284,"Ġmemoir":11285,"bec":11286,"Ġsword":11287,"ĠAgency":11288,"Ġpartnering":11289,"Ġgrows":11290,"Ġsilent":11291,"Ġruins":11292,"oys":11293,"Ġstretches":11294,"acamole":11295,"ĠReturn":11296,"Ġtextiles":11297,"ĠToss":11298,"ĠHighlight":11299,"Ġconserve":11300,"à¸§":11301,"Ġblends":11302,"ferencing":11303,"ĠMars":11304,"ĠThree":11305,"ĠRam":11306,"ĠSus":11307,"autions":11308,"speed":11309,"ĠBudget":11310,"kind":11311,"icas":11312,"Ġinstances":11313,"Ġpurple":11314,"ĠSir":11315,"what":11316,"Ġhashtag":11317,"ĠMaintain":11318,"ĠLibrary":11319,"igan":11320,"Ġqualified":11321,"ĠFunction":11322,"Ġpeeled":11323,"ologists":11324,"Ġspecializes":11325,"ĠCRM":11326,"rous":11327,"Ġportable":11328,"Ġacknowledge":11329,"ressing":11330,"Ġmodeling":11331,"tw":11332,"nda":11333,"ĠCH":11334,"ĠCivil":11335,"Ġchampions":11336,"Index":11337,"Ġlogic":11338,"Ġinterpretation":11339,"Ġroyal":11340,"Ġsubstantial":11341,"Ġburgers":11342,"Ġblogs":11343,"rogen":11344,"Ġsticking":11345,"ÑģÐ¿":11346,"ptical":11347,"eps":11348,"ibonacci":11349,"Ð¾ÑĤ":11350,"Ġpresentations":11351,"Ġoccasions":11352,"âĢĿ.":11353,"annel":11354,"Ġbehavioral":11355,"Ġdataset":11356,"ĠGPS":11357,"Ġcayenne":11358,"Ġclicks":11359,"Ġwalnuts":11360,"For":11361,"ĠCentre":11362,"Ġreinfor":11363,"Ġtoken":11364,"Ġcontam":11365,"ĠChat":11366,"Ġimpactful":11367,"Ġaccidents":11368,"Ġlarg":11369,"Ġexotic":11370,"Ġprincip":11371,"Ġscoop":11372,"Ġneur":11373,"ĠiPhone":11374,"Ġthrilled":11375,"67":11376,"Ġcues":11377,"Ġintroducing":11378,"Ġ||":11379,"Ġawarded":11380,"Ġconfidential":11381,"Ġadvocate":11382,"ĠDie":11383,"Ġgameplay":11384,"process":11385,"Ġsuited":11386,"ĠCheese":11387,"ĠAdvertising":11388,"Ã£":11389,"ĠMen":11390,"Ġimpl":11391,"Ġmeters":11392,"nings":11393,"iger":11394,"venue":11395,"Ġlively":11396,"Ġseats":11397,"Ġinstallations":11398,"Ġshelves":11399,"discipl":11400,"Ġexplains":11401,"Ġexhibition":11402,"Ġcentered":11403,"ARA":11404,"ĠBreakfast":11405,"ici":11406,"Ġcontents":11407,"Ġinterrupt":11408,"Ġautomatic":11409,"Ġreturning":11410,"Ġsuspect":11411,"Ġtoy":11412,"ĠMom":11413,"ĠFact":11414,"she":11415,"sort":11416,"ĠPoint":11417,"Ġuncon":11418,"Ġveterans":11419,"Ġvarieties":11420,"Ġpublishing":11421,"Ġgru":11422,"ĠGolden":11423,"ĠWalk":11424,"Ġgaps":11425,"Ġstated":11426,"Ġcrunchy":11427,"ĠThink":11428,"elfare":11429,"ĠDefinitely":11430,"Ġparameter":11431,"oen":11432,"Ġirrit":11433,"Ġtwe":11434,"rog":11435,"Ġlou":11436,"Ġlying":11437,"Ġlasagna":11438,"Ġconfigure":11439,"Ġnightm":11440,"Ġflick":11441,"ĠTechnical":11442,"impse":11443,"onnaise":11444,"test":11445,"aret":11446,"ĠNumber":11447,"Ġposted":11448,"Array":11449,"Ġmainly":11450,"ÑĢÑĭ":11451,"ĠAmelia":11452,"itarian":11453,"Ġbuses":11454,"Ġbrighter":11455,"Ġsimultane":11456,"ICE":11457,"Ġhospitals":11458,"Ġpolar":11459,"ĠEventually":11460,"Ġsprouts":11461,"Ġreputable":11462,"wing":11463,"ĠSave":11464,"ĠHa":11465,"Ġfreezer":11466,"check":11467,"ĠBowl":11468,"Ġindeed":11469,"Ġangles":11470,"inery":11471,"oses":11472,"Ġposter":11473,"oul":11474,"ometer":11475,"ĠReduced":11476,"ĠEM":11477,"Ġhighlighted":11478,"Ġrespectively":11479,"Ġrecall":11480,"ĠCourt":11481,"adium":11482,"ĠBoston":11483,"Ġglimpse":11484,"Ġsouth":11485,"Ġlave":11486,"Ġexhibitions":11487,"Ġintegr":11488,"een":11489,"Ġnutty":11490,"Ġmarvel":11491,"Ġstove":11492,"arer":11493,"Ġwinner":11494,"Ġdisconnect":11495,"screen":11496,"PU":11497,"esar":11498,"esity":11499,"ĠDown":11500,"ĠCanadian":11501,"Ġwarrant":11502,"Ġdisplacement":11503,"ĠCharles":11504,"Ġgraphs":11505,"Ġvalidate":11506,"PE":11507,"Ġties":11508,"Ġboots":11509,"ĠApplic":11510,"ĠCalculate":11511,"Ġemerge":11512,"idst":11513,"Ñĳ":11514,"Ġbass":11515,"Ġnine":11516,"Ġconstructed":11517,"Ġsits":11518,"Ġimaging":11519,"Ġpersonally":11520,"Ġpleasure":11521,"Ġjudge":11522,"Ġnorth":11523,"Ġlavender":11524,"Ġtied":11525,"Ġlie":11526,"ĠEs":11527,"Ġheadphones":11528,"ĠCoast":11529,"Ġadrenal":11530,"Ġmodules":11531,"rust":11532,"ĠJones":11533,"Ġcorrel":11534,"Ġsway":11535,"ĠRinse":11536,"Ġstays":11537,"osition":11538,"Ġsimplicity":11539,"pa":11540,"Ġrenov":11541,"ĠConsole":11542,"ĠTurkey":11543,"Ġhobby":11544,"ĠProfessional":11545,"card":11546,"Ġjam":11547,"Ġaccessing":11548,"Ġovercame":11549,"ĠPrograms":11550,"Ġblanket":11551,"idays":11552,"ĠMountain":11553,"Ad":11554,"erry":11555,"url":11556,"Ġclosure":11557,"Ġwelcoming":11558,"Ġlens":11559,"By":11560,"Ġcure":11561,"Ġdin":11562,"ĠMaking":11563,"Ġintelligent":11564,"Ġrelying":11565,"igs":11566,"Ġuniform":11567,"secut":11568,"ĠEgyptian":11569,"Ġhygiene":11570,"ped":11571,"instruction":11572,"ĠMill":11573,"ĠWarm":11574,"Ġemphasized":11575,"Ġcomposed":11576,"Ġunity":11577,"Ġgroom":11578,"iki":11579,"wind":11580,"urities":11581,"ĠAssess":11582,"Ġtriggers":11583,"Ġtherapeutic":11584,"ĠCorn":11585,"Ġmeta":11586,"ĠSlowly":11587,"iat":11588,"Ġoutstanding":11589,"ÐµÐ½Ð¸Ñı":11590,"Of":11591,"Ġcharm":11592,"ĠCollect":11593,"ho":11594,"Ġsuggesting":11595,"chools":11596,"Ġpicnic":11597,"Ġregister":11598,"ĠStrategies":11599,"ĠChallenge":11600,"ĠFold":11601,"Ġemit":11602,"stein":11603,"Al":11604,"LS":11605,"Ġdancers":11606,"ĠMath":11607,"ifier":11608,"Ġplag":11609,"Ġnecklace":11610,"mart":11611,"Ġclicking":11612,"izational":11613,"ĠDream":11614,"ĠThird":11615,"Ġattraction":11616,"Ġmusician":11617,"ĠDij":11618,"Ġ\";":11619,"Ġdear":11620,"ĠLy":11621,"oster":11622,"Ġmeasured":11623,"ĠPrem":11624,"Ġviolent":11625,"ĠDirector":11626,"Ġfills":11627,"Instruction":11628,"Ġdefeated":11629,"Ġdistingu":11630,"ĠNeg":11631,"Ġcrash":11632,"Ġcush":11633,"Ġdetermining":11634,"umni":11635,"Ġdiagnosis":11636,"Ġmere":11637,"ĠOtt":11638,"Ġcollective":11639,"Ġtimer":11640,"ĠFill":11641,"ĠNIGHT":11642,"ĠExpress":11643,"Ġembracing":11644,"Ġpositivity":11645,"Ġmagazine":11646,"Ġdiscusses":11647,"Ġasparagus":11648,"ocked":11649,"Be":11650,"App":11651,"Ġdental":11652,"Ġshining":11653,"ĠNorthern":11654,"commun":11655,"ĠTal":11656,"bean":11657,"Ġcheddar":11658,"igious":11659,"Ġinclusive":11660,"watch":11661,"Ġbic":11662,"Ġ},":11663,"ran":11664,"Ġmethodology":11665,"Ġheader":11666,"orse":11667,"Ġevident":11668,"Ġlightning":11669,"ĠAuthor":11670,"Ġwoke":11671,"ario":11672,"Ġstraightforward":11673,"roat":11674,"ĠBattle":11675,"Ġspecifications":11676,"Ġdatabases":11677,"nered":11678,"Ġintention":11679,"ĠAgricult":11680,"ĠMove":11681,"EST":11682,"Ġpsychology":11683,"ĠModel":11684,"Ġcatchy":11685,"Ġentrepreneurship":11686,"fat":11687,"Ġspic":11688,"Ġscales":11689,"Ġsalty":11690,"Ġannually":11691,"ĠEssay":11692,"Ġroasting":11693,"ĠRuby":11694,"Ġsmiled":11695,"Ġconversational":11696,"ĠStudy":11697,"Ġflooding":11698,"Ġcoriander":11699,"ĠPlatform":11700,"ĠTaylor":11701,"Ġtoxic":11702,"ĠJob":11703,"Ġscrap":11704,"ventional":11705,"44":11706,"Ġusual":11707,"ivated":11708,"ĠImplementing":11709,"Ġambiance":11710,"Ġbrut":11711,"Ġadapting":11712,"ĠMess":11713,"Ġjuicy":11714,"Ġadvocacy":11715,"New":11716,"resent":11717,"Id":11718,"ĠSports":11719,"Ġwebinars":11720,"Ġcorners":11721,"ĠDoes":11722,"Ġscav":11723,"ĠGeorg":11724,"economic":11725,"ĠWould":11726,"Ġadvances":11727,"Ġsupposed":11728,"Ġsufficient":11729,"ĠOrganization":11730,"ĠKingdom":11731,"Ġaccompanied":11732,"Text":11733,"ilation":11734,"Ġestablishment":11735,"ga":11736,"Ġpier":11737,"Ġtoler":11738,"Ġstitch":11739,"Ġcollaborating":11740,"Ġeru":11741,"Ġrevealing":11742,"ĠNAS":11743,"Ġfeathers":11744,"shaped":11745,"rences":11746,"Ġcompatibility":11747,"find":11748,"Ġmaintained":11749,"Ġopposite":11750,"())":11751,"Ġcalligraphy":11752,"Ġrepresentatives":11753,"Ġfostering":11754,"rumbs":11755,"Ġspacecraft":11756,"Ġmanageable":11757,"Ġcredentials":11758,"Ġencounters":11759,"ĠSE":11760,"havioral":11761,"ĠGothic":11762,"Ġflames":11763,"Ġgray":11764,"Ġmoral":11765,"Ġrebuild":11766,"Ġtournament":11767,"Ġsurreal":11768,"Pal":11769,"Ġmayonnaise":11770,"elesc":11771,"Ġsout":11772,"Ġautumn":11773,"Ġreliance":11774,"27":11775,"ouch":11776,"Ġlowercase":11777,"ĠWatch":11778,"Ġfatigue":11779,"born":11780,"Ġstranger":11781,"Ġvaries":11782,"points":11783,"Ġvacuum":11784,"Ġbutterfly":11785,"Ġkiss":11786,"ĠRoast":11787,"corn":11788,"ĠGal":11789,"neys":11790,"Ġgut":11791,"Ġarchitects":11792,"flowers":11793,"Ġstimulate":11794,"Ġrecharge":11795,"ffe":11796,"Ġdeter":11797,"ĠProtein":11798,"ĠPrime":11799,"iratory":11800,"Ġaging":11801,"ĠPanel":11802,"Ġnostalg":11803,"Ġti":11804,"Ġdism":11805,"ĠPub":11806,"ĠChalleng":11807,"Ġfallen":11808,"Ġathletic":11809,"ician":11810,"FA":11811,"Ġquantity":11812,"ĠPoetry":11813,"understand":11814,"Ġvertical":11815,"ju":11816,"ĠRa":11817,"Ġintros":11818,"Ġscalability":11819,"Ġconj":11820,"idery":11821,"Ġlifted":11822,"Ġdances":11823,"Ġreflective":11824,"ĠSeek":11825,"Ġduty":11826,"OP":11827,"ietnam":11828,"Ġsmoking":11829,"Ġpupp":11830,"Ġcafes":11831,"ĠMong":11832,"ĠCompet":11833,"Ġcomparing":11834,"ĠFuture":11835,"Ġpant":11836,"Ġjars":11837,"FL":11838,"Ð²Ð¸":11839,"Ġpredictive":11840,"Ġrides":11841,"Ġsubt":11842,"Ġdevastating":11843,"Ġpesto":11844,"Ġadoles":11845,"Ġcoral":11846,"ycling":11847,"Ġuncovered":11848,"Ġconvinced":11849,"ĠStone":11850,"Ġnonprofit":11851,"Ġtoes":11852,"Ġchallenged":11853,"Ġcontexts":11854,"Ġauthenticity":11855,"Ġairport":11856,"ynt":11857,"ogen":11858,"Ġpron":11859,"Ġrestoration":11860,"ppercase":11861,"Ġlaid":11862,"acerb":11863,"php":11864,"Ġhydrated":11865,"Ġdecay":11866,"Ġaftermath":11867,"Ġautomotive":11868,"ĠAction":11869,"ĠSmooth":11870,"oting":11871,"Ġassum":11872,"Ġmidst":11873,"Ġ1990":11874,"itas":11875,"ç»":11876,"Ġrecept":11877,"ciÃ³n":11878,"ĠImag":11879,"Ġofficer":11880,"Ġgrit":11881,"ĠOrig":11882,"ĠSpecifically":11883,"Ġtemp":11884,"Ġretailer":11885,"Ġinstitution":11886,"ĠFeedback":11887,"Ġphones":11888,"roduct":11889,"Ġwonders":11890,"Ġbrainstorm":11891,"Ġbedroom":11892,"Ġteaches":11893,"apore":11894,"Ġpressing":11895,"Ġwound":11896,"Ġportra":11897,"Ġdol":11898,"ĠTotal":11899,"Ġgang":11900,"irations":11901,"athon":11902,"No":11903,"ĠAssistant":11904,"Ġsuperior":11905,"Ġfles":11906,"vard":11907,"ĠIre":11908,"Ġspaghetti":11909,"Ġstrengthe":11910,"Em":11911,"ĠEgg":11912,"Ġpublications":11913,"Ġembro":11914,"Ġhire":11915,"Ġchemistry":11916,"Ġchunks":11917,"Ġposting":11918,"SQL":11919,"oque":11920,"Input":11921,"ĠLucas":11922,"Ġtum":11923,"lammatory":11924,"Ġbathroom":11925,"ugging":11926,"aya":11927,"Ġpregn":11928,"Ġlargely":11929,"Ġorganisms":11930,"Ġmarriage":11931,"ĠSchedule":11932,"Ġ\")":11933,"Ġbanking":11934,"Ġexacerb":11935,"csv":11936,"urous":11937,"ĠAvocado":11938,"ĠAst":11939,"Ġrelevance":11940,"Ġrobot":11941,"Ġenforcement":11942,"ĠCoconut":11943,"Ġfif":11944,"Ġdonors":11945,"ä»¥":11946,"itz":11947,"ivo":11948,"rible":11949,"olen":11950,"Ġshirt":11951,"ĠPalace":11952,"akespe":11953,"ĠImprove":11954,"olism":11955,"Ġweights":11956,"Ġcrushed":11957,"Ġreferred":11958,"ĠCit":11959,"Ġplaylist":11960,"Ġcran":11961,"Ġtherm":11962,"matic":11963,"ĠTimes":11964,"Ġlaptop":11965,"SA":11966,"aven":11967,"example":11968,"ĠDrain":11969,"ĠScan":11970,"ĠGratitude":11971,"Ġinfections":11972,"ouses":11973,"rost":11974,"Ġprest":11975,"weetened":11976,"Ġopposition":11977,"ĠMichel":11978,"ĠiOS":11979,"Ġoperators":11980,"Ġtense":11981,"Ġsuspicious":11982,"Ġconfir":11983,"Ġlinear":11984,"ÑĩÐ°":11985,"Ġkeyboard":11986,"Ġzones":11987,"ocracy":11988,"ptions":11989,"ÑģÐ¸":11990,"ĠÐ¿ÑĢÐ¾":11991,"Ġsettle":11992,"eland":11993,"akespeare":11994,"Ġwelfare":11995,"Ġbin":11996,"ĠMeas":11997,"Ġvictorious":11998,"ĠScottish":11999,"='":12000,"acc":12001,"olds":12002,"aways":12003,"ouraging":12004,"Ġdarker":12005,"Ġempire":12006,"paper":12007,"Ġbullet":12008,"ĠEngineering":12009,"Ġrhythms":12010,"Ġawesome":12011,"ean":12012,"love":12013,"asant":12014,"ĠCirc":12015,"Ġdomestic":12016,"Ġthriving":12017,"Ġinquiries":12018,"Ġ;":12019,"Ġhint":12020,"ĠOnly":12021,"ĠJam":12022,"Ġanymore":12023,"Ġbreadcrumbs":12024,"ĠSwed":12025,"Ġscalable":12026,"Ġbrowse":12027,"Ġsecondary":12028,"Ġscrews":12029,"Ġdies":12030,"Ġlimiting":12031,"Ġshimmer":12032,"ĠJO":12033,"ati":12034,"open":12035,"Ġobservations":12036,"ĠCorporation":12037,"ĠReach":12038,"Ġnotification":12039,"Value":12040,"68":12041,"odge":12042,"Ġappointments":12043,"ĠNever":12044,"Ġcategor":12045,"Ġfade":12046,"Ġcompact":12047,"Ġcredits":12048,"ĠDar":12049,"cium":12050,"Ġmathematical":12051,"Ġimpair":12052,"ĠVietnam":12053,"Ġflows":12054,"Ġchose":12055,"ÑģÑĤÑĮ":12056,"item":12057,"ĠHistor":12058,"factor":12059,"Path":12060,"orses":12061,"Ġmad":12062,"Ġmund":12063,"Ġaggressive":12064,"los":12065,"Ġinject":12066,"Ġarrays":12067,"Ġcucumbers":12068,"stop":12069,"Ġmarketplace":12070,"Ġbamboo":12071,"Ġsink":12072,"Ġperfection":12073,"inflammatory":12074,"Ġadorn":12075,"Ġcommands":12076,"ensed":12077,"Ġinterf":12078,"Ġmentors":12079,"Ġconcerts":12080,"Ġdiscipline":12081,"ilitation":12082,"Ġphysi":12083,"Ġ1960":12084,"Ġtruck":12085,"Ġsleeping":12086,"Ġinjured":12087,"Ġschemes":12088,"Ġanticipation":12089,"Ġexterior":12090,"Ġsocio":12091,"Ġoutlook":12092,"Ġdiagrams":12093,"estock":12094,"Ġinvite":12095,"ĠDrive":12096,"ĠWelcome":12097,"eller":12098,"ĠMedicine":12099,"Ġot":12100,"ordan":12101,"Ġdepths":12102,"Ġrings":12103,"Ġperse":12104,"Ġinadequ":12105,"Ġfactorial":12106,"flix":12107,"Ã£o":12108,"ĠStudent":12109,"ĠRestaur":12110,"Ġej":12111,"Ġassistants":12112,"Ġho":12113,"omes":12114,"ĠTyler":12115,"Ġyarn":12116,"ĠStrategy":12117,"Ġtale":12118,"ĠQuick":12119,"allic":12120,"Ġsacred":12121,"ĠPerhaps":12122,"Ġconverted":12123,"ĠUI":12124,"Ġshelf":12125,"ãĤ":12126,"Ġdeleg":12127,"ĠMS":12128,"ologist":12129,"Ġfeeding":12130,"Ġassociation":12131,"Ġoriginated":12132,"ĠDepending":12133,"Ġbananas":12134,"Ġstroke":12135,"ĠStress":12136,"Ġlifes":12137,"ĠTree":12138,"Ġkil":12139,"ussels":12140,"Ġsolely":12141,"Ġbrowsing":12142,"ĠTrello":12143,"Ġcraw":12144,"Ġvendor":12145,"Press":12146,"agen":12147,"Ġliking":12148,"ĠEve":12149,"avas":12150,"ĠConsist":12151,"ĠTesting":12152,"ĠSincerely":12153,"alog":12154,"Ġdebate":12155,"Ġsimultaneously":12156,"Ġfaint":12157,"Ġriding":12158,"Ġodds":12159,"Ġsimulation":12160,"Ġrecognizing":12161,"ĠOrder":12162,"Ġdemonstrates":12163,"Ġtrap":12164,"Ġsimulate":12165,"Ġcivilizations":12166,"ĠDead":12167,"Ġtransf":12168,"amente":12169,"Ġtheories":12170,"pection":12171,"ĠBh":12172,"Ġcarbohydrates":12173,"Ġinvited":12174,"Ġbulk":12175,"Ġacquire":12176,"parent":12177,"Ġinser":12178,"Ġtraged":12179,"Ġblade":12180,"Ġrequiring":12181,"Ġreasonable":12182,"ĠOlympics":12183,"healthy":12184,"Ġequally":12185,"door":12186,"Ġverify":12187,"Ġshifted":12188,"ĠAudience":12189,"Ġoat":12190,"apos":12191,"Ġprofits":12192,"ĠBeat":12193,"Ġsearched":12194,"Ġinterpre":12195,"Ġsetup":12196,"Ġeverywhere":12197,"ĠDescribe":12198,"Ġcountryside":12199,"Ġrevolutionize":12200,"ĠPTSD":12201,"Ġaluminum":12202,"Ġexception":12203,"ĠMinister":12204,"ĠSubst":12205,"Ġunconventional":12206,"icul":12207,"balls":12208,"Ġchur":12209,"ĠFun":12210,"Ġamazed":12211,"Ġbrewing":12212,"Ġsug":12213,"Ġadventurous":12214,"è®":12215,"Ġsam":12216,"ĠTable":12217,"Ġmonster":12218,"Ġspecialize":12219,"ĠListen":12220,"hedral":12221,"Ġplanets":12222,"Ġspells":12223,"Ġhits":12224,"Ġwithd":12225,"Ġlovers":12226,"Ġscholarship":12227,"Ġtub":12228,"Ġflag":12229,"Ġbiology":12230,"Ġrebels":12231,"ĠFac":12232,"aky":12233,"Ġrebell":12234,"Ġmu":12235,"ĠHarry":12236,"Ġdesktop":12237,"Ġrepresentative":12238,"Ġmelting":12239,"Ġlearns":12240,"Ġplugin":12241,"utical":12242,"Ġresid":12243,"Ġgluc":12244,"Ġsoups":12245,"Ġathlete":12246,"ĠPoems":12247,"iblings":12248,"Ġthunder":12249,"Ġconnects":12250,"ĠDijon":12251,"Ġbatch":12252,"chron":12253,"ĠAim":12254,"Ð½ÑĭÑħ":12255,"Ġfinances":12256,"Ġfloating":12257,"ĠPy":12258,"Ġinterconnected":12259,"Ġthermal":12260,"felt":12261,"##":12262,"Ġproceed":12263,"Ġmerc":12264,"Ġsucc":12265,"Ġoperates":12266,"Ġdecorated":12267,"Ġmushroom":12268,"Ġoriginally":12269,"rants":12270,"abled":12271,"this":12272,"Ġapi":12273,"Ġpref":12274,"Ġquir":12275,"ĠStan":12276,"ĠCoffee":12277,"Ġseniors":12278,"Ġbuilds":12279,"ĠReplace":12280,"Ġarrive":12281,"Ġmerge":12282,"All":12283,"omic":12284,"ĠTes":12285,"Ġsobre":12286,"Ġpunctuation":12287,"itt":12288,"Ġrigor":12289,"Ġseverity":12290,"Ġscientist":12291,"ĠÐ¼Ð¾Ð¶":12292,"imensional":12293,"Ġadrenaline":12294,"falls":12295,"versed":12296,"Ġpounds":12297,"ĠEngagement":12298,"Ġdece":12299,"ĠHoney":12300,"Ġdemons":12301,"Ġcrafted":12302,"output":12303,"Ġweaving":12304,"Ġbubble":12305,"ĠEthan":12306,"Bl":12307,"Ġfiref":12308,"ĠAdvanced":12309,"Ġobesity":12310,"ĠSpot":12311,"Ġsuffer":12312,"NS":12313,"Ġprofic":12314,"Ġobtained":12315,"ĠChallenges":12316,"Ġrepetition":12317,"electric":12318,"Ġbrilliant":12319,"chi":12320,"heric":12321,"Ġbloggers":12322,"ĠSingapore":12323,"Ġtune":12324,"Ġtransformative":12325,"ĠÐ±Ñĭ":12326,"ĠCollaboration":12327,"Ġdiction":12328,"vention":12329,"ĠShakespeare":12330,"Ġflesh":12331,"Ġgrades":12332,"Ġmetric":12333,"34":12334,"ĠCub":12335,"ĠSciences":12336,"ĠIreland":12337,"ĠDays":12338,"ĠÐºÐ¾":12339,"Ġcandle":12340,"Ġinhib":12341,"ĠTown":12342,"ĠYet":12343,"tains":12344,"Ġexcellence":12345,"flower":12346,"Ġcounsel":12347,"Cut":12348,"ĠAP":12349,"Ġdaunting":12350,"Ġflights":12351,"Ġrefugees":12352,"aciones":12353,"ĠBible":12354,"Ġpoetic":12355,"Ġlanded":12356,"rons":12357,"ĠSchools":12358,"mente":12359,"ĠPur":12360,"Ġexplos":12361,"azing":12362,"ĠQuinoa":12363,"Ġmapping":12364,"Ġorganizational":12365,"ji":12366,"Ġhosted":12367,"irty":12368,"aceutical":12369,"Ġstabil":12370,"ĠHan":12371,"Ġapproved":12372,"Ġpatch":12373,"ĠSomething":12374,"Ġsorcerer":12375,"starch":12376,"Ġorchest":12377,"Ġcoup":12378,"content":12379,"ĠBreat":12380,"Ġworries":12381,"ĠMatt":12382,"Ġnoted":12383,"Ġdeveloper":12384,"Ġmarried":12385,"Ġmeasurement":12386,"ĠBrush":12387,"Ġblended":12388,"ĠInside":12389,"Ġburger":12390,"ĠÐºÐ°Ðº":12391,"ĠCurrent":12392,"qr":12393,"eared":12394,"Ġ/*":12395,"Ġlucky":12396,"ĠChris":12397,"Ġraced":12398,"Ġpasses":12399,"ipes":12400,"Ġpilot":12401,"Ġbiological":12402,"ĠSubject":12403,"How":12404,"Ġglaze":12405,"Ġdefining":12406,"Ġansw":12407,"isure":12408,"ĠPast":12409,"Ġtrick":12410,"ĠAndrew":12411,"Ġtimeless":12412,"Ġhunger":12413,"Ġreferrals":12414,"current":12415,"img":12416,"Ġguarantee":12417,"ĠCommit":12418,"Ġdescribing":12419,"Ġfarms":12420,"Ġupg":12421,"rowth":12422,"ĠChampions":12423,"Ġowned":12424,"ĠLower":12425,"ĠDaniel":12426,"UM":12427,"Ġknee":12428,"Ġsubstitutions":12429,"isers":12430,"Ġsensor":12431,"saving":12432,"ĥ½":12433,"Ġteachings":12434,"pay":12435,"ĠAbout":12436,"var":12437,"inth":12438,"Ġvs":12439,"Ġenorm":12440,"allow":12441,"Ġmembership":12442,"Ġfrustrated":12443,"ĠAdminist":12444,"Ġfatty":12445,"Ġscrub":12446,"Ġ&&":12447,"Ġthrill":12448,"ĠSquare":12449,"Ġconventional":12450,"Ġnutmeg":12451,"Ġheap":12452,"amine":12453,"format":12454,"Ġrespiratory":12455,"Ġmeanings":12456,"Ġresidential":12457,"ĠMarg":12458,"ĠSteve":12459,"ĠRelations":12460,"gic":12461,"Ġfactory":12462,"ĠSoup":12463,"oenix":12464,"29":12465,"Ġwise":12466,"alted":12467,"ĠIndividuals":12468,"ĠIntellig":12469,"achers":12470,"Ġpublication":12471,"Ġparticipated":12472,"Ġmitigating":12473,"dings":12474,"ĠResources":12475,"forming":12476,"Ġangry":12477,"ĠWear":12478,"riors":12479,"Ġillum":12480,"Ġrugged":12481,"rypt":12482,"Ġrecre":12483,"Ġfairy":12484,"Ġsist":12485,"Ġtheft":12486,"Ġrobotics":12487,"ĠEveryone":12488,"ĠCra":12489,"Ġcommittee":12490,"Ġpudding":12491,"Ġgad":12492,"owners":12493,"Ġfloods":12494,"Ġphenomen":12495,"orns":12496,"Ġimmun":12497,"Rec":12498,"Ġreun":12499,"ĠAlexander":12500,"On":12501,"ĠCollaborate":12502,"Ġattributes":12503,"ipher":12504,"Ġreceives":12505,"ĠNetflix":12506,"Ġbrid":12507,"anna":12508,"Ġwrapped":12509,"ĠDance":12510,"ĠMoroc":12511,"ĠMur":12512,"Ġheartfelt":12513,"Ġrocky":12514,"iro":12515,"Ġcouncil":12516,"Ġsalary":12517,"egrad":12518,"Ġadjusted":12519,"Ġdegrad":12520,"Ġcompassionate":12521,"Ġincentivize":12522,"Ġou":12523,"Ġ36":12524,"Ġcontracts":12525,"Ġproport":12526,"irs":12527,"ĠShort":12528,"Ġfrying":12529,"Ġjacket":12530,"Ġoral":12531,"Ġunsweetened":12532,"oubt":12533,"åĽ":12534,"ĠActive":12535,"game":12536,"Ġcob":12537,"Ġmoderate":12538,"gans":12539,"ĠNations":12540,"Ġfertility":12541,"Ġsiblings":12542,"Ġmim":12543,"Ġmembr":12544,"AI":12545,"ĠÑĤÐµ":12546,"ĠAqu":12547,"Ġcrowds":12548,"Ġmart":12549,"ĠPinterest":12550,"month":12551,"Ġtong":12552,"obic":12553,"Ġpractition":12554,"Ġcellular":12555,"Ġrainfall":12556,"Ġpuree":12557,"mers":12558,"you":12559,"Ġbackpack":12560,"Ġseeks":12561,"Ġvariation":12562,"ĠFeatures":12563,"Ġmasterpiece":12564,"Ġrustic":12565,"mel":12566,"mentation":12567,"Ġresearching":12568,"Ġsponsors":12569,"ÐµÐ¹":12570,"Ġotherworld":12571,"ĠPil":12572,"ĠOre":12573,"ĠOffic":12574,"ĠEngaging":12575,"click":12576,"Ġbeverage":12577,"ĠBlu":12578,"Ġdigestion":12579,"Ġdesperate":12580,"ql":12581,"Ġgrad":12582,"Ġgrounds":12583,"Ġspirituality":12584,"Ġpadding":12585,"Ġstolen":12586,"ĠBetter":12587,"Ġunst":12588,"à¸¢":12589,"æĪĳ":12590,"Ġtatt":12591,"Ġay":12592,"Ġcurrency":12593,"Ġstains":12594,"Ġprolong":12595,"Ġblades":12596,"jud":12597,"nels":12598,"ĠSend":12599,"Ġlands":12600,"ĠBlog":12601,"Ġdominant":12602,"ĠSummer":12603,"åı¯":12604,"DB":12605,"vals":12606,"Ġwww":12607,"Ġarc":12608,"Ġtransforming":12609,"ĠJameson":12610,"ĠRight":12611,"Ġintimate":12612,"sung":12613,"ĠSyd":12614,"Ġepic":12615,"Ġredemption":12616,"volent":12617,"Ġrevel":12618,"Ġorient":12619,"ĠMcC":12620,"ĠPrepare":12621,"ĠHun":12622,"ĠYoung":12623,"Ġadvancement":12624,"Ġaccommodation":12625,"ĠYears":12626,"Ġdisadvantages":12627,"Ġwitch":12628,"ĠJordan":12629,"Ġexperimentation":12630,"26":12631,"from":12632,"ĠFile":12633,"Ġrichness":12634,"Ġreign":12635,"Ġgenes":12636,"ĠEarly":12637,"ĠCand":12638,"à¸Ķ":12639,"Ġintens":12640,"Ġpyram":12641,"split":12642,"Ġ150":12643,"Ġprecautions":12644,"Ġlaunching":12645,"Char":12646,"Ð¾Ð¿":12647,"Ġsegmentation":12648,"tling":12649,"ĠRain":12650,"Ġinters":12651,"Ġpursuit":12652,"Ġelectro":12653,"Ġoccurrences":12654,"Ġcomplementary":12655,"ĠÑĤÐ°Ðº":12656,"ĠSanta":12657,"Ġdive":12658,"Ġreserv":12659,"Ġrelative":12660,"Ġolives":12661,"carb":12662,"ĠParent":12663,"Ġrecur":12664,"Ġdraws":12665,"Ġ:=":12666,"ĠIntegration":12667,"hou":12668,"iy":12669,"hetics":12670,"Ġtheore":12671,"arters":12672,"Ġsummon":12673,"Ġdepos":12674,"Ġtalents":12675,"ĠBusinesses":12676,"'.":12677,"DP":12678,"Ġequity":12679,"Ġoccasional":12680,"ĠIndones":12681,"Ġverse":12682,"ĠEU":12683,"ĠGirl":12684,"Ġconsuming":12685,"Ġdowntown":12686,"Ġpancakes":12687,"Ġsaves":12688,"Ġmechanical":12689,"ĠPotential":12690,"Ġhierarchy":12691,"48":12692,"ĠSit":12693,"ĠAdvent":12694,"Ġ1980":12695,"Ġindicators":12696,"Ġeligible":12697,"Ġgel":12698,"Ġevaluating":12699,"space":12700,"Ġcircles":12701,"Ġintegrity":12702,"omed":12703,"},":12704,"heit":12705,"ceans":12706,"irds":12707,"ĠJeff":12708,"Ġbikes":12709,"Ġrealization":12710,"Ġswing":12711,"chnology":12712,"ĠSeat":12713,"iodegrad":12714,"numbers":12715,"Ġgrape":12716,"Ġtouched":12717,"Ġfantasy":12718,"ĠAutomation":12719,"Ġmathematics":12720,"Ġsensitivity":12721,"Ġpredic":12722,"Ġdisruptions":12723,"Ġforgotten":12724,"View":12725,"Ġlaboratory":12726,"packed":12727,"reflection":12728,"Ġshaking":12729,"Ġcertified":12730,"ĠParticipants":12731,"ĠSection":12732,"Ġbreasts":12733,"Ġshifting":12734,"Ġfries":12735,"ĠPlayers":12736,"Ġhips":12737,"annah":12738,"nod":12739,"ĠDa":12740,"Ġrealizes":12741,"Ġpromptly":12742,"Ġhumidity":12743,"fare":12744,"isation":12745,"Ġunemploy":12746,"ĠSuch":12747,"Ġattachment":12748,"Ġcosmic":12749,"ĠCaesar":12750,"distance":12751,"ĠTherapy":12752,"Ġterritory":12753,"zed":12754,"aka":12755,"ĠSon":12756,"ĠMaj":12757,"Ġanalyst":12758,"Ġapolog":12759,"ĠAccount":12760,"Ġchamp":12761,"Ġaccessed":12762,"ĠTechniques":12763,"Ġurgent":12764,"ĠOk":12765,"Ġsoccer":12766,"Ġmeasurable":12767,"ĠSecret":12768,"Ġlen":12769,"ĠLind":12770,"Ġguy":12771,"Ġagreements":12772,"Ġprototy":12773,"Do":12774,"ĠcÃ³":12775,"ĠLiving":12776,"Ġmedications":12777,"scape":12778,"Ġholidays":12779,"Ġbedtime":12780,"Ġghostly":12781,"Ġreminding":12782,"Ġprocedure":12783,"Ġneedle":12784,"Ġlandf":12785,"change":12786,"Ġshifts":12787,"Ġmentoring":12788,"Ġ2007":12789,"Ġstuffed":12790,"Ġstorms":12791,"visor":12792,"Ġwitnessed":12793,"Ġstimul":12794,"ĠExecutive":12795,"first":12796,"Ġstaple":12797,"Ġshed":12798,"Ġmomentum":12799,"ĠCoca":12800,"Ġcoworkers":12801,"LC":12802,"ĠSort":12803,"Ġscra":12804,"Ġwondered":12805,"ĠChef":12806,"Ġbiking":12807,"Write":12808,"Ġfake":12809,"Ġalumni":12810,"ĠCelebrate":12811,"Ġdigestive":12812,"Ġutens":12813,"Ġproposition":12814,"herent":12815,"Ġbounce":12816,"luten":12817,"ĠEric":12818,"ĠPric":12819,"Ġresem":12820,"ĠTurk":12821,"Ġheights":12822,"Ġgestures":12823,"Ġfranch":12824,"ĠSamsung":12825,"Ġmoistur":12826,"ĠVar":12827,"Ġdependence":12828,"ista":12829,"Ġrinse":12830,"ĠLabor":12831,"Ġbackstory":12832,"ĠFibonacci":12833,"ĠTea":12834,"Ġregret":12835,"Ġfolder":12836,"jet":12837,"Ġdil":12838,"Ġunsalted":12839,"Read":12840,"ĠÐĴ":12841,"ĠQuant":12842,"ĠMu":12843,"Ġ195":12844,"ĠHollywood":12845,"Ġhormone":12846,"heated":12847,"ĠRemote":12848,"Ġemergence":12849,"Ġmorale":12850,"Ġcornstarch":12851,"Ġweigh":12852,"Ġdecent":12853,"à¸¥":12854,"Ġdoubts":12855,"atab":12856,"Ġtrace":12857,"Ġcheckout":12858,"Ġdisposal":12859,"Ġmentally":12860,"Ġtortillas":12861,"GO":12862,"Ġweren":12863,"Ġlovely":12864,"ĠPrioritize":12865,"han":12866,"liness":12867,"inis":12868,"amiliar":12869,"rying":12870,"Ġskip":12871,"Ġprofessor":12872,"ima":12873,"ailand":12874,"Ġdecorate":12875,"Ġappropriately":12876,"Ġstranded":12877,"ĠSydney":12878,"plot":12879,"Ġallies":12880,"ĠShould":12881,"ĠDom":12882,"ĠLab":12883,"enced":12884,"encil":12885,"Ġattitudes":12886,"Ġlogs":12887,"Ġdrove":12888,"Ġ1970":12889,"Ġpermanent":12890,"Ġupbeat":12891,"result":12892,"arms":12893,"ĠEco":12894,"Ġpercuss":12895,"Ġcontinually":12896,"ĠProducts":12897,"Ġhover":12898,"apen":12899,"ordinary":12900,"ĠSauce":12901,"igure":12902,"Ġpromised":12903,"Ġthickness":12904,"Ġotherworldly":12905,"atches":12906,"ĠLevel":12907,"Ġstressed":12908,"ĠHon":12909,"Ġdemanding":12910,"ĠNASA":12911,"uits":12912,"ĠWars":12913,"Ġproducer":12914,"Ġgrams":12915,"Ġreef":12916,"ulin":12917,"Ġempat":12918,"Ġelegance":12919,"cost":12920,"Ġutilizes":12921,"Ġfestive":12922,"Ġembroidery":12923,"ailed":12924,"ĠLarge":12925,"ĠCert":12926,"Ġdisplaying":12927,"Ġsurvived":12928,"Ġmarkers":12929,"Ġacquired":12930,"Ġinfectious":12931,"serole":12932,"Ġmystical":12933,"ĠAlong":12934,"Ġchamber":12935,"Ġmos":12936,"Ġjava":12937,"ĠBritain":12938,"Ġacadem":12939,"Ġsparkling":12940,"ĠMoon":12941,"ĠNov":12942,"Ġthinly":12943,"Ġbrace":12944,"Ġcocktails":12945,"Ġsatellite":12946,"ĠStreng":12947,"iodegradable":12948,"message":12949,"rot":12950,"Ġbackl":12951,"Tok":12952,"rim":12953,"ravel":12954,"ĠSov":12955,"Ġunease":12956,"Ġsubsidies":12957,"Ġwool":12958,"Ġgust":12959,"changing":12960,"Ġleague":12961,"Ġsettled":12962,"Ġprosperity":12963,"Ġincidents":12964,"Ġarranged":12965,"Ġembraced":12966,"Ġglucose":12967,"was":12968,"ĠSaint":12969,"Ġaccused":12970,"ĠKim":12971,"Ġdependent":12972,"Ġcommut":12973,"ĠÃł":12974,"Ġpas":12975,"ÑĥÑİ":12976,"ĠAPIs":12977,"Ġlivestock":12978,"ahini":12979,"ĠPracticing":12980,"Ġfres":12981,"Ġallocation":12982,"Ġdarkest":12983,"Ġpetals":12984,"Ġrubber":12985,"owers":12986,"ĠStyle":12987,"Ġtouches":12988,"Ġperforms":12989,"shadow":12990,"Ġstatue":12991,"Step":12992,"Ġpartnered":12993,"Ġlocked":12994,"Ġequival":12995,"La":12996,"olid":12997,"ieve":12998,"Ġpresenting":12999,"Ġcompetitions":13000,"ĠSnap":13001,"Ġtribes":13002,"Ġward":13003,"Ġbrick":13004,"izard":13005,"Ġabsolute":13006,"Ġvenues":13007,"consuming":13008,"Ġscents":13009,"ĠView":13010,"Ð°Ð½":13011,"Ġcorrupt":13012,"ĠÐ´Ð»Ñı":13013,"ĠTesla":13014,"ĠJSON":13015,"post":13016,"zymes":13017,"Ġstops":13018,"Ġplastics":13019,"Ġbloss":13020,"Ġpalindrome":13021,"uda":13022,"arcity":13023,"Ġentertaining":13024,"ĠMand":13025,"Ġoutlets":13026,"If":13027,"ĠHR":13028,"personal":13029,"æľī":13030,"ĠSolutions":13031,"inance":13032,"Ġremed":13033,"Ġmelodies":13034,"ĠPak":13035,"ĠDog":13036,"Ġsafer":13037,"Ġbasics":13038,"Ġ>>":13039,"Ġmortality":13040,"Ġrelied":13041,"Ġ]":13042,"Ġbomb":13043,"ĠABC":13044,"Ġmetallic":13045,"ĠGoals":13046,"37":13047,"Cola":13048,"ĠTony":13049,"Ġgloves":13050,"Ġsacrifices":13051,"ĠTri":13052,"ĠRetail":13053,"osity":13054,"Ġcabbage":13055,"Ġbetrayal":13056,"ĠPain":13057,"develop":13058,"anny":13059,"doubt":13060,"serves":13061,"ĠRod":13062,"ĠGrace":13063,"Ġglobe":13064,"Ġresponded":13065,"Ġboys":13066,"dam":13067,"alo":13068,"ishers":13069,"Ġmysteries":13070,"Ġcaching":13071,"ĠOptional":13072,"ĠHTTP":13073,"ĠSenate":13074,"Ġcultivating":13075,"Ã¡n":13076,"Ġpulling":13077,"Ġconstructive":13078,"Ġunfamiliar":13079,"Es":13080,"95":13081,"Ġstrangers":13082,"ishment":13083,"Ġslip":13084,"Ġpredictions":13085,"Ġsticky":13086,"anship":13087,"reek":13088,"Ġcomplaints":13089,"ĠJACK":13090,"Ġlandmark":13091,"Ġhandmade":13092,"ÃŃas":13093,"Ġshallow":13094,"ynthesis":13095,"Ġpersonalization":13096,"Ġclearing":13097,"Ð´Ð¸":13098,"ĠBuddhism":13099,"Ġsorts":13100,"umpl":13101,"Ġfloors":13102,"Ġpedest":13103,"Ġaspirations":13104,"Ġcompensation":13105,"iac":13106,"ensing":13107,"Ġcompares":13108,"Ġwins":13109,"ĠDy":13110,"Ġrepairs":13111,"Ġcostly":13112,"ĠSARA":13113,"Ġconsp":13114,"ĠEncouraging":13115,"Ġmanipulation":13116,"Ġancestors":13117,"ĠJoseph":13118,"Ġash":13119,"Ġknot":13120,"Ġpromoted":13121,"ĠConference":13122,"Ġexhausted":13123,"Ġmerchand":13124,"Ġastronauts":13125,"ĠCab":13126,"Ġapparent":13127,"Ġidentification":13128,"iop":13129,"pless":13130,"Ġcelebrating":13131,"ĠÂ½":13132,"Ġduties":13133,"Comm":13134,"Ġcaring":13135,"ĠSpir":13136,"Ġtribe":13137,"orian":13138,"Ġdot":13139,"energy":13140,"Ġinflation":13141,"ĠSoviet":13142,"Ġconfused":13143,"fortable":13144,"Ġcardio":13145,"ĠSkills":13146,"Ġgateway":13147,"Ġrays":13148,"Ġcaffe":13149,"ĠDivide":13150,"Des":13151,"radius":13152,"Ġlad":13153,"Ġarrival":13154,"ĠIII":13155,"Ġautonomous":13156,"focus":13157,"ĠLiter":13158,"Ġallocate":13159,"Ġdisag":13160,"Ġoldest":13161,"?âĢĿ":13162,"ĠSlice":13163,"OST":13164,"Serv":13165,"Ġstyling":13166,"ĠReducing":13167,"eger":13168,"ĠArm":13169,"ĠNone":13170,"tech":13171,"Ġescal":13172,"Ġresistant":13173,"Ġdropped":13174,"Ġbakery":13175,"ĠFair":13176,"Ġcurrents":13177,"ĠInfluencer":13178,"ĠEaster":13179,"Ġinstructor":13180,"Ġgases":13181,"Ġleap":13182,"Ġcheer":13183,"ropol":13184,"Ġnewspaper":13185,"SS":13186,"aria":13187,"ocaly":13188,"ĠPick":13189,"ĠSav":13190,"ĠLi":13191,"Ġchilled":13192,"ĠRh":13193,"bye":13194,"Ġadverse":13195,"PR":13196,"Up":13197,"ĠLady":13198,"Ġpenal":13199,"Ġgalaxy":13200,"Ġneighbors":13201,"Ġpond":13202,"Ġbind":13203,"ĠFirebase":13204,"code":13205,"Ġbreach":13206,"Ġcrafting":13207,"ĠConsult":13208,"ĠLeon":13209,"ĠWorking":13210,"ĠTrain":13211,"Ġfibers":13212,"Ġbought":13213,"icide":13214,"ĠSwiss":13215,"ilty":13216,"ĠHD":13217,"ĠMAR":13218,"ĠPolice":13219,"Ġtacos":13220,"Ġchirping":13221,"ĠMeasuring":13222,"Su":13223,"elle":13224,"Ġalarm":13225,"ĠFat":13226,"Ġresolved":13227,"ĠMA":13228,"Ġterrible":13229,"Ġthoughtful":13230,"ĠFlex":13231,"Ġeleph":13232,"Ġlogical":13233,"ĠColorado":13234,"Ġprocrast":13235,"Ġrender":13236,"ĠGeorgia":13237,"Ġinher":13238,"ĠLent":13239,"Ġcouples":13240,"nity":13241,"ĠCin":13242,"ĠLack":13243,"Ġrab":13244,"Ġpointed":13245,"ĠFall":13246,"Ġraces":13247,"frame":13248,"uity":13249,"ĠSeg":13250,"Ġagile":13251,"Please":13252,"Ġoutputs":13253,"Ġassignment":13254,"Ġgrilling":13255,"ĠPromote":13256,"Ġgoogle":13257,"ĠCham":13258,"Ġlistener":13259,"bly":13260,"Ġups":13261,"written":13262,"Ġshells":13263,"Ġintriguing":13264,"ĠJosh":13265,"ahren":13266,"Ġunlock":13267,"avascript":13268,"direct":13269,"Ġexplanations":13270,"ĠAh":13271,"ĠAwards":13272,"Ġdissol":13273,"Ġhormones":13274,"Ġactor":13275,"Ġlurking":13276,"Ġreass":13277,"ĠAsh":13278,"oted":13279,"Ġabroad":13280,"ĠColumb":13281,"ĠOkay":13282,"Ġmouse":13283,"ĠThailand":13284,"ĠRust":13285,"Ġaccord":13286,"à¹Ħ":13287,"Ġdeaths":13288,"Ġbid":13289,"Ġcareg":13290,"Ã©e":13291,"Ġsynthetic":13292,"ĠScotland":13293,"Ġsponsored":13294,"Ġneighboring":13295,"Ġregulating":13296,"Ġassert":13297,"Ġdefensive":13298,"aba":13299,"Ġdetailing":13300,"ĠBrussels":13301,"Ġgranulated":13302,"ĠLimit":13303,"Ġharvesting":13304,"Ġguacamole":13305,"Ġdocumentary":13306,"Ġroller":13307,"Ġhik":13308,"ĠDrop":13309,"ibbean":13310,"Ġdelivers":13311,"Ġbooth":13312,"Ġcalcium":13313,"ĠHelp":13314,"Ġcompromise":13315,"Ġtragedy":13316,"ĠNick":13317,"Ġnegotiations":13318,"ĠKar":13319,"Ġtablets":13320,"Ġhay":13321,"ĠSpin":13322,"ĠÐ¸Ð·":13323,"Ġlaser":13324,"Ġreforms":13325,"Ġtroubleshooting":13326,"Ġchore":13327,"Ġaccepting":13328,"Ġwaterfall":13329,"Ġrotation":13330,"ĠFish":13331,"Ġscarcity":13332,"which":13333,"ĠPlanning":13334,"Americ":13335,"Ġslower":13336,"Ġrevenge":13337,"Ġheroes":13338,"Ġsimpler":13339,"Ġsheer":13340,"Ġcheaper":13341,"Ġpolished":13342,"Ġsurely":13343,"lighten":13344,"Ġintimid":13345,"Ġquiz":13346,"Ġafterlife":13347,"exist":13348,"Ġsurprising":13349,"ĠWordPress":13350,"Ġcelebrates":13351,"ĠOthers":13352,"ĠDisney":13353,"requency":13354,"Ġtroops":13355,"Count":13356,"oes":13357,"Ġnowhere":13358,"Ġcinem":13359,"66":13360,"Ġupdating":13361,"track":13362,"onymous":13363,"She":13364,"Ġpepp":13365,"ĠOutro":13366,"Ġdisappeared":13367,"itious":13368,"Ġsupplements":13369,"your":13370,"Ġchief":13371,"Ġchairs":13372,"emble":13373,"week":13374,"Ġposters":13375,"itution":13376,"________________________________________________________________":13377,"fund":13378,"uman":13379,"Ġrins":13380,"ĠClose":13381,"Ġrequested":13382,"Ġtuna":13383,"Ġseemingly":13384,"Ġtranquility":13385,"([":13386,"Ġrooft":13387,"Ġsquares":13388,"iÃ©n":13389,"Ġpile":13390,"Ġprotest":13391,"dec":13392,"Ġtam":13393,"Ġboo":13394,"Ġinsulation":13395,"Ġabsence":13396,"Ġcoating":13397,"Ġattendance":13398,"Ġsuspects":13399,"LP":13400,"ĠIde":13401,"Ġextraordinary":13402,"Ġyes":13403,"Ġassembly":13404,"Ġmolecular":13405,"Ġbron":13406,"Ġdemonstrating":13407,"Ġhadn":13408,"ĠSSL":13409,"ĠHur":13410,"Ġadjustable":13411,"Ġtank":13412,"ĠBase":13413,"ĠBuff":13414,"Ġsecuring":13415,"Ġtablet":13416,"Ġtimelines":13417,"Ġdad":13418,"mos":13419,"iza":13420,"ĠThus":13421,"ĠKate":13422,"ĠGuard":13423,"Ġconsulting":13424,"ĠSep":13425,"Ġdeck":13426,"Ġ[]":13427,"brush":13428,"txt":13429,"hens":13430,"ĠOx":13431,"ikely":13432,"Ġsinger":13433,"Ġdetected":13434,"Ġoceans":13435,"ĠDaily":13436,"Ġsolace":13437,"Ġbroadcast":13438,"Ġskewers":13439,"onal":13440,"Ġgrandfather":13441,"ĠJenny":13442,"Ġtoasted":13443,"ĠCBT":13444,"Ġundert":13445,"Ġwherever":13446,"Ġvessels":13447,"Ġdread":13448,"issa":13449,"Ġdrones":13450,"Ð³Ð¾":13451,"Ġcontrasting":13452,"Ġreplacing":13453,"seen":13454,"ĠHab":13455,"ĠFederal":13456,"ĠÐ²Ð°":13457,"Ġcompound":13458,"Ġprintln":13459,"Ġutility":13460,"Ġpocket":13461,"Ġbeats":13462,"Ġsuggestion":13463,"ĠEvaluate":13464,"OC":13465,"oro":13466,"duate":13467,"Ġoffices":13468,"Ġmenus":13469,"Ġbudgets":13470,"Ġcontempl":13471,"Ġexhilar":13472,"ui":13473,"ĠLo":13474,"dimensional":13475,"Ġbroch":13476,"ĠAT":13477,"ĠHay":13478,"ĠHarr":13479,"ĠLiber":13480,"Ġcoordinate":13481,"åľ¨":13482,"ĠCarolina":13483,"ĠFull":13484,"Ġphenomenon":13485,"Ġempathetic":13486,"Ġcontests":13487,"Ġentities":13488,"Ġcrazy":13489,"ĠMonth":13490,"Ġrounds":13491,"ĠFoot":13492,"Ġflaws":13493,"Ġrelent":13494,"Ġpathways":13495,"Ġslicing":13496,"Ġtracker":13497,"Ð½ÑĭÐµ":13498,"Ġcluster":13499,"Ġpersonas":13500,"ĠLinux":13501,"ĠBall":13502,"ceptions":13503,"oper":13504,"ĠEasy":13505,"ĠLUC":13506,"Ġwing":13507,"Ġgri":13508,"Ġaviation":13509,"Ġfinishing":13510,"Ġpowered":13511,"ĠResear":13512,"ĠBelow":13513,"ĠBlockchain":13514,"Ġstructural":13515,"Ġcaffeine":13516,"atus":13517,"ĠTik":13518,"ĠSong":13519,"Ġworker":13520,"Ġsmoothies":13521,"Ġbudgeting":13522,"eur":13523,"epend":13524,"Ġsoak":13525,"food":13526,"Ġlets":13527,"Ġordering":13528,"laimed":13529,"Ġscanning":13530,"ĠMade":13531,"ĠAnne":13532,"Ġauthorized":13533,"Ġarrangement":13534,"umbling":13535,"Ġaltogether":13536,"Ġadministrative":13537,"ĠPolicy":13538,"Ġbeautifully":13539,"Ġenormous":13540,"Ġchorus":13541,"Ġupgrade":13542,"Ġdiamond":13543,"ĠSnow":13544,"Ġgovernance":13545,"Ġlifespan":13546,"cor":13547,"rep":13548,"à¸Ħ":13549,"FT":13550,"Ġink":13551,"ĠTaste":13552,"ĠWere":13553,"Ġinstincts":13554,"ĠGro":13555,"Ġtrendy":13556,"Ġparmesan":13557,"ĠPDF":13558,"Ġmej":13559,"ĠOs":13560,"Ġouter":13561,"Ġflame":13562,"bridge":13563,"Ġinstructors":13564,"effect":13565,"ĠPin":13566,"Ġreleasing":13567,"Ġshoe":13568,"Ġutensils":13569,"bour":13570,"Ġpale":13571,"Ġasleep":13572,"Ġembark":13573,"ĠHealthy":13574,"ĠDirections":13575,"Ġcorpor":13576,"Ġinvisible":13577,"ĠPrince":13578,"ĠStudio":13579,"Ġrehabilitation":13580,"Ġrigorous":13581,"eks":13582,"ilton":13583,"Ġcurve":13584,"liam":13585,"usters":13586,"Ġoptional":13587,"Ġsouls":13588,"Ġearthquake":13589,"ĠBali":13590,"ĠCastle":13591,"\"]":13592,"rection":13593,"ĠGlass":13594,"ĠReading":13595,"Ġdehyd":13596,"Ġguilty":13597,"Ġsustained":13598,"ructured":13599,"Ġpowdered":13600,"wan":13601,"Ġspan":13602,"Ġfirsthand":13603,"Ġgreenery":13604,"ĠRecogn":13605,"Ġechoed":13606,"Me":13607,"json":13608,"ĠFinal":13609,"Ġreconc":13610,"ĠCaptain":13611,"ĠKitchen":13612,"cover":13613,"ĠOlympic":13614,"Ġperceived":13615,"Ġdegradation":13616,"ahrenheit":13617,"EE":13618,"ĠBaroque":13619,"Ġuncom":13620,"ĠFord":13621,"Ġcounty":13622,"Ġcompanions":13623,"Ġadorned":13624,"ennis":13625,"mega":13626,"Ġstainless":13627,"Ġnursing":13628,"Ġexisted":13629,"lihood":13630,"Ġedition":13631,"ĠPrice":13632,"Ġcarrot":13633,"Ġank":13634,"places":13635,"Ġburied":13636,"Ġregarded":13637,"Ġloops":13638,"ĠEV":13639,"Ġkay":13640,"Ġlengths":13641,"azed":13642,"äºº":13643,"Ġconquer":13644,"`:":13645,"sen":13646,"nav":13647,"ethe":13648,"Ġgrasp":13649,"Ġcatast":13650,"ĠBul":13651,"ĠBox":13652,"ĠEating":13653,"Ġrelies":13654,"Ġsigning":13655,"ĠWalking":13656,"Ġframes":13657,"write":13658,"Ġalternate":13659,"steroid":13660,"Ġprivile":13661,"ĠChristianity":13662,"CM":13663,"ĠÑĢÐµ":13664,"Ġps":13665,"Ġhudd":13666,"aza":13667,"addle":13668,"Ġchefs":13669,"Ġnewsletters":13670,"tage":13671,"ĠVegetable":13672,"Ġhttp":13673,"ĠIBM":13674,"ĠCou":13675,"urg":13676,"Ġdys":13677,"Ġmineral":13678,"Ġimmersion":13679,"Ġnarrator":13680,"Ġbits":13681,"aine":13682,"à¸Ĺ":13683,"Ġgarn":13684,"Ġordered":13685,"ĠObama":13686,"Ġmotivational":13687,"Ġsyntax":13688,"Ġtraveler":13689,"Ġarchae":13690,"controll":13691,"ĠSeattle":13692,"ĠAth":13693,"opol":13694,"Ġtowels":13695,"liament":13696,"Ð¸Ñħ":13697,"ĠMother":13698,"Ġchew":13699,"iend":13700,"Ġbask":13701,"ĠOrange":13702,"ĠÐŁ":13703,"Ġclosest":13704,"Ġcrashing":13705,"ĠClin":13706,"Ġdiets":13707,"Ġscanner":13708,"Ġfox":13709,"Ġcorrelation":13710,"lightenment":13711,"ĠTax":13712,"ears":13713,"ĠRoom":13714,"star":13715,"ĠAnim":13716,"cans":13717,"ĠCome":13718,"That":13719,"ĠDraw":13720,"Ġjuices":13721,"Ġcooled":13722,"gage":13723,"åŃ":13724,"atal":13725,"Ġdepr":13726,"ĠCanyon":13727,"Ġwinding":13728,"Ġleisure":13729,"Ġ75":13730,"Ġelastic":13731,"Ġatmospheric":13732,"Ġcompounds":13733,"Ġlifel":13734,"ĠÑĢÐ°Ð·":13735,"ĠJacob":13736,"rc":13737,"ĉĉ":13738,"Ġtraumatic":13739,"Ġlegends":13740,"ĠWash":13741,"Ġmachinery":13742,"ĠMountains":13743,"ĠWhenever":13744,"ĠPortug":13745,"HD":13746,"Ġlips":13747,"sse":13748,"Ġhandful":13749,"ĠEquipment":13750,"olks":13751,"Ġtray":13752,"Ġagility":13753,"Ġpans":13754,"Ġgains":13755,"Ġspatula":13756,"Ġ\"\"\"":13757,"Ġadolesc":13758,"otto":13759,"ĠTech":13760,"ĠTeachers":13761,"ĠChem":13762,"tic":13763,"etics":13764,"49":13765,"âĦ":13766,"Ġmalevolent":13767,"alities":13768,"Ġacoust":13769,"ĠIndustrial":13770,"Ġbol":13771,"andom":13772,"Ġcarn":13773,"oliage":13774,"ĠÑĦ":13775,"ĠVirginia":13776,"Ġtoilet":13777,"pg":13778,"Ġnit":13779,"Ġscattered":13780,"Ġpaired":13781,"medicine":13782,"Ġpalace":13783,"ĠIslands":13784,"Ġvegetation":13785,"Ã±os":13786,"ĠFa":13787,"ĠGit":13788,"ĠArchitect":13789,"Ġwarranty":13790,"Set":13791,"Ġpig":13792,"Ġhorses":13793,"ĠPod":13794,"Ġnor":13795,"Ġregain":13796,"Ġwraps":13797,"Ġkilling":13798,"Ġrelates":13799,"Ġamidst":13800,"ĠCaribbean":13801,"Ġreminds":13802,"ĠiP":13803,"Ġsouthern":13804,"Ġcompeting":13805,"Ġranges":13806,"Ġcompr":13807,"Ġfunnel":13808,"ĠDinner":13809,"asis":13810,"Ġreserved":13811,"Ġpercussion":13812,"Le":13813,"Ġsends":13814,"lessness":13815,"ÐºÐ¾":13816,"Ġjalape":13817,"Ġhired":13818,"ĠSaut":13819,"comed":13820,"namic":13821,"Ġqueen":13822,"Ġseparately":13823,"Ġsplash":13824,"Ġoranges":13825,"ĠAncient":13826,"Ġcontacts":13827,"Ġalbums":13828,"ĠRestaurant":13829,"CR":13830,"scenes":13831,"Ġtomorrow":13832,"Ġburned":13833,"Ġtrigg":13834,"udi":13835,"Ġshout":13836,"Ġbreaches":13837,"Ġlistings":13838,"Ġanalytical":13839,"ĠSilk":13840,"Ġmaker":13841,"elled":13842,"append":13843,"Ġassociations":13844,"grain":13845,"ĠWinter":13846,"Ġmanifest":13847,"Ġobserving":13848,"Ġlivelihood":13849,"ERT":13850,"okes":13851,"ĠCommittee":13852,"Free":13853,"Ġcontained":13854,"ĠRos":13855,"Ġdispar":13856,"ondition":13857,"ä¸ª":13858,"essed":13859,"Ġ(`":13860,"position":13861,"ĠBa":13862,"Ġleaks":13863,"Ġfluctu":13864,"random":13865,"ocker":13866,"Ġfruity":13867,"Ġtelesc":13868,"Is":13869,"AND":13870,"Ġcrown":13871,"Ġcolleges":13872,"fficiency":13873,"ugged":13874,"77":13875,"Ġthrown":13876,"Ġket":13877,"days":13878,"Ġtragic":13879,"à¸°":13880,"Ġcredible":13881,"Ġpleasing":13882,"Ãł":13883,"Ġsignaling":13884,"Ġzomb":13885,"Ġhitting":13886,"Ġartworks":13887,"Ġobservation":13888,"erring":13889,"Ġanimated":13890,"ĠHeritage":13891,"law":13892,"Ġtraditionally":13893,"ohn":13894,"Ġcollaborated":13895,"ilipp":13896,"writer":13897,"Ġrealizing":13898,"osph":13899,"ĠTurkish":13900,"Ġremainder":13901,"Ġscoring":13902,"Ġraz":13903,"Ġfauc":13904,"ĠWhole":13905,"Ġwanting":13906,"Ġsoldier":13907,"Ġinhabitants":13908,"Ġbab":13909,"ĠCarbon":13910,"burgh":13911,"Ġfoliage":13912,"Ġdos":13913,"ĠJIM":13914,"ĠResearchers":13915,"inkles":13916,"ughed":13917,"Ġweddings":13918,"Ð½Ðµ":13919,"query":13920,"Ġshy":13921,"ĠBuy":13922,"mount":13923,"Ġunemployment":13924,"pea":13925,"ĠJun":13926,"roughts":13927,"Ġreprodu":13928,"Ġarrested":13929,"angular":13930,"Ġoffline":13931,"Ġprojected":13932,"Ġfunded":13933,"Ġhazards":13934,"SE":13935,"Ġlin":13936,"Ġsemi":13937,"å°":13938,"Ġna":13939,"Ġenduring":13940,"ockets":13941,"Ġdeepen":13942,
[...]
