#version: 0.2
Ġ t
Ġ a
i n
h e
r e
Ġ s
o n
e r
Ġt he
Ġ c
a t
n d
o r
e s
e n
Ġ w
o u
in g
i t
Ġ p
Ġa nd
a n
Ġ f
a l
Ġ o
i s
Ġ m
Ġt o
Ġ b
e d
Ġ in
a r
i on
Ġ d
Ġo f
i c
l e
r o
Ġ h
a s
Ġ e
en t
o m
Ġt h
v e
Ġ re
c t
u s
i l
Ġ Ġ
Ġ l
Ġ T
Ġ y
e t
Ġ g
Ġy ou
r a
i m
i d
Ġ n
o w
c e
c h
Ġf or
Ġ I
e l
at ion
Ġs t
Ġ he
o l
Ġth at
s t
č Ċ
i g
Ġ on
Ġp ro
it h
er s
i r
u t
l y
Ġb e
o t
Ġ S
Ġ C
Ġw ith
a m
Ġ A
a d
Ġ is
u r
ĠT he
i f
is t
a y
an t
u l
es s
v er
s s
u n
s e
Ġ or
Ġc on
Ġc an
Ġe x
u re
at e
Ġ it
Ġa l
Ġa n
a g
m ent
o re
k e
p p
a b
Ġs u
Ġa re
Ġc om
Ġa s
ou t
i ve
Ġ us
Ġw h
Ġ v
ĠĠ ĠĠ
i es
e re
l d
Ġd e
o o
i v
he r
it y
p e
q u
' s
Ġyou r
a c
t er
Ġc h
Ġ H
il l
o c
Ġ en
or t
Ġ M
es t
Ġh a
u d
a in
Ġ B
ig h
Ġthe ir
us t
ou r
e m
Ġ P
Ġ -
Ġs e
Ġn e
i al
o s
Ġw as
om e
o p
Ġ W
Ġ 1
t h
Ġ im
Ġa d
Ġs h
Ġ le
e ct
s er
i z
id e
ou ld
r i
ion s
u m
al l
p l
n t
r ou
ss ist
Ġ r
Ġm ore
ar t
Ġw or
Ġ D
Ġ F
Ġa b
U ser
p t
ssist ant
Ġin c
Ġt e
d u
A ssistant
ro m
Ġ E
Ġp l
ĠT h
ag e
p er
Ġim p
k ing
igh t
Ġha ve
Ġ R
Ġin t
f f
Ġ 2
a nd
a ct
Ġw e
a re
Ġb y
Ġa t
o d
Ġ u
Ġf e
i p
g e
Ġhe r
Ġm e
Ġf rom
ab le
or m
g h
a ke
re at
Ġ O
in e
o g
i e
Ġcom p
as t
ig n
Ġhe l
c c
Ġ L
Ġhel p
t her
Ġs ome
Ġthe y
ation s
f orm
an ce
â Ģ
r u
in d
Ġ un
ĠI n
Ġcon t
el l
k s
ar d
Ġ G
Ġpro v
s o
Ġ j
r y
a ch
ul t
en ce
ic al
o st
Ġ (
ĠTh is
Ġ k
Ġh as
a il
ve l
e p
Ġad d
Ġh ow
ac k
a v
Ġre s
Ġp re
Ġc l
Ġ "
Ġab out
ou s
ic e
Ġt ra
Ġthe m
Ġal so
ic h
it ion
Ġal l
Ġa pp
Ġh ad
Ġo ther
as e
c es
i re
Ġ 3
Ġ N
Ġd is
Ġw ill
oo d
if ic
Ġe m
Ġth is
im e
at ed
ent s
l ud
an s
Ġ out
Ġl i
a ce
Ġb ut
Ġm an
on g
it e
Ġn ot
Ġs p
Ġ J
Ġ U
Ġu p
Ġa r
Ġw he
u al
e nd
Ġs pe
ct ion
Ġs he
Ġinc lud
Ġsu ch
n e
Ġ qu
ĠI t
i le
ar k
Ġ Y
Ġs c
i b
re ss
or s
Ġre c
f ul
Ġe v
i a
a k
Ġwh ich
Ġus e
Ġd es
as s
g et
Ġo ver
f ere
ĠC an
Ġan y
Ġs o
a p
Ġcom m
on e
Ġm y
at er
ĠĠĠĠ ĠĠĠĠ
Ġ ro
Ġ 4
u e
rou gh
Ġh is
l es
Ġwh o
or y
an g
Ġc re
ou nd
Ġp e
am e
Ġa cc
Ġd if
Ġne w
o ve
ra m
it ies
Ġli ke
ing s
Ġp er
Ġin d
Ġof f
Ġex am
Ġt ime
Ġe ff
Ġwor k
Ġc ol
Ġprov ide
al ly
i ence
Ġex per
Ġint o
Ġf l
or d
ment s
Ġpro du
ar y
ou nt
Ġs er
Ġm ake
il d
oo k
Ġit s
ay s
al th
ĠS t
Ġc ould
l ic
Ġw ere
Ġ 5
âĢ Ļ
ch n
Ġg o
r ic
o y
n ow
e ar
Ġp art
pp ort
b er
Ġspe c
Ġd o
Ġth rough
ver y
ure s
x t
Ġs y
Ġm ed
ra ct
Ġt r
rou nd
i ous
Ġs a
en s
vel op
b s
Ġp o
Ġthe se
g g
a king
Ġin form
ust om
Ġte chn
Ġdif fere
Ġ our
er g
in t
Ġne ed
Ġd et
Ġpro g
Ġre l
ro w
iz e
Ġst r
n ess
l l
p le
c k
re e
il ity
Ġw ould
Ġhe alth
el y
at ing
ic k
n ing
Ġon e
Ġp ers
ic es
ol og
Ġs m
Ġbe en
al s
nd er
if e
Ġ if
o v
Ġc ustom
t ain
g an
Ġs oc
e os
w e
Ġde velop
l ow
el f
ul ar
re d
Ġthe re
Ġus ed
j ect
Ġin v
ur ing
ĠC h
Ġinform ation
t e
Ġk now
u b
c ess
as ed
on s
i qu
Ġdiffere nt
0 0
on d
Ġcomm un
ip s
ark et
' t
Ġc reat
ad e
n s
ĠA d
Ġst ud
i ent
r it
Ġ Ð
Ġ V
Ġcre ate
Ġ ke
Ġus ing
ow er
Ġb et
o b
p h
Ġin ter
Ġ K
e f
is h
en c
Ġa m
an ge
it s
Ġsh ould
at ive
t ing
at es
Ġser v
Ġc o
Ġe ach
Ġm ay
le ct
Ġw ell
il y
o se
f t
ĠA s
ĠThe y
Ġs ign
ou gh
Ġprodu ct
Ġa ct
Ġs k
st em
at a
Ġimp ro
Ġprog ram
Ġcon s
Ġh igh
Ġb u
ĠH ere
ot h
Ġg reat
re s
iz ed
Ġpers on
in ess
is e
Ġwh at
pl es
Ġar t
ent ial
i et
Ġb l
d ition
ĠH e
ic s
Ġv ar
Ġp h
Ġre du
Ġeff ect
Ġwhe n
Ġl oc
Ġp r
ol d
Ġw ay
ur al
Ġin st
_ _
y s
Ġdes ign
ar ch
Ġprov id
Ġsoc ial
op le
Ġa g
Ġle ar
Ġ `
Ġm arket
he s
Ġsu pport
Ġre m
Ġl ife
Ġo pt
Ġimp act
Ġu nder
erg y
he d
Ġwor ld
Ġfe el
Ġat t
en g
Ġ =
Ġbe c
Ġm us
w n
Ġre g
Ġen g
Ġtr ans
an c
t s
ow n
Ð ¾
Ġpe ople
u p
Ġb us
Ġs et
Ġv is
ĠH ow
Ġinclud ing
om m
Ġsy stem
et h
ĠS he
Ġre p
Ġle ad
Ġc he
Ġf ind
al ity
re n
Ġ ra
Ġd ata
en er
ri b
Ġspec ific
Ġ ve
Ġb ack
ĠW e
Ġm in
Ġen ergy
Ġexam ples
pe ct
Ġex pl
ĠY ou
ib le
Ġde c
i an
at ure
Ġpro m
Ġ âĢ
Ġe very
Ġwh ile
Ġp ract
Ġs ur
ĠF or
Ġp ot
Ġv al
Ġwhe re
Ġf un
Ġpl ay
ri end
Ġj ust
Ġinc re
ru ct
Ġman y
Ġst art
Ġbus iness
Ġdet ail
Ġw ater
f ore
Ġth an
t en
u es
Ġch ar
w ard
Ġc a
Ġin f
iv es
Ġg u
olog y
m s
Ġm ade
Ġsign ific
in k
ĠThe se
iv id
Ġin s
Ġch all
ie w
u c
ĠW h
Ġa v
Ġ 6
en se
Ġse e
id ent
l ed
Ġpro cess
Ġf am
an y
Ġm ost
Ġall ow
Ġg et
Ġexper ience
ion al
er tain
Ġs al
ir st
Ġad v
Ġp at
Ġt y
Ġimp ort
ur n
Ð µ
Ġc ult
Ġy ear
Ġa c
Ġc le
Ġb r
Ġm od
ol low
ra nd
Ġse c
Ġn um
le ment
Ġc ar
cc ess
Ġ [
e ver
Ġn o
iqu e
Ġdis c
Ġmed ia
is s
Ġfe w
Ġte am
Ġev en
am p
in es
ne w
Ġl ong
e g
ĠU se
Ġimpro ve
our ces
ol ut
Ġm ent
Ġen s
Ġf in
Ġp ower
Ġex p
l ine
Ġinclud e
Ġe as
Ġre al
st and
it ive
Ġw ant
oc us
Ġ2 0
Ġt w
Ġo wn
v ed
Ġd uring
Ġha nd
ar m
ag es
Ġf ound
ate g
ir on
Ġre qu
Ġacc ess
p ut
Ġl a
Ġexam ple
Ġbe fore
i x
Ġp ol
a x
Ġsm all
i ents
ere d
Ġf ollow
Ġs im
Ġsignific ant
Ġm em
Ġfor m
Ġ ed
Ġb re
Ġ ent
Ġor gan
Ġc ur
Ġsu ccess
Ġg row
Ġbu ild
Ġus er
Ġt ake
Ġsh ow
if y
iet y
Ñ Ĥ
rou p
Ġa ut
Ġcomp le
Ġre f
ar s
Ġre ad
Ð °
Ġa round
e c
Ġperson al
Ġpl an
Ġf ood
f ter
Ġb en
Ġre t
Ġg l
t il
us e
Ġd el
v iron
ation al
ĠS ure
ot her
l ing
Ġte xt
ere st
Ġind ust
Ġe nd
v ing
Ġp os
Ġf irst
Ġh im
Ġpro ject
w or
w are
Ġg r
age ment
we en
Ġf ocus
Ġchall eng
Ġd ay
n er
ivid ual
c on
ĠB ut
Ġper form
Ġo b
ic t
Ġbet ween
Ġoff er
h ip
ĠA n
s elf
Ġcont ent
gg est
le ase
ak es
Ġm aking
Ð ¸
Ġl ist
ol s
Ġsu ggest
Ġen viron
Ġprom ot
ĠP ro
p or
Ġwe bs
Ġind ividual
v es
Ġmus ic
Ġ ess
Ġunder stand
Ġcon c
Ġ ide
Ġa ud
i er
in ing
Ġd own
ĠE n
Ġg roup
Ġg ra
Ġint erest
b le
Ġm ain
Ġg ener
Ġres p
Ġun til
n ect
Ġc are
Ġp op
ĠHow ever
Ġst ory
ater ial
Ġben ef
id er
pl oy
el s
Ġhe re
Ġre se
at h
iz ation
er m
Ġan al
Ġpart ic
Ġs ound
v en
Ġun ique
Ġact iv
he n
Ġt ry
ill s
Ġfe at
w ays
Ġp ass
ĠI f
it ed
ag ing
Ġb el
r ies
Ġt ips
Ġeffect ive
Ġc ount
Ġcon f
Ġtechn ology
ant s
on t
i ed
m er
Ġ $
Ġpro f
in s
ab les
Ġto get
Ġtoget her
Ġl ight
Ġlear n
ch o
Ġapp ro
Ġrequ ire
Ġl ove
Ġen c
Ġthe n
Ġke ep
Ġstr ateg
Ġa ss
a z
Ġd r
ĠB y
ter n
ĠO ver
c ed
Ġens ure
Ġon ly
Ġ 7
iv ers
Ġenviron ment
av or
ab ility
rib ut
Ġm aterial
v ent
Ġa ff
Ġchar act
as h
Ġd ist
Ġres ult
t ed
ĠT o
oo king
ri pt
Ġcont in
ĠA l
Ġg ood
Ġm on
en ces
a ir
ĠA nd
Ġp ur
Ġpot ential
a ut
Ġdevelop ment
Ġ ident
omm end
à ¸
Ġto p
t y
Ġcl ass
Ġc r
Ġredu ce
Ġsu b
Ġl ar
Ġf riend
at ch
Ġb oth
Ġb est
Ġst ep
Ġs ure
Ġmarket ing
Ġbe ing
at her
Ġex t
l u
Ġadd ition
oc k
Ġwebs ite
iv ing
Ġto o
Ġh ist
i o
Ġle vel
Ġle t
Ġof ten
Ġ {
od e
Ġh um
iv en
Ġw rit
Ġe l
. "
Ġrec ommend
Ġ #
Ġs ense
b ers
n ce
d s
d er
Ġtw o
er c
ic ation
Ġb rand
Ð¾ Ð
Ġs om
a h
Ġst y
c om
p ort
Ġem ot
ĠY es
Ġpre s
Ġc amp
Ġfam ily
ertain ly
Ġpro t
Ġp ub
Ġcustom er
Ġcon nect
Ġdetail s
or por
Ġsh are
Ġg ive
Ġth ose
Ġc our
Ġc ost
od y
u ch
Ġfun ction
Ġindust ry
Ġde f
Ġf ac
Ġre st
Ġrese arch
Ñ ģ
Ġus ers
Ġm ind
Ġfeat ures
Ġloc al
Ġty p
Ġal ways
e e
Ġpl ace
Ġse ver
re en
ust ain
Ġcommun ity
a ve
enc y
or ies
t o
Ġcustom ers
Ġe ar
Ġa fter
ist s
ce pt
e w
c ing
ĠR e
Ġinv ol
ar get
ang u
u nd
ch ie
Ġke y
Ġchalleng es
at form
Ġo p
ou ra
Ġcomp any
Ġch ild
Ġexper i
b r
__ __
pp ed
at ural
Ġproduct s
el t
Ġtra dition
Ġbet ter
Ġserv ices
Ġimp lement
ĠE m
Ġh ome
Ġsever al
Ġch ang
Ġstud ents
o ver
Ð ½
Ġc ent
Ġag ain
ical ly
Ġ }
Ġmin ut
ĠC ertainly
Ġso ft
i el
is m
Ġinv est
Ġimport ant
Ġres ources
in ed
Ġem ploy
as on
Ġvar ious
l ight
Ġbe h
Ġd on
t le
Ġf il
r ite
re ad
o pe
Ġyear s
ĠU n
Ġaud ience
Ġa chie
ab or
it al
et s
Ġpl atform
) ;
Ġth ough
Ġm et
b e
ĠOver all
w ay
p s
v iew
Ġnum ber
' m
Ġrel ations
res h
j oy
Ġl angu
Ġment al
Ġde m
Ġc up
Ñ Ģ
ĠAd dition
` `
Ġb o
) .
Ġs ustain
pport un
Ġd id
re am
Ġs elf
ort s
eth ing
Ġsk ills
Ġed uc
p o
Ġr ight
ĠAddition ally
Ġc all
ward s
Ġo pportun
Ġopt ions
l ess
Ġinf lu
l us
Ġt arget
Ġ20 1
Ġve get
ĠO ne
Ġl ook
pe nd
e x
er r
' re
ĠE x
Ġw ays
Ġav ail
ĠThe re
an k
Ġminut es
c ript
er y
im es
Ġ 8
ro ss
Ġbenef its
Ġsom ething
ual ly
Ġsu m
Ġ1 0
Ġt re
Ġo il
con om
Ġf act
a ign
Ġtradition al
Ġt est
d ay
Ġcle ar
Ġcont ro
Ġst ill
ĠAd d
Ġlear ning
it ions
ra y
Ġs it
us h
ra p
- -
Ġr ange
Ġha pp
Ġbe aut
as es
Ġc al
Ġm uch
Ġp ast
Ġpo ss
Ġp ain
o id
Ġon line
Ġc or
Ġn atural
Ġcon st
Ġph ys
wor k
Ġab le
Ġc ity
o h
Ġis s
p r
Ġindividual s
Ġeas y
Ġother s
Ġ est
es e
Ġpos itive
Ġoff ers
Ġf elt
Ġ` ``
Ġb ased
Ġ /
Ġne ver
Ġa ir
ra ph
iqu es
c i
ord ing
Ġe le
Ġm ess
er n
Ġpop ular
Ġre ally
ĠWh at
ire ct
th ing
Ġk new
Ġt ell
Ġ es
Ġlangu age
Ġneed s
Ġcamp aign
red ients
il ities
Ġt em
Ġhe art
Ġincre ase
Ġp ar
Ġr is
u ce
at ely
in ation
Ġch ange
h ips
Ġe conom
ĠS h
Ġprovid es
Ġbel ie
Ġcreat ing
Ġde p
ou se
Ġapp lic
re nt
Ġf ul
Ġcom b
Ġch o
ĠC on
Ġde v
Ġj our
Ġm om
Ġp lease
Ġm ove
Ġwor ks
Ġqu est
Ġwith out
Ġro le
Ġf ore
Ġl it
Ġpub lic
Ġin put
Ġc ook
v ers
b ack
eth od
us s
em s
i pe
Ġst and
Ġcol or
ĠW ith
ĠIn st
al e
Ġp ie
al k
Ġtechn iques
oo se
Ġs ol
e ad
Ġpo int
Ġl and
Ġm ot
Ġop en
Ġf ut
Ġto ols
Ġf ree
Ġcom e
Ġgo als
Ġhelp s
pp er
ne y
Ġare as
Ġexpl ore
le t
Ġse arch
er ing
a pe
pp ing
ill ed
Ġperform ance
Ġinc orpor
Ġstud y
Ġp ost
ar ing
Ġev ents
at o
ĠA r
Ġman agement
Ġgrow th
Ġv ide
Ġbec ome
Ġr un
i or
Ġbusiness es
Ġess ential
Ġavail able
or ing
Ġactiv ities
f ect
Ġst ay
c ial
Ġqu ality
Ġstr ong
ĠB e
Ġsy m
Ġpro per
Ġint eg
Ġst ru
Ġfriend s
Ġ1 9
Ġn ow
Ġl o
Ġev ent
Ġ '
Ġb ody
Ġhist ory
Ġm ethod
at s
iv ity
c are
Ġst ore
Ġh ope
ruct ure
ĠTh at
Ġcont ribut
Ġfut ure
iz ing
ire d
am es
Ġcol l
l and
Ġn ut
Ġen joy
Ġe qu
o ot
Ġsuccess ful
Ġprof ess
r on
ĠD o
Ġanal y
Ġme as
Ġdif f
ĠW hen
Ġeff ic
as ing
Ġcontro l
Ġ ing
Ġfl avor
Ġe lect
Ġs cho
ri ed
ĠD e
Ġem ail
Ġ <
Ġinter act
Ġfe ed
Ġm at
ĠâĢ ľ
Ġex erc
og n
Ġde ep
i ke
Ġf resh
re t
Ġcharact er
âĢ Ŀ
Ġknow n
Ġtra ining
oo ks
Ġprogram s
Ġpract ices
Ġo per
olut ion
Ġserv ice
Ġsa id
) ,
Ġenc oura
w ord
Ġth ink
Ġlar ge
Ġd ra
ĠP l
Ġl ow
Ġident ify
Ġcour se
Ġp a
im ate
g er
ĠS c
Ġsystem s
Ġm ix
Ġl im
Ġm ult
Ġim m
Ġe y
we et
Ġsa f
Ġsty le
du ct
Ġstru gg
Ġprovid ing
are d
Ġm ust
b y
Ġaff ect
Ġaddition al
Ġh ard
ver n
Ġp ow
Ġg ame
Ġv iew
Ġst ress
Ġan im
i um
Ġdo es
Ġadd ress
Ġex c
Ġtrans port
it ing
Ġopt im
Ġm il
em ber
ib ility
Ġmaterial s
Ġtyp es
f ort
Ġt ru
Ġb ro
Ġs ens
Ġl ess
ĠĠ Ġ
ular ly
Ġcle an
Ġprot ect
Ġcult ural
h or
Ġsa uce
Ġre le
Ġhe ad
r ing
Ġrec ipe
er t
Ġre new
Ġstrateg ies
Ġphys ical
e es
Ġqu ick
Ġper fect
Ã ©
Ġover all
Ġgo vern
ĠC l
our s
Ġwor king
Ġwith in
Ġ 9
Ġm ov
ight s
Ġpres ent
s c
an ces
Ġval ue
Ġcomp et
ain s
ur ity
Ġmain tain
om p
Ġspec ial
n ces
ent ion
Ġt as
Ġcur rent
Ġhealth y
ĠI nd
ĠS ome
Ġd irect
a j
u g
og raph
Ġv ers
Ġf ace
Ġd ig
ur ther
Ġsoft ware
Ġcomple x
r ation
mer ic
Ġne g
c ome
Ġpromot e
Ġpre vent
Ġan other
Ġare a
Ġm ight
Ġ 0
Ġto wards
Ġdet erm
Ġhum an
Ġachie ve
Ġfollow ing
Ġcommun ication
ic ult
f act
Ġsp ace
our ce
an ies
T he
y c
u ed
n ers
, "
Ġexperi ences
Ġw ind
ren g
Ġth ings
Ġup d
Ġide as
is ion
iel d
ir t
Ġj ob
l ish
is ing
ĠD es
ot e
Ġc ap
Ġwe e
Ġsustain able
av es
Ġt reat
pl ay
ĠW rite
Ġme et
Ġhelp ed
Ġtra vel
le x
ĠC ould
Ġrep ort
b ased
Ġtra ck
Ġs ame
a use
it ation
Ġn et
Ġpr int
Ġst ate
Ġsm o
ĠâĢ ĵ
ress ion
Ġen h
' ll
Ġg ar
Ġs at
ĠĠĠĠĠĠĠĠ ĠĠĠĠ
Ġinclud es
Ġvar iety
d e
Ġbuild ing
Ġre ce
Ġwrit ing
Ġin it
p ro
lus ion
one y
is hed
Ġdiff icult
u gh
an n
Ġeduc ation
id es
Ġcons ider
Ġvis ual
Ġb al
g in
Ġing redients
z e
Ġ/ /
Ġallow s
Ġbre ak
Ġcons um
ver t
Ġb reat
Ġins p
Ġh ot
Ġc rit
Ġresp ons
Ġchang es
in ce
n ov
ĠIn c
Ġcol le
Ġopportun ities
al ing
g ar
Ġcult ure
ff ic
Ġst reng
ĠR em
Ġchild ren
Ġpro ble
he re
Ġm ar
Ġac ross
Ġret urn
en e
a pt
Ġele ments
Ġl ast
j ust
Ġs un
Ġro om
Ġrenew able
ot s
Ġiss ues
Ġhe at
m e
Ġch ick
Ġb ook
Ġcoll abor
Ġjour ney
Ġfeed back
Ġ Q
Ġty pe
Ġt urn
Ġvis it
Ġre ach
Ġob ject
Ġcomm on
r al
Ġs ide
as ter
ĠR es
Ġlevel s
Ġt ast
at or
t on
Ġsu pp
ĠT e
d itions
Ġt imes
Ġposs ible
id d
os p
Ġthrough out
r ast
Ġr out
m on
Ġcomp anies
Ġse ason
Ġche ese
ĠS p
c o
Ð »
re he
if t
Ġm ag
Ġt er
Ġmem bers
ĠA t
Ġagain st
ĠI m
v ant
ys is
ĠJ oh
ac ks
Ġj o
00 0
Ġbe gan
Ġpract ice
Ġstart ed
ru ction
ĠA meric
m ing
Ġappro ach
ard s
Ġbr ing
Ġpol ic
f riend
Ġc ode
iv ed
anc ial
anc ed
Ġredu cing
Ġne xt
ruct ions
Ġpre p
im ent
ĠC re
Ġf it
Ġab ility
Ġb as
ra in
Ġde pend
Ġfe ature
Ġs ources
Ġrep res
ĠF in
Ġc ase
is es
ent ly
b o
Ġfeel ing
Ġex pect
ri or
Ġpe pper
Ġlead ing
Ġph ot
Ġs weet
il ar
oc i
Ġdesign ed
2 0
iz ations
ort h
Ġal ong
on es
Ġf und
Ġmom ent
Ġle ft
Ġp ay
Ġpartic ip
Ġbeh av
Ġche ck
c ul
Ġbreat h
Ġd ark
Ġacc ording
ac es
Ġav oid
Ġn ature
Ġb at
Ġprog ress
Ġt aking
n g
Ġa way
f ace
Ġdes cript
Ġl ine
Ġf re
Ġunderstand ing
Ġm iss
Ġn on
( )
Ġs w
Ġn ight
a ur
p os
Ġg reen
Ġeng aging
Ġf r
Ġstep s
ur y
s ide
Ġn ame
Ġd i
Ġacc ount
ĠC ol
Ġl ay
Ġcre am
Ġre d
th s
an e
ic ate
Ġneed ed
Ġinflu enc
Ġs le
led ge
n am
ro du
if ied
ĠN ew
Ġw arm
Ġo ld
cess ary
iv al
ĠS ar
Ġveget ables
Ġrelations hips
it ut
Ġsal t
ĠS e
Ġh old
Ġcom fort
Ġcl os
Ġm o
Ġgovern ment
a f
Ġinter n
Ġgo ing
ĠSt ep
g es
Ġmod ern
iz es
ĠCre ate
Ġqu e
Ġbec ause
Ġs l
Ġeffect s
Ġp ack
Ġfin ancial
her s
Ñ ĥ
Ġin nov
l o
Ã ³
Ġ very
ĠI s
Ġsh ort
Ġl ooking
friend ly
Ġdis h
t ime
ro p
a w
Ġdisc uss
Ġf ile
Ġ z
Ġad just
Ġh ig
c rib
g le
Ġli k
Ġscho ol
Ġv ol
ĠY our
Ġo cc
Ġsound s
en ing
ist ic
Ġcol ors
ĠS o
Ġsec ond
Ġme an
ou n
ful ness
Ġemot ional
Ġtechn olog
Ġsim ple
Ġanal ysis
Ġc ra
Ġtransport ation
are nt
r ate
it ud
Ġeconom ic
Ġs n
Ġam ount
' ve
Ġn av
ĠM ar
Ġp an
ow l
or k
Ġevery thing
Ġto ol
id ence
c hed
Ġk ind
c hes
ser v
Ġan x
ic ious
Ġus es
u ra
ro om
Ġs ou
Ġemploy ees
ar r
Ġimport ance
Ġneg ative
un ch
at ic
Ġf urther
Ġt ur
ag ed
Ġsec urity
Ġaut om
Ġsym b
Ġl ed
Ġth ree
Ġmot iv
Ġ Z
Ġw om
ail y
ĠS er
Ġam ong
ir d
pl ace
i od
Ġre view
Ġca pt
Ġc ut
Ġchick en
ĠSar ah
el ves
ot t
Ġc e
or n
s ing
Ġg re
Ġeffective ly
Ġbut ter
Ġg round
Ġpur ch
Ġplatform s
op h
Ġne cessary
ĠO ur
Ð º
Ġfl ow
Ġor der
if ul
Ġprodu ction
Ġmess age
Ġcharact ers
fere nces
Ġsal es
ĠJoh n
Ġsit u
Ġide a
o or
an ks
Ġl ives
Ġcontin ue
en ed
ip le
Ġm i
Ġst e
Ġl og
Ġref lect
v al
Ġhelp ful
s elves
Ġp ut
Ġris k
Ġrecommend ations
____ ____
Ġemot ions
Ġle g
p ite
a pp
ig ate
row n
ove red
Ġhigh light
Ġthe rap
Ġca us
Ġb le
Ġgu id
Ġpa per
Ġse em
Ġaut hor
in a
ĠĠĠĠĠĠĠĠ ĠĠĠĠĠĠĠĠ
all s
Ġsk in
Ġhealth care
Ġvide o
Ġs ize
Ġeng agement
Ġquest ions
Ġh ours
Ġ |
Ġatt ention
Ġpre ss
Ġl ive
Ġsum m
Ġrele vant
Ġknow ledge
id s
ĠC ons
Ġsp ir
Ġh y
Ġal g
( "
Ġm akes
Ġrec ogn
ell ing
Ġproject s
Ġgar lic
p ar
Ġch oose
ore d
Ġf ru
Ġbec ame
g ing
Ġp rior
f or
Ġapplic ation
ĠM ay
nd s
Ġm ob
Ġb ar
Ġpro te
po on
Ġful l
Ġquick ly
irt ual
Ġresult s
Ġd aily
Ġt our
ĠM ake
pt ion
Ġey es
um p
il i
Ġdetail ed
Ġfact ors
Ġbe gin
Ġprofess ional
Ġdig ital
he l
rehe ns
Ġcount ry
Ġpower ful
Ġsat is
Ġman age
ĠB l
Ġyour self
Ġcon vers
is ed
g round
Ġd ays
t ers
Ġthough t
Ġrest aur
Ġa ction
Ġorgan izations
Ġtem per
on se
Ġbeaut iful
Ġbeaut y
ill ing
i k
i ver
Ġb owl
g ed
Ġar ch
Ġh om
u ment
Ġexpl ain
Ġcount ries
Ġbl ack
Ġd ue
Ġad apt
ĠA ll
itud e
Ġenh ance
ĠA m
Ġp ort
xt ure
Ġtast e
at ives
Ġcreat ive
Ġcommun ities
Ġcl imate
Ġc ooking
Ġgu ide
f er
s h
Ġ ill
) :
u ro
Ġanx iety
il t
Ñ ı
Ġw in
Ġsur round
Ġsur v
Ġcont ain
olut ions
Ġ &
Ġwor ds
Ġse en
. .
re ci
Ġgl ob
Ġprovid ed
Ġeffic ient
Ġcons ist
Ġco ol
av ing
Ġpl ant
Ġincre ased
ter ns
I n
Ġd est
b on
Ġm ach
Ġass oci
Ġper iod
Ġl iving
Ġest ab
Ġim ages
Ġt ri
ill ion
ato es
Ġcomp rehens
Ġsuggest ions
Ġst at
le br
Ġ err
ĠH er
Ġreal ized
it es
Ġto m
Ġvar i
he ad
Ġdis hes
Ġs ing
Ġess ay
Ġ ut
Ġmult iple
Ġatt ract
Ġam az
Ġne ar
Ġab ove
Ñ ĭ
Ġeff orts
b ook
Ġm aj
Ġadd ing
Ġbehav ior
Ġco ver
Ġincre asing
Ġstr ing
Ġlit tle
Ġrepres ent
Ġt ou
em ic
Ġsle ep
ĠI nt
le y
Ġa ware
Ġcomp ut
Ġstrateg y
Ġan t
ĠEn g
Ġb ig
Ġenvironment al
Ġg iven
Ġa im
ĠO nce
Ġc ru
Ñ Į
Ġim ag
Ġg ain
Ġpat terns
at ors
Ġb ud
Ġmi xture
Ġs low
Ġwas te
Ġex ce
Ġtas ks
Ġloc ation
Ġf avor
Ġwe b
Ġar r
Ġdis e
Ġe ver
Ġth in
ow s
Ġcreat ed
ĠT ra
Ġdel icious
Ð ¼
Ġal m
Ġw ond
Ġf oot
um b
ĠO n
Ġapp reci
Ġt akes
Ġconc lusion
Ġencoura ge
qu ality
Ġvers ion
pe cial
Ġa p
Ġcould n
ac y
c king
Ġmon it
ul ation
op s
Ġen ough
ĠO r
Ġyou ng
t he
en ge
ast ic
Ġcost s
Ġsome one
olut ely
Ġval ues
Ġrem ain
ve y
Ġsmo oth
ic ed
ĠWh ile
o f
Ġse lect
Ġem b
Ġtry ing
Ġrelations hip
Ġl ov
or ith
ĠC omp
as c
Ġshow c
Ġpo em
Ġf ield
in al
Ġrem ind
Ġpartic ularly
Ġinit i
o ice
Ġsa w
Ġm en
Ġcon ditions
ĠC he
Ġlearn ed
Ġcomprehens ive
im ately
est s
ĠR o
Ġdev ices
Ġbal ance
s p
m an
m a
p ose
Ġhig her
ĠS oc
iven ess
Ġdis play
ic le
ĠM ed
Ġg en
Ġ +
Ġinvol ves
Ġbeh ind
Ġopt ion
Ġorgan ization
Ġs ource
Ġe gg
Ġp ric
Ġinterest ing
Ġhe av
Ġc ell
Ġresp onse
it ect
Ġtoo k
ĠC ar
Ġher self
Ġl ower
nd ing
ĠA pp
Ġpersonal ized
ang er
Ġs ince
ers on
out h
Ġmin im
ivers e
Ġon ce
Ã Ń
ivers ity
Ġem erg
Ġalg orith
t t
Ġp age
Ġw ar
Ġs olutions
c er
ĠK e
Ġapp e
ĠS u
Ġmed itation
Ġpie ce
Ġtechnolog ies
ĠC omm
ĠP h
d ing
Ġcom es
ĠL e
Ġinst all
Ġadd ed
ed s
Ġas k
iz z
Ġt ables
ĠT r
Ġhapp y
Ġsim ilar
Ġb ur
Ġthem selves
Ġcomm it
ad o
Ġdid n
Ġear ly
Ġw a
Ġexperi enc
ac hes
Ġeng ine
n a
ach ing
ĠW ow
Ġlik ely
Ġto day
Ġsc he
Ġc ame
Ġar ray
Ġh ouse
Ġel se
Ġmod el
ĠFin ally
c ent
Ġsu gar
ĠAn other
Ġst ructure
w er
ur s
oo gle
Ġactiv ity
Ġs ong
ĠO f
eng th
Ġmaj or
et y
Ġj u
g o
Ġt al
m ed
Ġdevelop ing
c y
ĠM y
Ġsymb ol
Ġl ost
Ġl if
Ġle ast
Ġce lebr
ph as
Ġreg ular
Ġmob ile
Ð ²
Ġim age
Ġme ans
Ġelect ric
-- --
ĠĠĠĠ Ġ
Ġtr ust
Ġprote in
Ġmind fulness
Ġext ra
Ġpre d
Ġinvol ved
Ġd am
Ġwh y
Ġpol it
ĠRem ember
Ġh ab
Ġtrans form
Ġexp ress
Ġw alk
Ġit ems
Ġd ream
Ġstreng th
Ġamaz ing
Ġcampaign s
Ġ *
Ġbud get
Ġ ur
Ġo l
Ġrel ax
Ġs lic
u ck
Ġg ard
ific ation
Ġw ide
ĠN ame
y th
Ġimpro ving
ĠF r
Ġexerc ise
Ġst ories
Ġex ist
ĠAmeric an
Ġv irtual
Ġbec om
Ġfac ed
Ġor ig
Ġcrit ical
Ġarch itect
Ġatt end
ĠM an
Ġca use
ip ment
Ġcho pped
Ġmethod s
ir c
Ġle aves
Ġtru e
Ġment ion
Ġcont act
Ġto wn
Ġback ground
Ġrel ated
Ġcall ed
ĠA fter
e xt
ĠM e
y stem
Ġinst ead
Ġreg ion
Ġal tern
Ġeas ily
Ġgener ate
Ġl ot
Ġnet work
Ġw ood
Ġins ights
ou d
ff ee
Ã ¡
du le
ĠPro v
Ġr ates
Ġpe ace
ĠJ ack
Ġsu per
ĠA bs
E R
ĠL et
Ġgo al
Ġf arm
er a
i ans
Ġsal ad
r ist
Ġcru cial
Ġon es
Ġinterest ed
al y
Ġinst ructions
m in
Ġpart ners
Ġcl ients
ric s
Ġd one
ĠAl so
Ġpoint s
iv ate
o k
Ġas pect
Ġpat h
Ġgroup s
ul l
ĠS al
h ood
d en
Ġad vert
Ġem phas
h a
Ġpre ferences
Ġlo ss
Ġd ress
Ġy og
Ġf ire
Ġw al
ak en
Ġter ms
Ġconf lic
Ġexerc ises
Ġset ting
Ġs ent
Ġevery one
st er
ĠS m
Ġeng age
ĠTh anks
Ġtext ure
Ġhist or
l ife
y le
" ,
ĠC ont
y m
Ġdem on
ist ics
oc ol
Ġchall enge
Ġre v
Ġb it
ĠDe velop
Ġdem and
Ġfe ar
c ient
Ġglob al
Ġsa ve
Ġs ay
Ġu nd
iss ions
ĠTh ank
Ġp arent
Ġr ich
ĠAbs olutely
Ġallow ing
i ency
v ious
Ġst re
Ġs qu
be ing
pecial ly
ĠA v
ens ive
Ġfavor ite
Ġd oc
Ġdet ect
Ġ3 0
Ġfil m
Ġexce ll
5 0
Ġfore st
rast ructure
Ġassoci ated
u ff
ĠĠĠĠ ĠĠ
Ġanim als
Ġmeas ure
ens ion
Ġc ertain
Ġtherap y
Ġwh ite
ĠÐ ¿
Ġf ar
t ics
a ks
Ġget ting
Ã³ n
is p
Ġcol lect
Ġha ving
Ġpromot ing
Ġ1 2
Ġt able
g est
Ġc ou
u able
Ġsoc iety
ĠM arket
Ġbre ad
Ġd iet
a i
ict ion
Ġpl ants
Ġmil k
Ġes pecially
Ġe t
ĠC o
Ġm oney
Ġcent er
Ġapplic ations
ĠCons ider
ĠG oogle
Ġsh ap
ap s
Ġo ven
c ks
Ġcon duct
ial s
oy al
s et
ĠA cc
Ġf ig
Ġtou ch
Ġsec ure
Ġd ry
Ġrec ord
ear ch
Ġwee k
Ġchalleng ing
Ġmean ing
Ġopportun ity
f ree
Ġfocus ed
A R
Ġthough ts
r ig
Ġs av
c ast
r ated
ic les
Ġdes crib
op t
1 0
Ġany thing
il s
Ġsc ient
u fact
Ġpow der
Ġpos ition
Ġt im
Ġsub st
i os
Ġb aking
Ġcar bon
Ġtemper ature
Ġequ ipment
Ġstud ies
Ġrout ine
ur t
Ġs ess
ĠW or
ĠEm ily
Ġan n
Ġplay ed
Ġrequire d
Ġd at
ash ion
Ġsh o
Ġr ate
olog ical
ĠSoc ial
Ġfre qu
Ġexper iment
Ġcare er
S t
Ġol ive
= "
Ġart ists
Ġs us
l ished
' d
Ġhand le
Ġspir it
Ġover come
ĠR ed
Ġincorpor ate
ĠD r
Ġlit er
Ġproble m
Ġfor ward
Ġhigh ly
ĠS et
Ġw atch
Ġtra ffic
Ġcomple te
. ,
Ġg ames
it ch
Ġa ssist
Ġf ish
Ġaff ord
ct or
ĠDes pite
Ġut il
ram e
Ġinf rastructure
Ġem p
Ġme al
or age
Ġs il
Ġrec ip
Ġwork ed
Ġint rodu
in ary
Ġw ild
a ff
h old
Ġm el
Ġsol ar
Ġhand s
Ġeas ier
y ing
Ġ2 00
Ġ i
Ġco ffee
Ñ ĩ
Ġc u
Ġar g
ad es
le ction
Ġapp ear
Ġf all
Ġdra w
Ġp air
Ġw ent
un te
Ġwe ather
it le
Ġcl ose
Ġbelie ve
Ġbl og
Ġch ann
Ġsaf ety
Ġf est
ĠP r
ĠQ u
Ġe lement
pl ic
Ġmed ium
Ġpolic ies
Ġdevelop ed
anc ing
Ġl at
ter m
Ġout side
ĠA f
ar ies
Ġv oice
Ġcal cul
Ġpow ers
u ild
Ġwe ight
pect ive
ĠUn ited
Ġst ream
Ġplay ers
Ġrec ent
Ġwhe ther
t ies
s y
Ġlead ers
Ġmat ter
Ġr ice
Ġf our
Ð ´
Ġimplement ed
in o
ec ut
Ġthem es
p ri
Ġnum bers
Ġdec ision
Ġfin al
Ġfl av
Ġ ult
n ed
Ġst ir
Ġlong er
o ss
Ġmed ical
ĠS am
Ġquest ion
Ġc ard
Ġf ight
Ġval uable
Ġcre d
Ġha ir
un e
al f
Ġvide os
an a
Ġm ax
Ġ1 8
Ġcho ice
Ġwho le
ast ed
m it
Ġnew s
ag s
Ġadv anced
Ġgra ph
in it
Ġser ies
Ġfit ness
Ñģ ÑĤ
ocol ate
N T
Ġac ad
ct ions
Ġc irc
Ġth r
fere nce
Ġpr im
ugh t
t ings
ĠC ent
Ġun c
ĠÐ ²
Ġpie ces
Ġseem ed
ir m
Ġmeas ures
Ġg e
Ġdo ing
Ġman ufact
idd le
Ġcontin ued
Ġconc er
ly ing
Ġdemon st
u x
Ġd ance
k y
Ġb i
Ġ X
ic ro
ap an
Ġexcell ent
Ġan cient
is ions
he nt
Ġupd ated
Ġb rown
at itude
oo p
Ġhe ar
Ġaware ness
Ġser ve
Ġd anger
Ġmach ine
Ġexper t
Ġpl ans
ac hed
ĠR ec
Ġdec or
Ġsaf e
Ġb ase
Ġcon cept
ĠD on
ag ram
Ġpract ical
Ġloc ated
ĠE l
Ġspe ak
Ġf illed
Ġ1 5
Ġh ost
Ġent ire
Ġconnect ion
y ond
Ġs ort
on y
re l
Ġt aken
l er
Ġte as
Ġadv ent
Ġpre vious
Ġsp read
Ġro ll
ĠE uro
Ġme at
Ġph one
Ġc am
ag on
Ġob st
Ġbr ight
Ġact ive
ĠP lease
ir ing
Ġg old
Ġd ed
en a
read y
iel ds
ĠUn iversity
Ġdist ribut
om s
Ġd y
Ġprior it
Ġproduct ivity
Ġst ra
p re
ĠM any
ĠD is
m osp
ograph y
Ġmention ed
Ġrece ive
ĠThe ir
Ġsc en
Ġm ount
à ¹
ĠSt ud
Ġbu ilt
Ġre ven
Ġm or
ch an
Ġve gan
Ġappro pri
ĠA lex
f s
Ġt ried
Ġf ail
ĠT w
Ġsm art
ĠH is
w w
Ġth ing
Ġplan ning
Ġshare d
Ġlov ed
Ġrel ig
Ġw rite
Ġpurch ase
Ġconst ant
Ġeffic iency
Ġtre es
ĠJ apan
Ġproble ms
Ġg ot
Ġtreat ment
] ,
h ing
ĠA I
Ġlim ited
Ġmon ths
Ġth ick
Ġg as
Ġst orage
Ġla w
Ġf lex
Ġa ge
am ed
Ġsu it
Ġfl our
bo ard
Ġat mosp
ĠT ake
ron ic
Ġincorpor ating
st ep
ĠU S
Ġinteract ive
id ge
Ġf ashion
ĠS im
Ġf u
Ġb ir
Ġsc ript
ful ly
ĠCh rist
Ġal ready
at t
Ġm illion
Ġgreat er
Ġh or
ric t
ra d
Ġb ooks
ĠEuro pe
Ġadv ance
Ġpur pose
Ġsur face
Ġl ooks
ric ult
Ġshow s
init ely
Ġtest ing
Ġab s
Ġpre c
Ġra d
se qu
un g
Ġprodu ce
al u
ĠP e
Ġcreat ures
art ment
ver age
Ġcontribut e
Ġso on
z z
in ks
il ies
s es
Ġrel i
Ġdesign s
Ġobst ac
h ib
Ġs and
Ġsty les
Ġident ity
ĠAf ric
Ġoffer ing
Ġf ra
is on
Ġcommun icate
Ġpolit ical
ol l
Ġmem ory
il ing
Ġestab lish
Ġexp and
Ġju ice
Ġre ality
com es
ul ate
Ġfeel ings
oth ing
Ġm atch
r ition
Ġl os
Ġsc ience
Ġadvert ising
Ġinterest s
n al
Ġbe yond
n ot
Ġab ilities
Ġv ivid
ĠR eg
1 9
r or
ĠA g
Ġro b
Ġsh ape
il es
' ,
Ġs ite
Ġrun ning
Ġdepend ing
Ġhelp ing
Ġsc reen
Ġnav igate
Ġinflu ence
b an
Ġimpro ved
Ġw on
ĠC al
Ġan s
Ġ .
ir l
Ġwas n
Ġcomp on
e per
in ating
et ry
am b
Ġl oyal
sy ch
Ġev alu
Ġwor d
Ġem issions
Ġm ass
at ory
Ġoptim ize
Ġfam ous
ĠF ace
Ġli br
Ġsing le
ag er
lud e
Ġde ad
rough t
Ġrequire s
ar c
Ġl ab
et er
Ġexperienc ed
ic a
Ġse ction
Ġout d
Ġrem ove
Ġc oc
o le
O N
ĠP art
Ġeconom y
Ġcomfort able
Ġpro pos
Ġbl ue
iss ion
Ġallow ed
Ġimplement ing
Ġwom an
r ant
Ġiniti atives
pr int
re ct
Ġl ink
Ġaut hent
Ġinvest ment
Ġent er
ro ll
ĠG ener
ĠCh oose
Ġout put
Ġsh own
Ġth reat
Ġlim it
Ġdr ive
Ġinc red
Ġins ide
Ġindust ries
Ġrestaur ant
Ġsc ene
s u
Ġanaly ze
ĠN ational
Ġflav ors
Ġmove ment
Ġal one
Ġsou p
ĠTh rough
Ġf ast
ar ian
Ġb ra
Ġle ave
Ġfor ms
Ġ Ñģ
Ġse par
Ġserv ing
Ġclass ic
Ġstud ent
Ġme chan
Ġsh aring
Ġcomple t
P I
serv ation
Ġrequire ments
Ġf asc
fact ion
ĠP re
Ġmy self
Ġte ac
Ġse a
et ic
Ġadv ant
Ġsk y
Ġres il
Ġwork out
ig ation
Ġvol unte
Ġcolle ction
Ġsub ject
ĠProv ide
Ġfin ally
Ġtru ly
Ġtre nds
Ġland sc
Ġacad emic
Ġgr atitude
c he
Ġinnov ative
E S
ĠG u
ĠÐ ¸
ĠHe alth
Ġve h
Ġform at
um e
Ġspe ed
Ġact ions
Ġdisc overed
i Ã³n
Ġout comes
l a
ic y
ĠAcc ording
ĠF e
Ġpat ients
Ġcollabor ation
id ed
Ġs olution
Ġb ott
ĠN o
Ġart icle
Ġwond er
ĠFace book
Ġsu bs
Ġcu is
Ġimpact s
ĠC om
l am
Ġbl ood
Ġpass age
Ġde ath
Ġvisit ors
Ġread y
Ġtas k
Ġoff ic
Ġsumm ary
com ing
Ġatmosp here
Ġt ail
Ġp ush
Ġcook ed
Ġpartic ular
Ġch at
Ġappropri ate
/ /
Ġrecip es
Ġes c
Ġread ers
in c
ic ing
Ġparent s
b or
Ġdiffere nce
Ġdes ired
Ġro ad
Ġtyp ically
Ġpass ion
oura ge
Ġbl ock
o very
o on
Ġsitu ation
m ar
Ġc op
Ġstart ing
Ġval id
Ġt one
Ġh ol
ac ed
Ġc and
oun ter
ĠÐ ½
Ġwrit ten
Ġprofess ion
Ġon to
Ġpress ure
Ġp ict
Ġerr or
i am
um ber
Ġarchitect ure
Ġcons id
Ġfru it
Ġup on
Ġinst ru
Ġimp ress
Ġso il
Ġafford able
ab ilities
ĠAr t
ĠIn g
h ouse
ĠB r
Ġfind ing
Ġiss ue
Ġev idence
Ġlar ger
Ġhe ld
Ġw orth
Ġfr ont
l ut
A S
Ġgra du
Ġexpect ed
ell ig
Ġl ength
p ly
Ġb ed
Ġfam ilies
Ġens uring
Ġexpl oring
Ġteas poon
Ġch ocolate
ĠSt ates
Ġdeterm ine
Ġde eper
Ġw id
Ġp ark
ĠM on
ific ations
Ġsignific ance
Ġinclud ed
Ġwant ed
Ġb and
ĠE ach
ill a
Ġreg ularly
ĠRes earch
Ġvis ually
am ple
Ġpart s
Ġgrow ing
ĠG ree
Ġful ly
ĠA ss
Ġinst ance
Ġey e
Ġth ird
Ġpat ient
Ġon ion
oo st
Ġplay ing
Ġtechn ique
un ning
Ġt ree
lo ad
ce an
Ġgard en
word s
Ġag ricult
Ġw ine
o ke
Ġeff ort
Ġy et
Ġmus c
Ġd ate
Ġcon vey
ĠB ased
Ġsustain ability
Ġd ou
Ġreven ue
Ġconcer ns
Ġass ess
Ġlat est
Ġle mon
Ġrem ote
Ġresp ond
Ġdam age
Ġcomb ination
Ġbenef it
Ġal ign
Ġdoc ument
Ġv ict
d ed
ke y
Ġble nd
Ġtra cking
Ġdev ice
Ġt alk
Ġsatis faction
Ġreg ard
Ġc yc
Ġhe ard
Ġeffect iveness
o int
Ġpres ence
Ġsp ent
Ġex ecut
Ġb rain
Ġaffect ed
Ġrem ember
Ġimm ers
Ġemploy ee
ĠG r
Ġd iv
Ġt ax
ĠKe ep
Ġaltern ative
( '
Ġgl ass
Ġlook ed
Ġscho ols
Ġmax im
Ġdec isions
A T
Ġprocess es
Ġpr ice
ĠSt art
Ġto t
ib er
Ġconst ruction
Ġ ri
ser t
Ġbat ter
Ġfe et
Ġdise ase
qu e
Ġoper ations
Ġv ib
ure d
Ġbo ard
Ġst ri
Ġdat ab
ĠP er
Ġspec ies
Ġro ck
pect ed
i ers
ĠTe chn
ĠIng redients
Ġread ing
Ġmom ents
Ġl ater
id ents
ri ef
Ġappreci ate
ĠWor ld
Ġsupp ly
re w
m y
Ġl ines
Ġmon th
ov ers
Ġde g
ad a
Ġdef initely
Ġra in
agon ist
Ġteam s
Ġre ve
Ġhim self
Ġl ack
Ġp al
Ġ Â
Ġacc ur
: //
Ġintern ational
Ġh alf
ul es
Ġprom pt
Ġgener al
idd en
ĠP ar
3 0
ed i
Ġf rame
cho ol
Ġshowc ase
pp ers
Ġf ive
Ġh on
Ġj oy
Ġthin king
en n
Ġconsid ered
Ġse eds
on ut
ĠF rom
Ġany one
Ġris ks
Ġinfluenc ed
Ġh oney
k a
ist er
Ġdep ression
he t
et imes
Ġmiss ion
it ary
Ġde b
wor ks
Ġturn ed
ff ect
Ġtop ics
Ġac cept
Ġcomp os
E O
ru g
Ġcuis ine
ren ch
Ġread er
Ð ·
Ġe co
Ġk n
i very
Ġchann els
Ġh arm
Ġnum er
Ġhy d
Ġear th
Ġst aff
Ġin j
Ġr ather
Ġwee ks
Ġ1 1
ĠS ec
it ter
) )
Ġproper ties
ĠL a
Ġbuild ings
Ġpain ting
Ġres ist
Ġprot agonist
ĠO ff
l ies
if ically
ie f
ough t
Ġf a
ĠĠĠĠĠĠĠĠ Ġ
Ġaccess ible
Ġst op
Ġpr ivate
Ġde al
Ġwom en
Ġret ail
r s
Ġinvol ve
ĠH igh
Ġm it
ĠInst agram
Ġslic ed
Ġsmall er
Ġdist ance
ru pt
ogn itive
Ġs light
Ðµ Ð½
Ġdel iver
Ġf ab
l ines
Ġher bs
Ġrec yc
ĠComm un
Ġserv ed
Ġsignificant ly
Ġmod els
Ġsche dule
Â °
Ġst ret
ĠMarket ing
ord er
ten ance
Ġanaly tics
Ġadv ice
Ġsp orts
Ġcol d
e k
Ġexp os
Ġinit ial
ĠChe ck
Ġno vel
Ġreg ions
ent al
ĠV is
ar a
us ed
ĠC ustom
ens es
Ġdisc over
in ated
ĠF l
f it
Ġc ast
Ġsp ices
Ġd iverse
Ġh op
e um
ĠS oph
m ore
ir ation
Ġ ice
Ġb rought
Ġe c
Ġcor rect
Ġcreat ivity
Ġc atch
Ġun a
ĠA re
ĠS outh
ĠU sing
Ġpre fer
ĠR ep
Ġhistor ical
Ġrece ived
Ġobstac les
ing er
Ġre lease
Ġto w
ĠA ct
yth on
Ġtra de
ĠO ut
iv il
Ġcont ext
Ġg rand
ĠEn joy
in i
Ġgre w
Ġtom atoes
ap ter
Ġev ol
ĠInst ructions
Ġ x
Ġbo x
Ġn arr
Ġcl ient
N A
itut e
Ġoff ice
Ġf ields
Ġcomput er
k en
Ġpolic y
ĠB ar
y l
Ġocc ur
Ġdy nam
Ġcomp ared
Ġstrugg les
Ġalm ond
Ġne igh
Ġg iving
Ġk it
Ġ ver
Ġper cent
Ġlet ter
Ġheav y
Ġalgorith m
ĠCon c
Ġcour ses
Ġsp r
Ġlead s
end ed
Ġpl aces
Ġb an
Ġredu ced
ĠE ar
Ġtri p
Ġm ist
it her
Ġpart ner
Ġset s
Ġm as
Ġd ough
b all
i pped
ic ated
Ġmaintain ing
Ġcon sequ
Ġimplement ation
por ary
for ce
av a
Ġp sych
Ġshe l
ä ¸
Ġbelie ved
Ġd om
ĠE ns
ul ner
Ġcup s
Ġthem e
Ġint ric
Ġphot os
ĠP ark
ĠM ore
Ġp od
l ike
Ġwork ers
Ġult imately
ÑĢ Ð°
Ġ1 00
Ġapp s
ell ow
Ġm ood
Ġh osp
Ġpl astic
Ġprofession als
Ġcult ures
Ġchang ing
Ġc at
Ġplay er
Ġc ross
Ġint ellig
Ġobject s
v est
ur ance
ĠIn tern
Ġex cept
Ġa head
Ġsatis f
ï ¼
Ġb oost
Ġcell s
id ing
it or
Ġfund ing
i ol
Ġflow ers
Ġex hib
Ġdep th
Ġtw ist
Ġveget able
Ġcom ing
ser ve
Ġanaly z
Ġrespons ible
Ġclass es
1 5
Ġnut rition
ĠC ook
Ġdel ivery
Ġtechn ical
z y
Ġind e
g ment
ĠW ar
Ġoutd oor
ur ies
ate ful
Ġcent ury
Ġad opt
im p
a u
Ġmonit or
Ġplan et
Ġsum mer
Ġm other
Ġinc ent
Ġdirect ly
Ġch ance
ĠP ract
Ġle aving
d om
Ġprep are
ĠHe y
Ġcompet ition
ot es
ĠC ity
Ġr ise
Ġv ulner
it ors
Ġbe ans
c hen
Ġtot al
Ð¾Ð ²
ire s
ĠG reat
ul a
Ġcreat es
ĠS w
f ast
Ġpriorit ize
Ġappe aling
Ġme als
Ġmus eum
Ġmem ories
Ġnot hing
Ġdoes n
c l
Ġimm edi
enc ies
Ġcr isp
Ġl as
Ġsh ad
Ġg ather
Ġcaus ed
Ġegg s
Ġwal king
u ments
Ġdisc ount
Ġte a
tt ps
ĠM us
ĠN e
ra ce
Ġ ic
Ġh idden
Ġcomplet ely
Ġguid ance
Ġill ust
Ġsess ions
Ġbas ic
Ġcont rast
ĠW ill
b re
Ġproper ly
c omm
________ ________
le ar
Ġsitu ations
Ġuse ful
Ġsuccessful ly
ĠT om
l ist
ut h
Ġinter face
1 2
Ġbecom ing
ĠD uring
ĠPro g
Ġcan cer
um n
Ġt erm
Ġstrong er
Ġbu y
Ġdatab ase
Ġc ities
is k
Ġc ases
ĠL ily
Ġover w
Ġst ruct
Ġconsist ent
Ġresil ience
Ġbel ow
Ġcra ft
ĠP ol
Ġqu al
Ġorig inal
Ġaspect s
Ġapp ly
Ġalm ost
Ġp et
Ġc ognitive
Ġchang ed
Ġorgan ic
Ġmem ber
Ġyog a
Ġt a
Ġre b
Ġo pp
ĠMay be
Ġh un
Ġp ick
Ġte le
ĠEns ure
Ġbrand s
ore s
ra ft
Ġgr ateful
Ġfood s
Ġconflic t
Ġf ro
Ġw at
Ġfor ce
Ġc in
Ġconsequ ences
ĠM ix
Ġpot atoes
Ġcontin u
Ġbe ef
Ġn amed
Ġsens ory
ur ch
Ġrecommend ed
w h
Ġst unning
Ġh ous
Ġv ac
I N
ĠA ust
ĠEm ma
Ġret ur
Ġs old
n ame
Ġslight ly
ĠG o
ĠJ ust
Ġpost s
ĠS ystem
Ġreview s
Ġstre et
im s
Ġmet rics
Ġh it
Ġloyal ty
Ġcl a
ĠG e
Ġ1 6
Ġo cean
< /
ĠD ef
ang ing
Ġcoc onut
fere d
Ġd a
Ġlay er
Ġc ateg
Ġp ages
y d
Ġc ry
Ġlight ing
Ġconc ise
ar p
Ġpar a
ĠJ o
pt y
Ñ ħ
Ġche m
] .
Ġmen u
c ol
Ġexpert ise
r ong
ĠInd ia
Ġag ree
Ġof fered
ĠTr ans
du c
Ġmain tenance
Ġadvent ure
Ġre act
A C
now n
Ġapp l
Ð ¿
Ġwebs ites
l ier
ĠA ut
Ġadd s
Ġv an
ab ly
Ġintric ate
om pl
ĠÐ ¾
up s
Ġb all
Ġeduc ational
Ġdo or
ag n
Ġinc ome
Ġl ate
Ġlo ad
ĠF rench
ĠE very
Ġdec re
ĠEn c
el ess
Ġdescript ions
Ġtables poon
Ġcom ments
Ġdeterm ined
um in
Ġg ift
Ġv ary
Ġmov ie
d own
Ġtra ditions
Ġcolle ge
Ġcre ation
Ġcont em
Ġp ap
Ġcon dition
Ġsp ot
ĠF irst
Ġsim ply
Ġoverw hel
Ġresult ing
Ġmess ages
ĠE d
Ġrestaur ants
ib ilities
Ġmov ing
Ġ2 5
ĠG l
Ġcl ick
Ġworks h
ous ly
Ġc ro
Ġrelig ious
Ġanim al
room s
Ġf illing
Ġits elf
in ct
Ġupd ates
Ġacc ompl
ĠT ry
Ġexist ing
Ġpart y
Ġmil itary
Ġcur ious
ak ers
is ms
Ġcl othing
Ġrequ est
Ġt ut
ĠDes ign
Ġcal m
Ġproper ty
Ġfasc inating
Ġm ap
Ġdescript ion
Ġstrugg ling
Ġlandsc ape
Ġf at
Ġch ain
Ġv ine
Ġpric ing
Ġsym pt
Ġbro ad
Ġmeet ing
Ġb ond
Ġus age
ĠV e
s m
Ġset tings
Ġwe ak
Ġinnov ation
Ġnumer ous
A N
ify ing
lus ive
Ġman aging
Ġur ban
ĠGree k
Ġcar ry
g r
Ġr h
Ġgl ut
ĠConc lusion
Ġst age
ffic ient
ĠâĢ ¢
ĠSer ve
ĠN orth
f low
ĠV al
Ġext ract
Ġt ension
Ġmove ments
g en
ĠÐ º
el ing
er ia
Ġmor ning
Ġmag ic
, âĢĿ
ic ip
Ġdr iving
er ce
Ġalgorith ms
Ġpred ict
Ġg ent
Ġcl im
Ġmotiv ated
Ġenc ount
Ġpay ment
Ġus ually
Ġspec ifically
? "
Ġhab it
if f
Ġfil es
Ġap art
E n
or ation
Ġw alls
Ġstore s
in ner
oc ado
Ġspirit ual
Ġh ar
Ġ ir
on ic
Ġg ave
ĠJ ames
i pping
w ater
Ġpass ed
I C
Ġfru its
h t
ĠP erson
Ð ¹
Ġparticip ate
Ġinter view
Ġis land
Ġr u
Ġ ĉ
oc al
Ġeng aged
it age
Ġsumm ar
Ġm iddle
ul ations
ĠAn aly
Ġsympt oms
ĠCh ar
i us
ac ity
Ġs now
em ade
er al
Ġnut ri
us ion
Ġdec ided
Ġide al
Ġstrugg le
Ġqu ant
Ġpe ppers
Ġimpact ed
o x
Ġbreath ing
Ġm ark
ĠCh ina
Ġjo bs
Ġis ol
f u
ĠD ay
ĠInt rodu
Ġtrans l
Ġlibr ary
Ġd rug
Ġcontin ues
Ġimag ery
ĠInc lude
Ġfig ure
ĠPl an
Ġcapt ure
Ġser ver
id ay
Ġnut s
l og
ĠA b
ĠY ork
Ġinfluenc ers
ĠH ar
Ġex ch
r ont
or ial
Ġ1 4
Ġt err
ch ol
Ġpric es
Ġre ason
Ġrese arc
ĠS chool
ic ks
as ure
h ost
ĠA PI
Ġg irl
ib ly
ub lic
Ġcomp lement
Ġassist ance
Ġdescript ive
ak ed
Ġpol lut
Ġe p
Ġocc as
ord ers
Ġtra in
Ġimprove ment
" )
Ġparticip ants
Ġexc iting
Ġview s
Ġc ivil
ĠO ther
ass ion
Ġv ill
Ġconsum ption
A Y
Ġsho pping
Ġte nder
ub e
k nown
ur ation
ĠF urther
Ġinv ent
Ġun s
Ġ5 0
al es
Ġkeep ing
uild ing
Ġm is
Ġt sp
ult s
Ġd ess
Ġd iced
Ġmonit oring
Ġprim ary
ĠSt ate
ens ity
Ġdise ases
Ġd ial
i ation
Ġatt ack
Ġinst itut
g y
Ġbut ton
Ġsee k
Ġm id
Ġpers pective
Ġachie ving
Ġscient ific
po ons
Ġbelie fs
Ġsp aces
O R
Ġro asted
in ations
Ġspe nd
Ġfarm ers
orpor ate
ĠU s
m at
Ġam b
Ġb old
Ġf air
and s
Ġinsp ired
so le
Ġpast a
Ġans wer
Ġw all
Ġlif est
Ġe ither
il let
Ġlist ening
Ġb ell
Ġleaders hip
Ġd og
Ġm icro
Ġconf idence
Ġtop ic
den ly
Ġa th
Ġwe ar
Ġ= =
Ġass ign
Ġpl ays
Ġsus p
" >
ĠSer v
Ġprocess ing
Ġclean ing
ĠD av
Ġe ating
Ġqu ite
el ines
ĠD et
I D
Ġreli able
Ġhom es
n um
Ġcont ains
Ġc row
Ġse ctor
ill er
Ġun ex
Ġautom ation
ĠInd ian
ĠM ind
Ðµ ÑĤ
ĠPl ace
Ġwa it
ĠG od
ines e
Ġcl oud
Ġfil ter
ĠO pt
Ġr an
Ġfu el
ĠR om
Ġbecom es
el ine
Ġstate ment
Ġelectric ity
ath y
ĠProg ram
ĠO p
Ġart ist
Ġn ational
Ġwill ing
Ġgu ests
Ġen ab
Ġstr ange
Ġp ul
Ġbott om
Ġc as
Ġintellig ence
ĠC ut
Ġlist en
t ra
Ġt ight
Ġl oop
ĠAv oid
ber ries
ov es
Ġad s
Ġsur pr
ĠB rit
ĠE duc
Ġbat tle
em pt
Ġstat us
ĠN et
Ġveget arian
Ġpl ot
Ġslow ly
Ġdiffere nces
i ate
w here
Ġen able
Ġpo etry
Ġn orm
ative ly
ĠN ow
Ġinde pend
Ġnarr ative
Ġb ul
Ġsurround ing
" .
Ġdescrib e
i ors
Ġmus h
Ġs ac
g on
Ġw aves
Ġclos er
pe c
Ġsm ell
b acks
Ġrep ut
Ġl ux
ĠB us
us hed
ers e
ul pt
Ġconf ident
Ġg od
ĠA c
ri e
Ġcompet itive
ut e
Ġre nt
Ġsou l
ant ic
i king
Ġsc hed
Ġfab ric
se c
Ġmo ist
2 5
Ġinter vent
ĠT est
Ġal ive
Ġglut en
go ing
Ġla unch
Y our
Ġexc ited
d ate
as ons
Ġcam era
ĠH ave
Ġre pe
Ġfor g
Ġc it
ĠTw itter
ĠI NT
in ate
Ġsp in
Ġsk illet
ac ing
ic ine
i ance
Ġrelax ation
ĠGener ate
Ġ1 3
r ating
Ġmag ical
Ġresearc hers
at ures
u ge
Ġconsum ers
Ġsec ret
Ġw ed
Ġun iverse
ĠÐ ¼
Ġesc ape
Ġent ertain
Ġc her
ĠN ot
Ġsuit able
it ate
Ġc ere
Ġcon ven
ad d
Ġ rom
ĠW he
Ġpat tern
Ġcommit ment
Ġvib rant
ç ļ
ĠI d
Ġfollow ers
Ġcan not
W e
Ġfest ival
U T
E D
Ġc y
Ġv iol
het ic
Ġre place
Ġmag n
Ġdress ing
Ġgent le
ÑĤ Ð¾
Ġpract icing
Ġwe alth
Ġv ast
Ġrecogn ition
ĠInst ead
Ġbe ach
çļ Ħ
---- ----
Ġhum ans
Ġerr ors
Ġhot el
Ġw it
ent y
Ġed ge
Ġprep ared
ĠâĢ Ķ
Ġexp ression
Ð ±
Ġmix ed
Ġre pl
Ġ er
Ġro ot
k ed
Ġse ems
Ġinst ruction
Ġf aster
omm od
it am
m aking
ĠEn ergy
ĠIt s
Ġst orm
ĠCent er
Ġqu iet
Ġfocus ing
ĠAmeric a
Ġtarget ed
ri x
Ġe at
f ound
Ñ İ
Ġext re
Ġrep orts
ĠThe n
umb led
Ġpo ems
Ġf ather
Ġsu d
Ġp u
Ġinform ative
Ġsummar ize
i ant
f ile
Ġsu ff
Ġunex pected
Ġlar gest
Ġm aster
Ġac qu
Ġnear by
Ġa f
Ġres ource
Ġstret ch
Ġpr in
Ġ %
Ġadvant age
Ġse nd
ĠG et
Ġstand ard
Ġcar ro
wor ld
Ġliter ature
Ġpain t
Ġevent ually
Ġs on
Ġrem ains
Ġfun ctions
ars h
Ġp le
ã Ģ
Ġconnect ed
Ġb row
Ġs ix
Ġst ars
Ġmanufact uring
og ue
Ġspe nding
Ġent re
Ġcomb ine
am ing
ĠIn ter
Ġcaus ing
Ġsee king
ĠEx pl
Ġpub lished
Ġsc ulpt
Ġsurv ive
Ġbre aks
Ġincred ible
Ġvis ion
Ġgold en
ĠEar th
Ġveh icles
Ġpass word
Ġsn ack
Ġon ions
ĠC S
Ġdist ract
Ġ :
Ġsong s
Ġexpect ations
Ġcontain er
Ġtal ent
Ġinsp ire
Ġint ense
Ġdream s
Ġstat istics
Ġretur ns
Ġown ers
k in
Ġsk ill
Ġb ound
Ġfor get
Ġs ides
az on
Ġhe ight
Ġadd iction
ĠEx per
ans ion
Ġmarket s
Ġind ic
Ġinsp iration
Ġd im
Ġsom etimes
Ġ1 7
Ġst ick
ĠG erm
Ġbro th
Ġstruct ures
th ough
Ġcr ust
ĠT O
ĠEng lish
Ġkit chen
Ġpro s
I T
T h
ĠG ood
Ġcare fully
i ences
Ġst ar
Ġpop ulation
Ġcompon ents
Ġaim s
Ġb rief
Ġa verage
i en
Ġcomb ined
ï¼ Į
ag ers
Ġem pty
ĠC reat
ĠL ook
p x
Ġbir ds
Ġyog urt
Ġdes pite
em y
ĠG reen
Ġcurrent ly
Ġres on
Ġvine gar
ro s
Ġm ut
ÑĤ ÑĮ
Ġd ried
Ġded icated
Ġc ake
er v
Ġw el
Ġst ake
Ġd ura
Ġaccur ate
ĠM in
izz a
Ġres idents
Ġnot es
min ist
ĠE st
Ġra nd
ĠS l
Ġsuggest s
ink le
Ġe ase
ĠG iven
Ġshap es
ic o
Ġla ugh
Ġcontem porary
Ġ round
ce ed
ĠA ir
Ġdanger ous
Ġt act
Ġinteract ions
Ġhab its
Ġex act
Ġa w
a el
ĠP at
Ġfollow ed
Ġagricult ure
Ġwalk ed
Ġto ld
oo sing
Ġcream y
Ġmess aging
ĠSoph ie
ĠFurther more
ĠÐ ´
Ġexp enses
ve re
ĠRem ove
ĠRe ad
Ġsupport ing
Ġtrans ition
lic k
he st
ĠC ount
w ide
ant ha
bs p
Ġs izes
Ġgood s
w ood
Ġe cho
ast s
Ġins ight
Ġwatch ing
Ġredu ction
Ġfin ish
ĠCh inese
Ġf ix
ĠC O
Ġjour nal
ic king
Ġj ud
Ġimpress ive
Ġincreasing ly
Ġconnect ions
Ġhom emade
Ġcomp are
Ġfac ing
Ġ201 8
ness es
b ing
Ġor d
Ġcor n
Ġher itage
Ġlead er
Ġcons ult
ĠM ax
e ch
ol i
od es
Ġmem or
Ġf ost
ĠM ich
Ġnot e
Ġb ag
ud d
ĠAfric an
ĠL ear
ffect ive
Ġt ang
l t
cept ion
g ers
Ġacc ommod
il ed
Ġlifest yle
Ġund erg
ĠSam antha
Ġconstant ly
ĠAm azon
( );
Ġatt empt
Ġcommon ly
ap h
ef ore
Ġd ro
ĠJapan ese
Ġbegin ning
ig en
Ġcontribut ed
ĠP rom
p erson
oc ks
Ġfore ver
b um
az e
ĠCh apter
od ies
y ear
ĠP o
Ġobject ives
Ġdistribut ion
ol a
ash ing
Ġta ught
Ġt ough
s ol
Ġc ert
Ġfeel s
Ġmet al
ain t
.. .
Ġpod cast
Ġavail ability
Ġhighlight s
v is
Ġdemonst rate
Ġinform ed
less ly
Ġconduct ed
r ight
Ġro w
I S
Ġst ock
Ġk ids
Ġestab lished
E N
ĠW ater
Ġpack aging
am ent
Ġs our
Ġrem ov
em b
Ġencount ered
O S
Ġt rou
ac iÃ³n
Ð¾Ð »
Ġask ed
rel ated
ĠP res
Ġw ire
Ġco ord
in king
Ġr ust
cript ion
Ġstrugg led
ĠApp le
and er
Ġhe s
Ġse qu
Ġvari ations
Ġprogram ming
er ies
or us
Ġp and
Ġc overed
k et
r ial
Ġtables poons
or ough
Ġbr ush
Ġefficient ly
ĠBl ack
y n
Ġa st
Ġsh all
Ġenviron ments
Ġ- -
Ġrepres ents
Ġintern et
m al
Ġrand om
Ġl uck
Ġav ocado
ĠIm pro
Ġneigh bor
ĠB en
Ġmy st
Ġimmedi ately
ÑĢ Ðµ
le an
ĠB re
Ġdeterm ination
ĠAn g
Ġteac hers
hold ers
c ious
Ġhand ling
pp ings
ĠAust ral
Ġg ro
Ġgener ated
Ġear lier
ĠIntrodu ction
ver ty
Ġknow ing
Ġpo verty
ĠT V
Ġman aged
Ġph r
Ġcent ral
Ġon going
Ġdr ink
Ġbreak fast
Ġsh ift
Ġful f
Ġf iber
Ġcolle ag
Ġcolor ful
ĠA R
ĠBus iness
Ġstand ing
o ff
Ġpa id
ino a
Ġin e
ĠId ent
in put
Ġpollut ion
ĠO b
pre ne
Ġke pt
Ġf irm
A D
Ġconvers ation
Ġsqu are
ĠIntern ational
C h
Ġro les
Ġexper ts
Ġgener ation
Ġprotect ion
6 0
Ġs ell
Ġb ike
Ġinteg ration
ĠD ep
Ġloc ations
Ġtrans fer
Ġno ise
ĠR et
Ġ2 4
Ġman ip
c an
Ġorgan ized
wor king
Ġinteg er
ĠM c
Ġreve al
Ġfl o
Ġtom ato
Ġd ire
on om
Ġsit es
Ġte nd
Ġaccompl ish
Ġcl ar
Ġfl oor
Ġpack age
re st
Ġwe ap
Ġcred it
Ġcall s
() `
ÑĤ Ðµ
ite ment
r ates
Ġw rong
Ġex cess
ab y
abor ate
Ã ±
Ġ19 9
Ġs ight
ĠCol l
ĠInc re
ĠSt e
in y
er o
Ġfac il
Ġconf ig
Ġrec overy
nam on
Ġsp icy
Ġt bsp
Ġr ural
Ġstart s
Ġstra ight
d d
Ġpict ure
Ġwin ter
En ter
A M
Ġcontro ll
Ġmaxim um
ili ar
ĠMore over
un t
Ġconflic ts
Ġkey words
Ġf o
am a
Ġsecond s
Ġres pect
it ure
int s
b les
Ġ >
Ġadvance ments
ĠComp any
Ġserv es
Ġs we
Ġgo es
Ġinvest ing
ĠIn f
Ġm ur
Ġcon servation
ut s
Ġa id
Ġdis app
Ġimmers ive
Ġdis orders
ch ain
Ġfl u
Ġ Ñ
ĠD AY
Ġf ant
Ġth orough
ment al
Ġexc itement
Ġcere mon
Ġca ught
ple ment
Ġwell ness
l in
Ġexpl an
. âĢĿ
ĠM ex
ĠJ ane
Ġsc ent
Ġ201 9
Ġreport ed
Ġengine ering
Ġb ird
a per
Ġsh arp
Ġ king
Ġsepar ate
ĠB o
her n
Ġresist ance
Ġn ode
Ġch ips
Ġd ram
Ġch ili
Ġse lection
Ġdynam ic
ĠB efore
Ġcalcul ate
ct ors
Ġf ont
Ġprovid ers
Ġco aching
Ġath let
Ġext ensive
Ġperson ality
Ġhold ing
Ġre ached
Ġmin ced
b ed
Ġme ant
Ġte aching
ĠT y
2 1
Ġmeaning ful
Ġg host
Ġscen ar
Ġworksh ops
ĠAt t
Ġexch ange
ĠM od
r ations
Ġf urn
tern al
un ction
iv als
ĠS an
os ystem
Ġupd ate
Ġaffect s
are n
Ġnot able
Ġind ex
ak er
Ġ< <
ion ally
Ġal bum
c raft
Ġtour ism
Ġreal ize
Ġg low
Ġanalyz ing
Ġsit ting
Ġp or
ĠPerson al
ĠD ata
il ant
ĠPract ice
Ġan g
al se
Ġrh yth
Ġst ates
Ġmult i
ograph ic
i ra
Ġin ner
Ġh our
Ġl ived
Ġn ames
Ġdark ness
Ġpl enty
Ġheav ily
Ġprodu ced
Ġj ew
act ion
! "
Ġcho ices
L E
m ission
z en
Ġl abor
Ġcap acity
Ġjo in
Ġt itle
ura cy
ĠW est
Ġshe et
Ġpresent ation
ĠP ython
Ġchem ical
Ġwork place
Ġfac ilities
Ġch ronic
rig er
Ġbe at
Ð½ Ð¾
Ġflex ibility
C T
ra id
Ġsh op
ĠDav id
Ġemerg ed
Ġens ures
Ð ³
Ġmus ical
am ples
Ġact ually
con t
Ġf ans
at ur
air s
Ġless ons
d is
Ġec osystem
Ġmix ing
Ġdest ination
ic he
Ð¾Ð ¼
Ġref err
ĠM ark
Ġmay be
Ġv ital
ĠThere fore
Ġrev olution
re g
Ġconcept s
Ġemp athy
az z
ĠM ary
ail s
Ġnot iced
Ġres olution
Ġpartners hips
ĠB ro
p id
Ġchat b
Ġf er
ĠT od
Ġwa iting
Ġcar s
Ġcont ract
P ro
Ġright s
Ġr at
Ġsurround ed
Ġref resh
Ġexpos ure
ĠM use
Ġnew found
Ġincent ives
ĠS EO
es tern
Ġs pl
ĠD ec
Ġform er
erc ial
Ġhapp ened
Ġch art
ĠL ena
Ġsol ve
Ġwid ely
Ġc ab
Ġm ill
Ġun ivers
Ġgraph ics
n y
Ġdist inct
Ġsur vey
Ġmanufact ure
Ġvari able
l s
ast ers
ens ions
Ġcomplex ity
il le
Ġre ly
Ġhe ro
Ġcommit ted
ra w
Ġcarro ts
Ġp izza
Ġsess ion
Ġaud io
ograph ics
Ġt all
ĠS pr
er ts
Ġmount ain
ĠOr gan
Ġet c
Ġen ables
Ġfact or
ĠEnc ourage
Ġfoot print
ar ily
Ġbar ri
im al
ot hes
Ġfunction ality
Ġcl in
ĠIm plement
Ġsurv ival
Ġstre ets
al ian
Ġart icles
Ġcap abilities
` .
Ġg ives
am s
ot ic
t elling
Ġra ise
or g
Ġphot o
Ġacc uracy
Ġstand ards
Ġtra um
Ġpr iv
Ġidentify ing
ĠOp en
Ġdou ble
re ts
Ġmov ed
Ġv itam
Ġto ppings
ac king
+ +
Ġp ump
i j
Ġstreng ths
Ġcomm and
Ġf old
Ġperform ances
plic ations
ww w
Ġdial ogue
ÑĢ Ð¸
Ġflex ible
Ġminim al
Ġs ays
Ġcustom ize
Ġdevelop ers
Ġfriend ly
Ġintern al
Ġres ol
Ġch oosing
ĠI I
ĠU nder
Ġenc ry
Ġmit igate
Ġp ars
Ġgreen house
Ġj ump
Ġvan illa
out s
Ġaf raid
Ġb urn
Ġc overs
Ġauthent ic
Ġgra v
ol es
ÃŃ a
ĠH ouse
ĠSal t
Ġf ill
in ch
Ġb ad
Ġfeat uring
p art
ĠG ra
Ġra ce
ĠPro duct
Ġhous ing
ound s
I t
t ered
ac hel
Ġcom pl
l i
Ġcook ies
re es
w ise
Ġs or
ru p
ĠS ur
Ġpand emic
in come
Ġprof ile
Ġseason ing
ci ples
id a
ast ing
Ġmotiv ation
Ġleg al
Ġcomple ted
r ror
ĠAfric a
act ive
P S
Ġguid ed
Ġmemor able
Ġfe ars
ĠU p
Ġpol ice
igh ter
Ġcap able
ĠF ocus
Ġappear ance
Ġstake holders
Ġb illion
ĠA ns
Ġregard ing
Ġde ploy
ch ar
Ð½ Ñĭ
Ġadopt ion
ĠJ ava
ĠF ind
ĠV R
over n
d iv
Ġst ability
Ġte ach
1 8
ĠBrit ish
Ġbe g
ĠPl ay
Ġre ward
Ġmusc le
Ġentre prene
ĠG roup
ul ated
Ġve gg
Ġar ms
Ġup coming
Ġtrans p
Ġadv oc
âĢ Ķ
Ġmass ive
ĠS ub
Ġfrequ ently
ĠO h
Ġh iking
Ġre wards
te xt
il a
Ġlight s
it ual
Ð» Ð¸
Ġsh r
ĠE ven
Ġexplore s
Ð½ Ð¸
s on
Ġspe aking
ĠMuse um
Ġconst ruct
Ġcon v
Ġshow ed
Ġart s
Ġjust ice
ĠK ing
Ġflavor ful
Ġinvent ory
Ġexp ensive
stand ing
Ġmush rooms
comm erce
Ġnet works
Ġre in
Ġtem pl
ric k
im ed
Ġconsum er
p an
Ġfocus es
m ber
Ġwind ow
Ġtra il
Ġcin namon
Ġso y
ar ter
ber t
Ġop in
ĠSt r
Ġevalu ate
h and
Ġro t
b l
Ġnot ice
os ed
Ġaud iences
t op
Ġlangu ages
Ġgl ad
y me
ic ial
Ġsh ot
st yle
Ġfrequ ency
ĠWill iam
ĠJ our
gy pt
a e
ific ial
Ġtr uth
Ġdire ction
it ar
Ġv ir
Ġsn acks
ĠCol le
Ġcyc le
Ġdeep ly
et te
Ġreput ation
Ġsac r
Ġgener ations
Ġro se
R E
ĠW ind
Ġse am
Ġreal istic
Ġd ow
Ġm ig
Ġd inner
ĠR uss
Ġha un
Ġneighbor hood
Ð¾Ð ³
ĠMed ia
Ġcrisp y
` ,
ĠB al
Ġref riger
Ġc ore
ad s
Ġatt acks
Ġencoura ges
Ġcontribut ions
ĠI r
Ġguid elines
Ġexc lusive
ĠS om
ĠIt alian
Ġenjoy ed
st ring
Ġsupp lies
Ġremain ing
Ġprin ciples
Ġdess ert
Ġstay ing
lam m
Ġcolleag ues
d r
Ġeven ly
et her
Ġcomp elling
d ata
Ġcand id
ĠC r
Ġscient ists
Ġche st
ĠT ime
ow ered
Ġopen ed
h ab
bo x
Ġlimit ations
Ġaccount s
n el
Ġpro ced
Ġch a
Ġfore ign
Ġconvers ion
Ġcou ple
ĠEurope an
Ġconc ent
ĠSh are
Ġsw itch
k ay
ĠEduc ation
Ġposs ess
ed om
ĠT itle
Ġemb race
Ġh ttps
Ġser ious
Ġdis rupt
ĠÐ½ Ð°
Ġrespons ibility
g ra
Ġad minist
ĠSc ience
ang ers
Ġcro ps
Ġpo or
ĠâĢ ĺ
m p
Ġla un
um es
m as
ac on
Ġspeak er
ou nce
ĠF ood
Ġstudy ing
ĠS ince
Ġmechan isms
Ġfl ood
Ġappreci ation
Ġd oll
od ing
ĠE gypt
Ġtr ig
W h
Ġthan k
anc y
Ġgrow n
Ñ Ī
ĠPro ject
Ġchild hood
Ġto fu
Ġinstall ation
t r
Ġas ide
Ġcor ner
ĠB est
le ts
Ġhosp ital
Ġcomm ercial
Ġ201 7
is is
ĠR iver
Ġsav ings
ri p
Ġauthent ication
end er
Ġb ot
Ġg one
ag ue
Ġsu c
Ġfurn iture
Ġinstru ments
Ġcon sole
f l
om et
ĠM or
ser ved
Ġrel ief
Ġsc ale
Ġtail ored
h us
Ġcompon ent
Ġtact ics
Ġv ent
Ġp un
Ġinstitut ions
Ġcollabor ate
ol f
ect ion
Ġemail s
Ġpeace ful
Ġsh ip
Ġ @
Ġs chol
ĠO l
Ġpart ies
Ġexperienc ing
io x
Ġaddress ing
Ġri ver
Ġst ood
Ġstory telling
ĠM ag
an ch
Ġc ounter
Ġfl at
Ã¡ s
ĠSim ilar
ic ations
Ġpot ato
Ġp ure
Ġapp le
b al
ĠĠĠĠ ĠĠĠ
ĠS ud
Ġjew el
h am
Ġpur s
ĠF ollow
ĠM icro
Ġcustom ized
ĠP ost
Ġappro aches
ber ry
Ġb ank
Ġbel ong
Ġold er
. )
ĠS ol
Ġt ick
Ġremind er
ĠMich ael
Ġad op
ĠTod ay
Ġcreat ure
un a
Ġad ults
Ġdiscount s
Ġteac her
rou d
Ġbus y
ĠH T
og ether
Ġachie ved
Ġperiod s
b and
Ġspin ach
Ġw ider
ar i
Ġcomp ar
Ġcare ful
Ġopen ing
Ġenc ounter
Ġra pid
d es
Ġsurround ings
Ġsw im
ish ing
Ġr ide
Ġve nd
Ġcomp ost
ĠMus ic
Ġb er
w rit
ĠUs ers
Ġfor ces
Ġv ia
a ult
Ġf ine
Ġli qu
A L
Ġend s
Ġemerg ency
c ons
Ġfind ings
Ġit em
Ġdown load
Ġcent uries
Ġcop y
Ġdis pl
Ġag o
Ġhapp iness
Ġinfluenc er
Ġoptim ization
Ġaccording ly
ĠU lt
Ġhighlight ing
Ġrec ently
Ġsupport s
Ġd en
Ġg inger
Ġcap ital
Ġpartners hip
Ġelect ronic
le te
Ġdi agn
ĠAss oci
Ġcomp assion
ĠP al
Ġequ al
Ġsuc ceed
Ġb ath
ĠL ike
Ġbir th
Ġfor ced
m et
om b
ĠW ork
igen ous
u nder
ĠAns wer
N ame
Ġr itual
Ġhig hest
Ġrecogn ize
Ġrele ased
r ical
Ġpre m
Ġaim ed
Ġar m
Ġprof it
Ġcompet itors
: :
Ġ5 00
Ġgradu ally
if act
Ġkind ness
Ġt en
we ight
Ġc ater
Ġfest ivals
Ġest im
Ġdes ire
Ġ4 0
ĠP rehe
Ġlux ury
ĠP ort
Ġins urance
Ġdef ine
Ġvers at
ĠH ol
ser ving
b ur
Ġfollow s
Ġdes k
ĠP ot
ol k
ĠPrehe at
Ġhas ht
ĠEm p
f all
Ġnutri ents
ment ed
Ġmy th
ä º
vers e
Ð¾Ð ´
Ġintrodu ced
Ġdef e
Ġman ner
Ġbehav iors
ĠT op
oc ation
Ġgr illed
ig ating
oh ol
at ically
ĠMan agement
Ġvulner able
ĠT ur
Ġsc ore
ĠB ra
Ġbatter y
Ġfac es
n ight
Ġreflect s
af ood
Ġvisual s
Ġsol id
Ġimprove ments
ĠCal if
ĠL ink
Ġt ours
Ġĉ ĉ
( $
p ace
O M
Ġworld wide
Ġsearch ing
Ġprint ing
E M
Ġl inks
Ġeng ines
Ġh arsh
ĠG ar
Ġpur su
Ġs ample
Ġwrit er
1 1
Ð° Ðº
id ential
Ġsupport ive
Ġdeg ree
Ġshel ter
Ġscen es
ic an
os en
Ġhe aling
Ġprof ound
Ġsc an
Ġsymb ols
k es
8 0
Ġhapp en
Ġp ued
Ġl ime
Ġsec rets
oo per
e qu
d o
Ġsy rup
Ġtur ns
it a
Ġm er
at he
Ġ201 6
Ġtre nd
Ġpsych ological
c ohol
et t
Ġtreat ments
Ġsand w
pe as
orn ia
Ġcut ting
Ġqu inoa
Ġarg ument
h aps
ĠL ast
ĠW al
Ġmiss ing
Ġd rop
Ġbr ings
Ġdis aster
Ġvol ume
Ġb ags
Ġfunction al
Ġart ifact
ac he
ĠTechn ology
Ġmount ains
" :
Ġob tain
e fficient
Ġ Ã
ĠD irect
c ount
ĠRom an
Ġd u
ab el
c il
Ġret ention
Ġne ck
Ġwild life
b it
m ark
Ġco ast
im on
Ð ¶
Ġsy nt
Ġfa ith
is hes
Ġcent ers
Ġtechnolog ical
Ġconsist ency
Ġshad ows
Ġspir its
E T
and on
Ġconc ern
iz er
Ġexpl oration
ĠG overn
ĠM ain
Ġhow ever
Ġc ourage
Ġb es
p es
Ġevol ved
ang es
o ad
Ġincred ibly
Ġal le
if ts
Ġwrit ers
ĠInc orporate
ĠC ur
4 0
as p
Ġs em
Ġ ign
Ġtemper atures
e y
hus i
Ġb oy
ph one
Ġel im
us es
ĠWhe ther
Ġpresent ed
Ġvis ibility
Ġgain ed
Ġp our
Ġtal king
Ġabs or
ĠA nt
Ġor ange
Ġv en
Ġentertain ment
p ress
Ġpro b
Ġf ier
n es
Ġsche me
Ġg ently
res p
Ġc ards
ĠM al
ĠR el
Ġhouse hold
Ġcaus es
ri ka
Ġpar am
Ġremain ed
u gg
Ġmo le
Ġjewel ry
Ġdou b
Ġredu ces
Ġw ave
Ġpict ures
Ġinteg rated
omp any
' )
Ġisol ation
ĠM et
ĠColle ge
Ġ !
Ġexplan ation
Ġg ram
Ġintervent ions
Ġinteg rate
or a
Ġsign s
Ġp roud
Ġdr inks
Ġimm une
Ġincorpor ated
Ġrecyc ling
um s
Ġad m
Ġminim ize
Ġrefresh ing
Ġse gment
Ġsurv iv
Ġa est
Ġsp ons
Ġget s
Ġear n
Ġsp ark
Ġoper ating
Ġfund s
p ret
Ġa ward
ĠP a
ĠL ist
Ġslic es
ve ys
Ġsoc iet
Ġsy n
Ġth ous
ĠEm ploy
ĠCalif ornia
Ġencoura ging
Ġded ication
Ġhealth ier
ĠJ an
Ġg all
Ġpropos ed
Ġy ellow
w ers
ĠD el
ck now
Ġappl ied
Ġmov ies
Ġsk illed
] ;
Ġart istic
Ġel aborate
Ġnav igation
Ġarr ange
ĠP ay
Ġfre edom
Ġent husi
Ġmyst ery
ĠPe ople
ĠIdent ify
ĠM r
Ġappro x
à¸ ²
Ġspe ech
E rror
7 5
Ġcol on
2 00
Ġfr ust
ĠP our
ĠE ast
Ġgr an
ĠSu pport
sol ving
Ġs en
ĠJ u
Ġpan els
Ġcl othes
Ġacc ident
Ġsens ors
ĠÐ ±
ree ze
ĠCommun ity
Ġsens itive
ord s
Ġover view
ĠC lick
ĠM ount
ĠU K
u k
st ruction
Ġt ag
ter ing
Ġmot ion
ĠC or
Ġwat ched
Ġthan ks
ã ģ
ĠR en
Ġsc r
Ġhyd ro
m l
ĠR ef
ant ed
Ġl on
ĠS um
Ġre asons
I M
Ġbas il
as y
Ġmusc les
form ation
Ġhum or
Ġst im
Ġshow ing
Ġclos ely
Ġout l
c ur
ĠD ig
ĠJ ake
Ġmach ines
Ġsee ing
oc king
ab et
Ġadvant ages
Ġvegg ies
Ġse vere
Ġpre t
Ġtarget ing
Ġselect ing
Ġic onic
Ġlink ed
M L
ĠM o
Ġst umbled
Ġstr ings
Ġfig ures
Ġmusic ians
Ġu pl
pro fit
ĠH ot
Ġshap ing
ä »
Ġcr unch
ĠB el
ĠCh ild
Ġlog o
Ġcr isis
Ġlaun ched
l ength
as k
p age
Ġse afood
Ġfam iliar
Ġbenef icial
Ġwarm th
Ġmist akes
Ġmy ster
ul ating
Ġ ÑĤ
Ġpu zz
c ar
Ġcra ck
d y
ond on
a it
es an
Ġemphas izes
Ġc uc
Ġsc al
Ġtur ning
ĠCon f
Ġreg ist
Ġsun light
Ġele g
Ġra ised
ro y
Ġoffic ial
Ġp en
Ġrespons ibilities
Ġrom antic
Ġun w
ĠL uc
Ġpro p
st r
Ġac id
Ġcre w
Ġw rap
ĠIn vest
Ġex ternal
Ġa rom
m us
Ġiniti ative
Ġ era
ĠH um
ĠCustom er
Ġapp oint
Ġpromot ions
am ic
Ġf le
il os
ĠM em
Ġdiet ary
ĠSc ene
Ġbring ing
Ġillust rate
Ġf an
Ġint u
ãĢ Ĥ
Ġd ust
Ġ iron
Ġwh isk
Ġvis iting
Ġcou ns
Ġn ood
ĠCh orus
Ġrecogn ized
Ġpl aced
Ġst o
iz able
Ġtext ures
Ġst ation
ĠSt ir
Ġb aby
Ġsusp ense
ĠH ist
Ġpass ing
Ġcit iz
1 4
ĠF ound
Ġm al
ĠAl ice
Ġminim um
Ġme ets
os is
Ġ< /
Ġun f
Ġdispl ays
Ġperform ed
ĠSimilar ly
Ġenab ling
ate ver
Ġag ency
Ġwed ding
Ġpars ley
* *
Ġst one
Ġevery day
re et
Ġinsp iring
Ġr ules
ĠJ ess
Ġsched ul
Ġfight ing
Ġart work
Ġsav ory
Ġmed icine
ang le
Ġrhyth m
Ġs elling
Ġfail ure
rap y
Ġsur f
Ġdisc overy
ĠP ublic
Ġcelebr ate
Ġmeet ings
ĠPar is
Ġdesign ers
an ish
Ġpop ulations
Ġab andon
Ġbig gest
Ġstrateg ic
Ñ Ĩ
Ġmat rix
Ġsim mer
arm esan
Ġb ars
so ft
ĠT ips
ĠP ower
row ing
Ġc ul
rom e
air y
Ġneg ot
Ġreach ing
ĠH ome
l n
Ġsub mit
Ġinj ury
Ġdep artment
Ġcon vert
Ġclos ed
end ing
Ġev olution
Ġun iversity
re al
Ġann ual
ru it
Ġch osen
ĠM a
Ġsim pl
oun cil
ugh ter
Ġextre me
ĠA ug
1 6
Ġblock chain
Ġsent ence
ĠSud denly
Ġre tain
id ad
ct u
in ter
Ġf ly
Ġfro zen
Ġk ne
Ġrep air
Ġa ssistant
Ġarr ived
i pl
Ġmel ted
t aking
mar ks
v as
Ġrun s
s ize
Ġoverwhel ming
Ġh ob
Ġresult ed
Ġs ke
Ġo x
ĠDef ine
Ġ201 5
Ġsh red
ĠD ist
o om
ĠC amp
ĠAl though
Ġbeg ins
Ġbound aries
Ġoper ation
f ord
Ġleg s
Ġstra w
Ġnorm al
ĠT re
Ġcon ver
ĠV ol
ĠCont ent
St ring
Ġca f
er ie
Ġthe r
Ġspecial ized
Ġal t
f ol
ĠS a
Ġveh icle
Ġentreprene urs
Ġref er
ĠOff er
Ġm ac
Ġber ries
Ġp ray
Ġcal ories
Ġun able
Ġbro ken
Ġhol iday
Ġmoist ure
ĠD I
oun ced
ĠT im
Ġk iller
ĠL ondon
Ġnot ifications
? :
Ġpotential ly
Ġgra ce
Ġman ager
Ġgr ill
Ġun l
Ġr ub
Ġd ie
uc ch
al ax
ĠR achel
Ġl y
Ġ Ñĩ
Ġlab el
com p
est ion
p owered
Ġident ified
Ġ User
Ġ= >
Ġill ness
ĠOpt im
Ġinteract ion
g ener
ĠAs ia
Ġliqu id
Ġpap rika
Ġcry st
Ġappe al
Ġpurs ue
Ġencoura ged
Ġconven ient
ro id
Ġco at
ph ones
Ġdec line
Ġclass ical
Ġintrodu ction
Ġsho es
Ġn erv
Ġbre aking
ĠA ud
f ield
ĠUlt imately
Ġcl oves
pect ives
Ġnutrition al
Ġp ork
Ġchick peas
Ġc rop
Ġdistract ions
ilant ro
ĠC UT
ĠChrist ian
Ġs oph
Ġtur b
ĠCount y
ce l
t hen
Ġunc ertain
Ġvill age
Ġscenar ios
n ish
Ġtransform ation
p ass
ĠE lect
Ġcour t
Ġd ates
Ġsubst itute
Ġt ort
ÐµÐ½ Ð¸
Ġfil ms
Ġres pective
Ġstore d
Ġbal anced
ĠD id
ĠDevelop ment
Ġrest rict
ĠSm ith
Ġfl ower
ĠChrist mas
Ġ6 0
Ġg un
oss ible
Ġsort ed
ĠS n
if ting
Ġben e
Ġte ch
po int
Ġart ificial
ri ver
atch ing
Ġlay out
E x
e em
ĠJour nal
Ġemphas is
Ġgovern ments
ĠR O
un k
Ġselect ed
Ġinteg ers
Ġliter ary
Ġlet ters
ĠRe v
ĠC ost
Ġm ir
Ġco zy
ĠEn ter
Ġcl ub
Ġim plications
Ġperform ing
U S
Ġwor ry
Ġperfect ly
ĠP an
Ġcr ime
Ġdepend s
ĠMay a
ĠL ove
Ġframe work
ĠW ell
Ġprom in
Ġdel icate
Ġenjoy ing
Ġvolunte er
Ġinter pret
Ġw ra
ne ver
Ġtra ined
Ġorgan ize
Ġc umin
oc r
ed eral
ĠSm art
Ġant icip
ĠY ear
Ġur g
Ġfeature d
Ġant i
it er
Ġf et
Ġint ensity
ĠWh o
Ġcrit ic
Ġf ell
Ġretail ers
Ġthe ory
à¸² à¸
ar ation
ĠL im
Ġweap ons
ĠJoh ns
sc ale
ĠWe b
ĠL ife
Ġoptim al
Ġcrit eria
Ġsm ile
Ġathlet es
Ġcorrect ly
p ack
Ġle ge
ĠOn line
val id
Ġgre ens
Ġit er
Ġgu itar
Ġinvest igation
ĠIs land
ĠCl ass
ĠLink ed
Ġcomput ing
Ġattract ions
j s
Y ou
Ġgen res
se ct
ĠF ire
c uss
Ġhistor ic
Ġbo il
ast e
ĠYou T
Ġra re
Ġattend ees
Ġsold iers
ĠDep artment
Ġed ges
Ġpropos al
ri a
ive ly
Ġgener ally
ag o
Ġrecord s
Ġast ron
Ġa cknow
Ġachieve ments
Ġp ull
Ġw ings
ĠN ote
Ġgen re
c ase
ĠB oth
Ġc el
izz le
ĠS k
col or
Ġsatisf ying
ĠFr ance
Ġrespons ive
i pp
ĠK ore
Ġchar ge
ĠC our
Ġnet working
is c
Ġless on
el es
Ġpers pectives
Ġh ur
Ġto ss
Ġfin ished
Ġste el
Ġthreat s
Ġgr ass
Ġdoc uments
Ġsh oot
Ġinf ect
Ġschol ars
ucch ini
Ġsuggest ed
n atural
ke nd
Ġsupport ed
Ġsmooth ie
Ġfind s
Ġbe er
Ġ id
ĠF est
Ġaccess ories
Ġreturn ed
Ġtest s
Ġb ake
Ġgra b
ĠS il
ĠSt ore
Ġg aming
Ġs od
ĠStud ents
Ġpair s
ĠMar ia
A r
Ġstream ing
Ġres c
Ġmind set
Ġclear ly
or ge
ree ment
pec ific
Ġview ers
Ġn ar
ĠM ac
Ġche cking
Ġdecre ase
à ¤
ĠEx ample
Ġemploy ment
Ġshr imp
ĠRe view
an ut
am el
in f
Ġagricult ural
I P
Ġcom ment
Ġopp os
Ġform ation
Ġl ent
Ġep is
ĠPres ident
ð Ł
ĠB ake
ro l
Ġmo on
Ġas king
Ġbene ath
ĠAustral ia
ĠB ur
ĠN ut
Ġgu ard
Ġt ap
ĠPro f
p ath
v ision
Ġfor t
end ar
ĠWh ite
low er
ĠLear ning
Ġent ered
" ;
Ġc art
ist ry
Ġspr inkle
an es
Ġexcept ional
Ġcompos ition
I L
Ġf oss
Ġfl ight
ĠS un
Ġapprox imately
ĠB u
1 7
ĠInd ust
Ġra w
Ġl ose
Ġc ub
Ġb ill
Ġhosp it
Ġb reeze
Ġmar ine
Ġrequ ests
Ġprovid er
Ġatt ach
Ġf alse
Ġform ula
Ġf em
cc oli
Ġcomp at
Ġpr ide
ĠRe al
ra b
å ı
Ġl unch
Ġbl ank
Ġj ar
Ġfound ation
Ġbu ying
Ġche cks
ĠF ore
Ġimp ossible
Ġtre asure
Ġ rough
Ġform ed
Ġstand s
Ġble nder
th rough
Ġconf ront
Ġcount less
z er
Ġpl ate
Ġhard ware
Ġv oc
ĠCan ada
Ġprevious ly
ĠCh ick
Ġh uge
Ġp ine
ĠYouT ube
ĠS en
Ġterr or
Ġinvest ors
Ġfra g
Ġb odies
Ġpur pos
ĠM at
ru e
Ġindepend ent
Ġar ise
ock t
id th
Ġris ing
r ich
o e
Ġ20 20
s uch
Ġro cks
ĠBl ue
est ic
ĠW estern
Ġfost er
Ġcha os
ĠÐ ·
Ġindust rial
Ġsp ring
Ġdura ble
Ġoil s
Ġis n
Ġsa ut
ĠAssoci ation
Ġsav ed
al a
ra ction
Ġform al
Ġgr id
Ġph ilos
Ġp ound
m en
at in
ĠE v
Ġspe ct
Ġtraum a
Ġmod e
Ġst ain
Ġcom o
Ġsay ing
ĠIn s
Ġinj uries
Ġdis asters
Ġemerg ing
Ġsubs crib
Ġm outh
Ġchar ity
ĠInst itute
ĠServ ice
e ah
ĠVis ual
e ffective
Ġtr ial
Ġcal ming
et ers
Ġc ilantro
Ġth yme
ĠDig ital
Ðµ ÑĢ
Ġour selves
Ġa we
Ġte en
Ġsh ipping
Ġroom s
Ġconsider ing
Q L
Ġsaut Ã©
Ġs an
Ġb ub
Ġfant astic
Ġlast ing
ĠSe ason
Ġter rain
ri an
Ġret rie
Ġdep ict
Ġc ash
Ġfall ing
Ġc ooper
E L
Ġrev ised
Ġminut e
ĠD em
ian ces
r as
Ġbre w
Ġfriends hip
Ġpurpos es
Ġenh ancing
Ġref lection
Ġag encies
Ġwit ness
Ġchann el
Ġsequ ence
Ġphot ography
ĠSec ond
ĠTh om
ĠHe at
9 9
Ġc ertainly
ter y
im ents
Ġpain tings
Ġhop ing
Ġsurviv ors
ever ance
Ġclass room
Ġwant s
b ody
le vel
ĠCh urch
Ġagree ment
Ġc os
Ġst uff
ĠRo asted
B C
Ġautom atically
m ary
Ġtarget s
Ġmil es
ĠA pr
Ġbarri ers
ĠH el
Ġgr ated
re ens
Ġleg acy
Ġamount s
ĠSp anish
Ġversat ile
ĠÐ½ Ðµ
Ġcivil ization
1 3
ing ers
Ġmind ful
y an
Ġpast e
Ġstir ring
om en
ĠCreat ing
Ġadapt ed
ĠR ob
Ġconvers ations
Ġatt ribut
Ð¾Ð ¹
Ġw ife
ĠS ee
Ġt un
Ġst ack
ĠD ear
Ġmod ify
Ġcharacter istics
Ġwond ering
ĠStr ateg
Ġpriv acy
ĠC are
Ġcur se
ĠSh ow
Ġcharacter ized
ĠG old
Ġd er
5 00
ĠJ en
M S
ĠR est
red ient
on a
ĠE ss
Ġexplore d
A P
Ġun e
Ġlay ers
Ġtransform ed
ĠLinked In
Ġman ual
Ġexact ly
v ille
ĠIm p
Ġsatisf ied
Ġtra pped
Ġappro ached
ĠSt ay
c her
Ġhapp ening
ag raph
ĠB as
Ġthous ands
ĠC lean
ĠH ost
ĠIs lam
act ions
ĠV irtual
Ġincre ases
Ġbegin ners
Ġcirc um
Ġk id
Ġwood en
Ġoffer ings
Ġal cohol
Ġoptim izing
aw s
Ġj azz
Ġrel atively
Ġeven ing
ĠJohns on
Ġrespons es
re te
Ã º
n et
Ġwal ks
Ġun it
Ġshred ded
ra ys
ĠAnaly tics
ĠInt eg
Ġpromot es
ĠSt ar
ĠEmp ire
Ġhe aring
ĠS T
Ġle ver
ĠB rand
Ġco pe
id ers
Ġde als
Ġt it
Ġpurch asing
Ġbrand ing
Ġbot tle
7 0
le ep
Ġn iche
Ġinstall ed
Ġfier ce
ĠB udd
Ġcomb at
Ġsp ice
Ġenvironment ally
Ġthorough ly
Ġd ining
Ġaccess ibility
z a
ĠM iddle
als a
t les
Ġcrow d
Ġprompt s
ll a
or ter
Ġtang y
ĠAd v
ro te
ĠP ass
Ġele v
Ġsh ake
Ġd ivid
Ġproced ures
Ġfish ing
iz ers
Ġdest roy
ot al
Ġmat ches
Ġprodu cing
Ġfin ance
ĠL ight
ru ption
Ġlos ing
Ġd ip
Ġsp oke
Ġfore cast
Ġlibr aries
c ery
Ð¾Ð ¶
ĠDI Y
Ġne uro
S cript
ÑĤ Ð¸
R L
ĠCS S
ĠCon nect
Ġd uration
Ġsculpt ure
are s
Ġend less
ap es
' );
ĠH old
ĠM ost
Ġcover age
ĠWh y
Ġbackground s
ĠMind fulness
Ġh us
Ġgu est
ors hip
Ġsl ice
Ġse g
Ġtut or
Ġinv al
ĠS pe
Ġn uc
ĠL ead
Ġsweet ness
Ġa gg
ĠI T
ĠRen ew
Ġcitiz ens
Ġfund ra
Ġcontain ers
Ñ ĸ
Ġpopular ity
Ġpush ing
ĠC oc
us able
Ġspec ified
Ġcontribut ing
ĠServ ices
ro ph
ĠB uilding
Ġhot els
Ġt ire
Ġext ended
Ġtim eline
ĠA ccess
Ġun known
ĠUn ion
Ġwind ows
or al
Ġlearn ers
Ġmill ions
Ġest ate
Ġnood les
n ger
Ġstreng then
Ġdraw ing
f ront
al d
ĠSt and
Ġpromot ion
ĠM il
r um
est eem
Ġt u
Ġdirect ory
ins p
ĠN av
Ġlist s
Ġinstru ment
dr iven
R O
t able
ad ow
Ġdifficult y
Ġanim ation
Ġworkout s
ĠMicro soft
Ġquant um
ĠKe y
Ġsign al
Ġpred ators
Ġmed it
Ð½ Ð°
ĠW rit
Ġpr ime
ĠY og
Ġrepe at
Ġo kay
Ġg ear
Ġwh atever
m ade
C l
Ġqu otes
Ġshare s
Ġt rib
Ġf ought
Ġsymbol ism
Ġw ish
Ġactive ly
val ue
ĠG rand
Ġrout es
Ġavoid ing
ĠAn y
Ġqu arter
Ġv ot
ot he
Ġshap ed
ĠE vent
Ġreport ing
Ġm a
Ġteam work
Ġr ush
ar ant
Ġarg uments
Ġin sect
Ġvolunte ers
ĠL ila
Ġwas h
Ġn ice
Ġs ad
Ġpo ol
à¸ Ļ
Ġcr im
ĠB er
1 00
ress ive
Ġvis ited
Ġoverwhel med
Ġin qu
ell a
Ġintu itive
ur pose
Ġhor iz
Ñģ Ñı
ĠG ard
Ġown er
Ġda ughter
ĠH and
Ġattend ing
Ġcateg ories
Ġsurpr ise
I G
Ġenjoy able
Ġb aked
Ġinf lamm
Ġdiscuss ion
Ġpl ug
ĠQ ue
in er
iv ating
Ġfu els
st orm
ac her
ĠAc ad
Ġhon or
ĠAv a
Ġfoss il
anc hes
Ġvisual ization
Ġ201 4
et ime
r ase
Ġpers everance
Ġcur s
Ġshowc asing
Ġshowc ases
Ġpan el
ĠSal es
Ġb inary
Ġcon ference
ĠSe lect
- >
Ġdescrib ed
Ġaccur ately
Ġing redient
ĠV erse
Ġdiscuss ing
if ies
Ġcab in
Ġcateg ory
Ġcol umn
Ġposs ibilities
ĠStud ies
Ġalong side
Ġne ut
e al
Ð» ÑĮ
ell o
um ps
us er
Ġbas ket
Ġencry ption
Ġtra cks
ĠT ogether
ĠM art
Ġf ats
Ġdec l
Ġm ort
Ġm ild
sm iling
u ing
ul um
Ġsp ort
ren ce
Ġparticip ation
ĠSu per
Ġbas is
Ġrec on
Ġhon est
s ized
Ġpre y
u it
in du
Ġess ays
Ġmust ard
ĠFr anc
ec d
u el
Ġman agers
Ġcons cious
Ġunder st
ES S
Ġshe ll
ĠSt reet
Ġvari ables
ĠR ich
Ġprep aration
ik es
Ġan ecd
Ġheart s
Ġoper ate
Ġprep aring
ĠFest ival
it able
Ġnerv ous
Ġine quality
ĠS qu
ĠM aterial
ĠCl imate
Ġmeas uring
ol ic
ĠC ult
Ġoptim ized
Ġdeb t
st ract
Ġchatb ot
ĠApr il
Ġ2 1
ĠD NA
ĠAg reement
ener y
g s
Ã ¼
Ġmat he
æ ľ
Ġsal mon
Ġent ry
ÑĢ Ð¾
pe at
Ġed iting
ĠC am
Ġro of
Ġfl ash
Ġlim its
m o
ang ed
Ġdesign ing
Ġorig in
Ġput ting
S D
Ġcelebr ated
Ġback up
ĠBre ak
Ġland marks
re f
Ġphr ases
ha ust
ĠT em
Ġb ooking
L ist
ĠS elf
âĢ ¦
C ompany
ĠI N
ĠB uild
Ġdis order
pect s
Ġun its
ĠĠĠĠĠĠĠĠ ĠĠĠĠĠĠĠĠĠĠĠĠ
Ġsp ray
Ġprim arily
ĠF resh
ĠEn viron
Ġfe es
Ġwho se
Ġhor ror
Ġse nding
Ġprefer red
Ġset t
ĠRo ad
m ost
Ġw et
ot ion
Ġc ockt
Ġcop ing
ĠCh all
ĠN ext
Ġcher ry
Ġk ick
Ġdetect ion
fol io
T P
in se
ĠE nd
Ġwood s
Ġvolunte ering
Ġdeg rees
Ġh all
ob ile
Ġdest ruction
Ġnear ly
Ġst able
Ġran king
ĠB ring
Ġfarm ing
Ġking dom
Ġb orn
ort ed
Ġde aling
d ef
n ic
Ġle ather
ĠH ope
ĠJ e
Ġpercent age
Ġl ic
Ġle an
Ġproduct ive
Ġp ace
Ġgreat est
ĠRenew able
athe red
Ġcom ed
Ġinvest ig
Ġutil izing
ĠColl abor
Ġland ing
Ġentire ly
ing u
ce ll
ĠGerm any
Ġh am
b led
ĠF am
Ġyou nger
Ġpre serve
Ġc ow
Ġ Ñĥ
2 2
ĠEng land
ĠAut om
ĠCont in
ĠCl oud
Ġgener ating
Ġb acon
Ġwe aring
Ġpre ference
Ġtra ils
Ġreveal ed
Ġdep art
ot ics
i ov
wh ile
br is
Ġcy ber
Ġvend ors
Ġdi am
Ġf ry
Ġmake up
Ġcl oth
o a
er als
Ġutil ized
Ġsub tle
ĠĠĠĠĠĠĠĠ ĠĠ
Ġabandon ed
Ġp it
Ġst ead
it ivity
Ġm Ã¡s
Ġp ink
y a
Ġrout e
Ġcall ing
Ġmel ody
ĠH all
Ġj un
Ġfl akes
Ġequ ipped
Ġimag ine
l ation
Ġhard er
Ġb order
Ð² Ð°
Ġru le
Ġly rics
v ol
ion es
ĠEx erc
omet ric
Ġemphas ize
Ġthr ive
ce ler
ĠFound ation
Ġt iss
P h
le g
Ġbr anches
Ġinterview s
Ġdra wn
Ġs ought
port s
w idth
Ġaltern atives
ly mp
o ir
P A
ĠB at
ĠM arch
Ġmot or
Ġweak nesses
rit ious
Ġco ach
b ase
ä ½
Ġphilos oph
Ġw rote
Ġjo int
S h
Ġz ucchini
4 5
al ysis
ĠRes p
Ġtest imon
Ġgraph ic
Ġoffic ials
Ġcur ry
Ġb ust
Ġover l
u bs
Ñ ī
Ġrad io
pend ing
Ġlog istics
id o
d a
Ġd ash
Ġritual s
al le
Ġprior ity
Ġs aving
ĠB ay
Ġdirect or
Ġr ul
it ting
Ġde bris
p ie
ad ing
Ġs in
Ġpers ist
re ach
ĠSc ott
Ġwell being
ĠRe peat
Ġcal endar
Ġban ana
Ġdes ert
Ġsh ops
" );
Ġprevent ing
in sert
ĠS ing
Ġsp ell
Ġag es
ĠW all
ĠEm ail
Ġaut h
Ġautom ated
Ġemb ra
Ġover c
Ġgard ens
Ġro ots
Ġgro cery
Ġh urt
Ġann ounced
b ar
os h
Ġve ter
Ġsubst itut
Ġex haust
Ġle verage
Ġvict ory
Ġw is
act er
el i
Ġind icate
Ġpar agraph
amp ions
Ġmar gin
Ġpap ers
is co
Ġst ew
Ġput s
Ġhus band
Ġnut ritious
Ġte ars
Ġappear s
Ġpar ks
ĠC a
ĠBen ef
ĠT H
ĠAll ow
Ġsc ar
ĠL og
Ñģ Ðº
iss ance
Ġse at
Ġreg ional
h ttps
ĠC over
un ately
ĠC ap
Ġinvest ed
Ġestim ated
l ong
Ġcon vent
Ġkn ife
Ġap artment
Ġm ansion
g l
ĠBe ach
ĠCar ol
ĠO ct
asc ular
Ġwel come
Ġsh ut
pl ant
Ġprec ision
Ġrestrict ions
Ġord ers
Ġcircum st
Ġsud denly
ĠProf ess
Ġch air
f ry
Ġthe ater
ĠB ack
Ġexp ansion
In sert
Ġapp les
Ġsur veys
Ġint ended
ĠD an
Ġm ale
Ġemot ion
Ġcla ims
Ġa er
ĠM ental
Ġhuman ity
Ġbe ar
Ġshould er
Ġtherap ist
Ġp il
Ġbr idge
Ð¾Ð ±
ĠIn it
Ġrecyc led
Ġbes ides
ĠO lymp
Ġhes it
Ġl ift
r is
l or
Ġt ab
Ġbur st
Ġmo dule
Ġnews let
Ġf ib
Ġmur der
Ġint ake
V ID
S T
Ġpump kin
p ing
Ġg alax
Ġ8 0
Ġj ack
iox id
ĠCon duct
ĠEx amples
Ġtravel ing
Ġreferr al
ĠB ook
ĠF it
ĠJ ul
Ġdevelop ments
b ility
Ġinst ruct
Ġrel at
b uilding
m es
ĠF orm
ind er
ĠS ustain
ĠN ative
Ġwid th
Ġinflamm ation
Ġpers u
Ġdr iven
Ġdisplay ed
3 3
Ġref used
Ġ201 3
Ġwh isp
Ġcur ric
Ġhasht ags
oo s
Ġinc hes
Ġse ctions
form ance
app le
Ġhar vest
Ġhe al
Ġche es
Ġbro ther
Ġdec ide
Ġv oid
Ġnar row
ar n
ĠS ch
Ġtell s
Ġrep et
Ġex it
w ell
Ġcollect ed
Ġunc over
Ġind igenous
O T
ĠInst all
Ġtalk ed
I nt
ĠAug ust
er as
Ġdisc ipl
ĠS out
Ġclar ity
es ter
Ġso ap
og rap
h igh
Ġh orm
Ġunivers ities
abet es
os ion
Ġport ray
Ġout come
Ġinvolve ment
as ive
Ġshad ow
Ġre usable
à¹ Ī
ĠC at
b ell
Ġch urch
ĠCol or
Ġn ative
Ġab use
Ġext end
as m
Ġassess ment
ĠVe get
ĠGerm an
Ġmyster ious
ĠAl tern
Ġtutor ials
u a
in ant
ĠSm all
iv ia
Ġinst ant
Ġhold s
Ð¾Ð ½
Ġreg ulation
Ġev il
Ġact ual
other mal
Ġd ut
Ġmaxim ize
Ġpromin ent
Ġint el
ĠAn n
eng er
i able
Ġinvest ments
Ġaffect ing
Ġcirc le
Ġwh is
Ġsuper natural
Ġbro ccoli
Ġphot ograph
ĠW ashing
Ġrob ust
Ġp ushed
ĠB i
ric ks
ĠT urn
m eg
ĠWith out
Ġpret ty
ĠPro t
b ut
ĠR ock
Ġreg ul
ĠExper iment
Ġha z
ĠJ ason
Ġin n
ĠEng ine
Ġcompar ison
ĠL os
red ict
Ġsal e
Ġvis ible
C on
ĠCent ral
________________ ________________
Ġe ight
Ġdead lines
ĠB ig
Ġint rig
Ġswim ming
re qu
Ġgu ess
Ġsens es
ĠW ood
ĠJ une
Ġqu ote
ĠSe pt
ch ing
Ġrec urs
gg ed
ĠY eah
ĠC all
ĠMon itor
Ġinitial ly
Ġneigh b
Ġh ip
Ġlaw s
Ð» Ñı
ĠCom b
Ġenab led
Ġceremon y
Ð» Ð°
Ġult imate
c est
Ġpro of
Ġvac c
T o
s hip
ĠSo ft
Ġclin ical
Ġse ed
Ġdrug s
à¸ Ń
Ġprote ins
im mer
Ġout line
Ġknow s
Ġu pper
ĠHe ad
Ġdev ast
ĠJ AS
Ġapp lying
Ġpurch ases
Ġrelig ion
ĠF il
Ġcommun ic
ĠP ress
ĠSec urity
Ġant ioxid
d ep
ĠM ond
ĠPh ys
ard ing
Ġdraw backs
Ġregard less
le ments
Ġtwist ed
æ Ī
Ġpos itions
Ġfr idge
Ġo vers
Ġch ances
cl ass
Ġsh ades
ĠAnaly ze
Ġmathe mat
ĠP armesan
Ġle af
Ġsp ots
ĠV ide
ĠH aw
ĠAs k
ĠRed uc
Ġth row
Ġyou th
C O
Ġincorpor ates
Ġste pped
opt ional
Ġs ere
ĠGr illed
Ġcook ie
Ġd ied
aren cy
ĠTra ining
Ġappe ared
Ġfrequ ent
Ġm ath
ad os
ĠL ou
Ġaff ili
ĠReg ular
Ġqu ery
Ġconsist ently
Ġmar in
ĠN arr
be at
Ġnutri ent
Ġloc als
ĠTw o
Ġconc rete
ĠTe am
an o
ĠAdd ress
ĠSom etimes
ĠAdd ing
Ġsil ence
Ġdeliver ing
ĠRo bert
Ġprotect ing
Ġb are
ĠE conom
ĠB et
op y
Ġdis pos
Ġdest inations
ĠS y
] )
Ġdem ographics
Ġfra ud
Ġutil ize
Ġpay ments
ĠB le
Ġdes er
Ġpromot ional
Ġtrans actions
Ġz ero
Ġmov es
Ġopin ions
Ġd river
r us
Ġloc ally
st e
Ġexplain ing
Ġmiss ed
Ġharm ony
Ġhe ating
Ġcollabor ative
ĠVe gan
Ġdra gon
br id
et ing
ĠIncre ased
resp ond
s k
ob al
Ġcomple ting
ed ing
Ġin ch
Ġex h
Ġph ase
and o
ĠT our
ĠIn formation
Ġqu eries
Ġspeak ers
Ġn ation
Ġtw ists
ĠDet erm
Ġval ued
ĠImpro ved
af e
Ġhaun ted
us ing
app y
Ġmanip ulate
oc ated
ush i
h oot
Ġt ack
Ġfacil itate
Ġadjust ments
ĠS and
Ġhol es
Ġkeep s
Ġsp oon
Ġper haps
ĠC ong
ĠWashing ton
ĠT ex
Ġrefriger ator
Ġanecd otes
Ġcircumst ances
ur ious
Ġref ers
Ġsil ver
ĠMex ican
ĠB rown
Ġo bs
g u
ware ness
Ġreg ulate
Ġfacil it
ĠW ed
ĠU N
Ġw and
Ġmeasure ments
Ġg ym
Ġcamp ing
Ġfil ters
Ġviol ence
ind ing
ot ton
Ġter rit
Ġgod s
E NT
Ġro ast
C D
ac ific
ĠO ld
iov ascular
Ġend ed
Ġkey word
Ġsh ock
Ġpack ed
Ġport ion
ou ds
Ġmap le
z ing
ĠMex ico
ĠT arget
ess ion
Ġf ingers
Ġpar aph
Ġforg iveness
Ġachieve ment
n ode
Ġn od
Ġrout ines
ĠĠĠĠĠĠĠĠĠĠĠĠĠĠĠĠ ĠĠĠĠĠĠĠĠĠĠĠĠĠĠĠĠ
Ġmed ication
ĠPh ot
Ġdocument ation
Ġst oring
Ġfail ed
Ġpassion ate
ĠJ im
ive red
ĠM ad
Ġwee kend
Ġhum mus
und red
Ġmuseum s
ĠR ena
ĠSt ring
ĠR ub
Ġs alsa
Ġmil est
Ġport folio
z il
Ġp ip
ac er
ĠM ont
Ġrepresent ing
Ġwhe at
Ġsched ules
Ġevalu ation
s pecific
ĠL ocal
b ooks
Ġse ar
Ġ2 2
Ġconf irm
Ġg athered
Ġrelax ing
Ġd angers
Ġadv ers
Ġcul inary
or i
Ġsent iment
b ies
Ġha ven
Ġpositive ly
Ġb ite
Ġbroad er
Ġrein force
olog ies
Ġpay ing
Ġinter ior
Ġalmond s
ic hes
Ġfac ility
Ġpe anut
ĠWh ich
Ġinput s
Ġ19 8
Ġunderst ood
Ġcar ried
Ġparticip ating
Ġb low
Ġher b
Ġvict im
Ġmonth ly
Ġmin erals
Ġdow nt
Ġcustom s
Ġconsum ed
Ġdis abilities
Ġcollabor ations
Ġcuc umber
Ġ( $
H T
ult y
Ġbelie f
ĠI P
ĠFr iday
t a
ĠH am
Ġmod ified
ĠV er
Ġdra in
if ted
Ġdes per
Ġrent al
Ġprem ium
is her
Ġwin ning
ĠPa ul
Ġpr inc
Ġ201 2
ĠHT ML
Ġint ent
Ġtut orial
Ġsle ek
Ġsubscrib ers
ĠBenef its
Ġpack ages
Ġrapid ly
ĠJ ew
eg in
ĠOut put
Ġphys ically
lish ing
Ġremov ing
Ġre form
Ġb on
Ġca ut
Ġinflu ences
Ġvir us
Ġcontroll ed
ĠS und
Ġqu es
ian o
Ġt on
Ġcult ivate
Ġcor respond
Ġbreath taking
a ver
l im
ĠS earch
ĠL ong
Ġst ages
ĠE X
ĠC e
Ġtour ists
fere nt
ĠK h
istic ated
Ġconvers ions
Ġseam less
Ġdo ors
Ġwor n
as tern
re ed
Ġo dd
Ġphys ics
Ġrepresent ation
ĠCommun ication
Ġartifact s
ot a
Ġfew er
ĠIt aly
ap hor
Ġcomb inations
Ġstretch ing
Ġse ctors
Ġelect ron
Ġen ch
Ġad equ
Ġun p
Ġany where
] [
Ġin sec
ĠC R
Ġother wise
ĠEl iz
ĠGe orge
Ġlight weight
c ers
ra pe
Ġre ference
Ġpo se
Ġs ister
Ġsud den
Ġbl ocks
or row
ad vant
ĠAn na
ce nd
ĠPart icip
Ġtravel ers
Ġroll ing
Ġse ven
Ġdiscuss ions
Ġt iny
o ices
ort hern
Ġvitam ins
Ġocc up
Ġco hes
Ġprocess or
Ġsod a
Ġc oding
Ġcon qu
Ġdura bility
in ars
ĠI D
ne xt
Ġgu arant
con nect
Ġreson ates
u ary
Ġexist ence
Ġacqu is
ĠJAS ON
est o
Ġst rain
A s
or ient
ĠCl ub
o oth
Ġr ing
Ġsur g
ig or
ber g
ĠJava Script
Ġmag az
Ġeleg ant
ĠLast ly
Ġsc reens
Ġform ats
Ġgen etic
% .
Ġ4 00
ĠE th
ap ed
Ġcryst al
Ġd airy
Ġresc ue
Ġlab els
w orth
Ġra cing
Ġcyc ling
ĠL em
' :
Ġsh ower
Ġdynam ics
m ates
ĠC ouncil
Ġfulf ill
eng ers
Ġsandw ich
ĠSal ad
ĠH om
ĠF und
Ġp hen
Ġdat as
Ġmig ration
Ġsc ream
rig ation
Ġ20 21
Ġcompet e
Ġlege nd
Ġst ations
ĠS ant
ĠA rab
Ġpe ers
ĠNarr ator
ĠRena issance
Ġcomp rom
Ġdec ades
Ġplan ned
Ġm ic
ĠD iv
Ġauthor ity
ĠM ach
ĠChild ren
Ġtail or
AD E
fort unately
Ġtempl ates
Ġjour n
ĠP rior
H P
ĠAr ch
plic ated
ov en
ĠBr idge
val u
Ġpe el
Ġprint s
Ġdecor ative
r id
Ġac celer
Ġqual ities
Ġ201 0
Ġforest s
Ġsoph isticated
Ġth read
int age
Ġg iant
Ġ4 5
Ġaest hetic
ĠThom as
Ġg ender
ĠL ib
Ġn ur
te e
m ic
Ġcurric ulum
v able
Ġa ids
Ġr um
Ġg est
Ġpr ison
pro duct
Ġpol y
Ġbut t
Ġcapt ures
ĠV ict
Ġclean er
i ene
Ġbre ast
Ġdecre ased
Ġrece iving
Ġimag ination
ĠThrough out
Ġtur key
Ġre ject
Ġcouns eling
Ġt ags
Ġe ld
Ġdr inking
IN G
Ġseason al
s um
Ġd ense
ĠJess ica
Ġchar ging
Ġst ro
Ġwould n
Ġ9 0
land s
Ġe ager
ĠE xt
ĠÑ į
Ġp ra
ĠC ode
ĠF ree
Ġtest ed
Ġmin i
ĠP os
Wh at
A B
I nd
Ġans wers
ĠSoph ia
Ġsauce pan
Ġconven ience
Ġl oud
Ġresol ve
Ġabs olutely
c al
ĠRed uce
ov ed
Ġtrou bles
Ġhom eless
I V
Ġ â
Ġm es
Ġdi abetes
Ġconcent ration
h av
Ġv ocal
Ġgra ins
ist ance
Ġcan vas
ĠM el
Ġp anc
Ġattract ive
Ġband s
it ational
b ling
Ã© s
Ġto ll
Ġecosystem s
Ġb ills
Ġf ederal
Ġprodu ces
ĠFe b
ph ony
Ġvitam in
Ġsacr ific
Ġrep s
ĠFr ank
Ġsp ok
ĠA N
Ġdef ense
ual ity
Ġo z
o T
Ġwhe never
Ġcla im
Ġauth ors
Ġp ad
Ġwat ers
f il
s v
s pe
Ġfoot ball
con f
Ġtransp arency
y gen
Ðµ Ð¼
ĠÂ ¿
ul s
Ġmanufacture r
Ġcontribut es
Ġprec ise
Ġdemand s
Ġdist ant
lu enc
Ġphr ase
g ie
ut ch
ĠD if
Ġoccas ionally
serv ice
ĠA p
Ġparaph rase
Ġconsum e
att ered
im age
Ġsing ing
he m
P C
ĠU RL
l en
Ġalign s
on na
Ġvac ation
ĠMond ay
Ġcarry ing
Ġturb ines
Ġdist rict
Ġintrodu ce
ĠRep ort
Ġh ole
Ġcel ery
Ġhost ing
Ġshould ers
Ġobject ive
v a
Ġrob ots
Ġd ivers
Ġobstac le
Ġmob ility
gener ated
Ġvisual ize
H e
Ġcl ouds
Ġm ail
Ġo d
ĠJu ly
Th is
Ġto pping
Ġgreat ly
st one
Ġret ire
ĠS atur
' ;
Ġhabit ats
Ġrec over
ĠRev olution
ĠH y
Ġlight ly
å ħ
ou st
ist ical
Ġal ert
Ġtest ament
Ġrem ark
Ġpath s
Ġfra gr
Ġarom a
V al
ĠN ature
Ġk ale
Ġdram a
ĠH indu
Ġdistribut ed
Ġspl it
y e
Ġmotiv ations
Ġepis ode
om an
Ġen emy
Ġdel ivered
Ã ¨
n uts
Ġaddress es
Ġcontinu ous
Ġh ier
is a
ct ic
Ġst atic
E C
Ġdef ined
Ġ2 3
Ġmyth ology
ĠC apt
Ġelect rical
Ġdefe at
Ġe erie
Ġg am
Ġab stract
ĠBra zil
I ON
o ors
st ore
ĠSp read
Ġbutter f
Ġ201 1
in ar
Ġf ellow
ĠImp act
Ġpat ience
Ġto ward
Ġhy p
Ġsto pped
j o
am ental
f ire
Ġreflect ing
ove mber
Ġdiscuss ed
ĠIslam ic
and a
ep ing
Ġsmo ked
Ġh ike
Ġref uge
Ġaccount ability
Ġz one
ĠL ord
Ġcl ues
Ġb alls
U R
Ġconduct ing
Ġresil ient
Ġf olk
Ġment ions
ĠTex as
L ine
cul ate
ĠN on
t ight
ĠL ake
Ġpe ak
ĠExerc ise
ĠSol ar
ob e
ĠB ank
ect ive
Ġam en
Ġess ence
ĠComp anies
m ail
b a
Ġfro st
Ġsubject s
Ġass ets
ĠC EO
ess age
Ġper m
ĠSp ace
Ġposs ibility
Ġp ed
W S
Ġgu ides
Ġwork force
Ġpl ain
Ġg ate
Ġemploy ers
I A
ĠJ es
ic ians
ĠMaterial s
Ġmet aphor
Ġtour ist
Ġloss es
if ice
em ies
Ġev oke
Ġsens ation
Ġcard iovascular
ll o
b n
Ġbe ings
co very
Ġtem ple
Ġfix ed
Ġtestimon ials
Ġret reat
Ġlent ils
Ġf lying
o ber
Ġn u
Ġcooper ation
yc le
ĠHist ory
Ġwonder ful
m ely
an qu
ĠEst ab
Ġcurs ed
2 4
m m
ul f
ĠP sych
Ġbu zz
ĠL and
ĠP et
ĠBudd h
Ġcont est
Ġtell ing
ĠCont act
u ces
Ġnuc lear
Ġal ien
Ġunder lying
p at
he alth
Ġinvest igate
or ious
Ġas p
ĠL aw
v in
ĠS weet
Ġte eth
Ġout fit
ĠS low
ĠNet work
Ð¼ Ð¸
Ġarchitect ural
insp ired
Ġremind ers
hes is
Ġintervent ion
Ġ vert
ĠCO VID
ies t
st ream
Ġanim ations
Ġf alls
à¹ ī
Ġn one
ir ts
t es
ĠCh ic
ou b
ĠI ce
Ġsign als
Ġm old
y on
Ġse al
Ġdifficult ies
ad y
it ative
ĠVis it
Ġset backs
Ġn ost
Ġpersonal ize
Ġdisapp ear
ab il
Ġ+ =
Ġir rigation
Ġa u
ind ex
ĠW ord
æ ĺ
ĠM ah
min ute
Ġf i
Ġsc rew
Ġover coming
Ġprof iles
ce mber
Ġfund amental
Ġ ?
Ġtr ies
Ġun for
Ġhous es
Ġo ats
Ġra il
Ġmotiv ate
ĠL eg
ĠMan ager
Ġinc ident
Ġprov en
Ġcustom izable
Ġgather ing
ĠChick en
p read
ĠRep ublic
ĠWind ows
ĠGener al
Ġintel lect
ĠF ADE
Ġc out
ĠG ive
k ins
Ġconnect ing
Ġy e
Ġfresh ly
++ )
fore st
Ġ ÑĢÐ°
Ġd ancing
Ġsh ade
Ġauthor ities
Ġend ing
Ġf ur
Ġcamp us
ĠD i
crib e
ĠM ike
se arch
Ġpre serving
Ġstructure d
Ġoccur red
Ġdog s
Ġreact ions
ĠYog a
è ¿
ĠTh ai
Ġ3 5
ĠPre p
g n
Ġo re
Ġg ene
Ġsubst ance
e lect
bo ards
Ġbl ess
Ġcar amel
ĠSoc iety
Ġcrim inal
ĠM ult
-------- --------
Ġto oth
ĠU til
es ome
Ġrelat able
Ġh undred
ĠL ow
ĠN or
ĠM iss
Ġsh ots
ĠF riend
Ġst rand
Ġmod er
ĠExpl ain
t alk
Ġbott les
C H
Ġf iction
Ġchart s
um ing
ĠVal ley
Ġsociet al
Ġexpos ed
Ġmet aph
Ġreli ability
ĠSept ember
B T
Ġp itch
Ġre aches
Ġth us
Ġ ðŁ
à¹ Ģ
Ġadminist r
Ġstru ck
Ġcam eras
ĠAcad emy
Ġparam eters
Ġstud io
as hed
gra de
Ġdam aged
Ġpolit ics
Ġexpress ing
Ġlandsc apes
[ '
re y
oc ols
Ġr anging
Ġceremon ies
s ub
he ro
Ġsu its
ĠR ome
Ġtast y
2 3
Ġn om
Ġfem ale
Ġuncertain ty
Ġent ers
Ġevol ve
Ġsqu ash
Ġcool ing
Ġent r
Ġaddress ed
Ġexpand ing
m ind
ĠL ay
Ġcas ual
Ġbegin ner
p urpose
Ġa qu
Ġ7 0
Pro duct
Ġtempl ate
Ġan ger
x ic
Ġh al
Ġob serv
dition al
Ġurg ency
Ġdr ivers
Ġsupp l
Ġsen ior
C S
Ġc otton
part y
tr ans
Ġfact s
Ġinflu ential
ĠIm age
ul if
Ġbo at
ĠP acific
Ġdra g
ĠI ll
aut hor
Ġexperiment ing
Ġsol o
et ed
Ġadvent ures
ĠP op
om a
Ġexhib it
ce nding
Ġgener ates
ĠIs ra
Ġhes itate
Ġupl oad
ulif lower
p ower
dep th
Ġfundra ising
Ġout reach
Ġp ill
ĠF ort
Ġbatter ies
Ġcelebr ation
t uce
ides pread
Ġindic ating
Ġass emb
Ġrec ording
ĠAd just
ĠWe ek
Ġvers ions
Ġ2 6
gan o
Ġsort ing
Ġamen ities
ĠJ enn
Ġox ygen
I m
Ġn est
um bers
Ġar my
Ġcontrol s
Ġs ick
Ġf ate
d ess
Ġso le
g ent
Ġover night
Ġscr atch
ĠJo in
Ġch am
ĠCh ocolate
ĠGl obal
n umber
r ary
Ġt ip
Ġjo ined
Ġaff irm
angu age
Ġst uck
or gan
ec urity
Ã ¤
Ġg rief
anc ers
Ġdel ight
Ġc orporate
Ġnegative ly
ĠJan uary
Ġrust ling
Ġinsect s
ĠW here
Ġdon ations
AC K
Ġso othing
ĠEx p
Ġste ak
pass word
ĠR ad
Ġmas k
ĠP eter
Ġhun t
Ġs amples
id al
cul es
ym akers
ĠW ild
Ġappl iances
Ð¾Ð³ Ð¾
or ia
Ġtrou ble
oc ate
Ġpursu ing
ab eth
Ġtri ps
Ġbutt ons
Ġsaf ely
Ġschedul ing
Ġprotect ed
Ġcandid ate
Ġfet a
ĠJes us
ĠM rs
Ġo w
Ġaccommod ate
i ens
Ġvalid ation
Ġtight ly
Ġsacr ifice
Ġcontinu ously
ĠV an
om ing
Ġexpress ions
Ġtransp arent
C ont
r ange
Ġw idespread
ĠM er
Ġstate ments
Ġbur ning
Ġwhe el
Ġwar ning
ĠT er
Ġla pt
Ġtow ns
ĠDeterm ine
Ġment or
Ġsubs cription
Ġwealth y
Ġh ide
Ġloc k
um ns
Ġ rib
Ġimmedi ate
te in
Ġtreat ing
Ġinteg ral
Ġsmo ke
Ġemot ionally
Ġexhib its
em a
Ġal though
Ġorgan izing
Ġgen u
Ġmagn etic
ook ed
Ġpersonal ities
ro ad
Ġben ch
Ð´ Ð°
Ġowners hip
Ġag reed
ĠN ovember
als amic
5 5
Ġmas hed
t ical
onom ic
ĠR yan
u ous
Ġsa us
Ð¾Ð² Ð°
ht ml
Ġlo an
Ã ¶
ĠM obile
tt p
Ġ2 8
Ġdo ctor
ond s
Ġb anks
Ġinteg rating
ou red
Ð¾ ÑĢ
å ¤
ĠN ight
Ġprom ise
acks on
ĠA D
Ġprot ocols
ĠAs ian
è ¯
Ġsty lish
Ġcomb ines
ĠS ever
Ġf on
Ġ čĊ
ĠH en
Ġenh ances
Ġca ve
Ġcoast al
ĠOptim ize
Ġcomp an
Ġste am
Ġf its
ĠOff ice
Ġconv in
Ġw ake
ren cy
ĠTr ump
ĠMar c
print ln
ĠFirst ly
he w
Ġdef end
Ġcast ing
ĠB ec
Ġdiff er
Ġmanufacture rs
Ġpres ident
ĠFin ancial
pie ce
Ġg ap
m ax
Ġpul led
Ġnew sp
Ġcandid ates
M A
Ġremark able
in ity
Ġlet ting
ar ray
ios ity
Ġencourage ment
Ġv intage
Ġmer ch
Ġa ug
p ython
b oh
Ġdel ay
Ġair tight
ky o
ĠS af
Ġchar ged
Ġtr anqu
Ġa wards
ĠL ine
Ġprevent ion
om y
Ġinval id
ĠB egin
Ġsurf aces
Ġref ine
m ap
Ġin hab
Ġstream line
an as
Ġrad ius
ress ed
Ġsun set
ĠAt l
Ġhob bies
Ġbat tles
un ting
Ġtele vision
ĠS ign
Ġcustom ization
en ame
Ġst rict
Ġindepend ence
Ġfulf illing
ĠSe a
ĠSu ccess
Ġisol ated
Ġmetaph ors
Ġs ushi
Ġconf usion
Ġcut s
Ġcast le
Ġlaugh ter
Ġpartic les
Ph one
Ġsens ations
u le
Ġair craft
Ġbreath s
ĠSatur day
Ġdetect ive
Ġhun ting
Ġmark ed
Ġantioxid ants
int erest
ĠEnviron mental
iv ation
Ġim per
Ġrow s
Ġen emies
Ġspec ify
ĠIntern et
Ġmir ror
ĠC ross
o ol
Ġadop ting
ĠB an
ĠUn fortunately
l ers
ÑĨ Ð¸
ĠC ase
ĠTrans port
ĠUnder standing
ock et
Ġexpand ed
ĠVol unte
ĠDif ferent
ĠOct ober
ĠN atural
ĠDe cember
Ġann ounce
Ġdirect ions
à¹Ģ à¸
Ġprom ising
Ġhabit at
Ġg ifts
Ġglob ally
ĠMed itation
Ġag ents
ĠAnd roid
Ġreflect ed
Ġj al
ane an
Ġsk i
C A
ĠR ose
Ġacc omp
boh yd
Ġdram atic
Ð¾Ð» ÑĮ
9 0
n oon
Ġpo et
Ġfasc inated
Ġcare ers
Ġrel ie
ĠDis play
Ġacquis ition
ĠC ast
ant ing
Ġextre mely
ĠAr ts
Ġenthusi asts
ĠLem on
Ġm int
ac ci
Ġsign ature
Ġtim ely
ĠF arm
Ġexper iments
ĠSund ay
ĠEliz abeth
ie val
ĠChic ago
ĠChar l
Ġl ake
Ġvulner ability
Ġt ie
Ġf ried
ist an
Ġconnect ivity
Ã §
Ġrelax ed
Ġunderg round
is ible
Ġworksh op
Ġp ic
Ġcl ubs
l abel
Ġfe e
Ġtravel ed
" ?
Ġm aps
bs ite
Ġpro c
ĠDis cuss
am i
Ġcl ock
Ġque ue
Ġthe at
ĠSever al
Ġpersu asive
ĠSt ory
Ġadv is
ĠWrit ing
Ġse es
Ġal ike
Ġconsider ation
Ġinqu ir
Ġmot if
Ġout lines
ÑĤ Ð°
ĠLear n
Ġdom ain
ly n
d ers
Ġm erg
rop ical
g iving
Ġcomput ers
Ġneut ral
ĠR oll
Ġe th
Ġcoc oa
I F
m other
w in
pt ed
orpor ation
Ġdess erts
Ġear ned
Ġchatb ots
Ġcon gest
ĠPr int
bers ecurity
Ġatt itude
ĠV en
get s
Ġke ys
Ġob served
Ġadjust ing
Ġprocess ed
Ġbelie ves
ĠMe an
e ed
ĠJ ackson
Ġs i
Ġge othermal
ĠC ard
ĠMed it
Ġimpro ves
Ġgrav itational
å Ĵ
du ction
bre ak
ĠE astern
Ġmet ab
f its
Ġv ow
Ġmist ake
B A
Ġsalad s
m akers
å Ī
en ne
Ġic on
Ġmin or
Ġflu id
Ġhor se
Ġforg ot
Ġint im
Ġaccept ance
it an
Ġam pl
ar ks
fere n
Ġ2 7
Ġaut onom
Ġwork flow
ru ary
Ġmind s
Ġocc urs
ĠD u
Ġbond s
ĠFranc isco
Ġw ines
Ġdis advant
Ġs ights
ĠRuss ia
ÑĢ Ñĥ
Ġeduc ate
Ġrepe ated
ĠL atin
now ned
Ġgram mar
Ġswe at
Ġcub es
Ġye ast
ol t
ĠE ll
ĠLe ague
Ġel ig
ĠSustain able
Ġacknow led
ĠEX T
r ors
Ġven ue
ĠDe v
Ġdiscover ies
Ġadop ted
Ġact s
it o
ĠC T
Ġan gle
ĠTra il
Ġtow el
nam ent
ĠO per
Ġattempt s
Ġs ne
ĠK now
Ġdemonst rated
ĠS S
oc ument
ĠN ode
ĠPart ners
y ard
ĠK at
v o
ĠK en
ĠApp ly
F ile
w ear
Ġliter acy
Ġcry pt
Y Z
Ġfer til
ill as
Ġm aze
Ġjud gment
ĠA S
Ġdr um
Ġl ur
ĠCl ient
Ġob serve
ĠSc he
Ġdiv ide
! !
ast ics
us hes
ad ed
Ġcl ut
ĠAn alysis
Ġadapt ations
Ġgra in
Ġ} );
å ®
ĠAtt end
al i
Ġbust ling
Ġhy per
Ġre ct
Ġenh anced
pro of
Ġcons ists
Ġillust rations
s is
un ks
ĠP lus
Ġstead y
3 5
Ġl amb
Ġdef ault
Ġlux urious
Ġind oor
Ġstri ke
re c
ĠA z
Ġroad s
Ġc ir
Ġimp ression
ĠTo kyo
Ġmole cules
Ġadvers ity
ĠS ou
Ġh at
em ail
d ig
Ġk illed
Ġbur den
ĠL ED
um ph
Ġrecommend ation
Ġdescrib es
ĠP ers
Ġplay ful
Ġdesign er
ĠVide o
In valid
err anean
act eria
Ġroll s
Ġt or
Ġp inch
Ġbi om
ap le
izz es
ĠI oT
Ġhum id
Ġnegot i
Ġore gano
em pl
ĠB ud
ĠInc orpor
ĠOb ject
Ġbo ss
Ġaccommod ations
Ġjun gle
Ġd amp
Ġh ung
Ġinvol ving
ĠÐ· Ð°
Ġstraw berries
Q u
ĠD en
c hers
ou ble
h ow
ĠS pecial
Ġun ne
Ġhead s
el iness
char ge
Ġrat io
[ ]
Ġen erg
ĠB ill
l ay
Ġl ies
ĠMed ical
Ġdes p
Ġper ce
Ġretrie ve
Ðº Ð°
Ġchemical s
Ġplant ing
Ġtre m
åĴ Į
at ter
Ġh ub
Ġsign ed
ad ian
Ġsh orter
arch y
ĠCe lebr
Ġdec imal
Ġincent iv
v y
al g
Ġed itor
Ġlet tuce
Ġpar king
Ġrepl aced
Ġh ang
Ġaccomplish ments
Ġmechan ism
ç Ķ
Ġengine ers
Ġwh ipped
Ġreward ing
ĠRO I
Â ®
ĠK it
el ly
Ġfunction ing
Ġcirc ular
f unction
ant e
Ġbet ray
Ġact ors
Ġb one
ĠE r
Ġstud ied
ĠM ic
Ġcover ing
ĠFl or
Ġtit les
Ġ vel
Ġl ip
b ow
Ġlever aging
m ath
Ġne cess
ang o
ath an
Ġperson nel
ĠHot el
ĠD ra
ĠV ir
B ut
ĠC up
Ġpe er
Ġclos ing
ĠE ffective
Ġtr ials
Ġjo ining
ĠB ob
ĠL ar
Ġent ity
Ġdro ps
Ġphilosoph y
Ġcon ferences
ĠP HP
Ġstri king
Ġtyp ography
Ġwis dom
re r
Ġremov ed
Ġt art
Ġl id
ĠR un
Ġsc ared
st ick
Ġgar nish
ra c
Ġfoot age
Ġrat ings
ĠT ower
ĠM ass
Ġdis p
Ġimm ig
ĠMedit erranean
Ġr ating
Ġintellect ual
Ġdig est
Ġburn out
Ġopin ion
Ġh anging
ot y
ĠPro per
hav ior
Ġsculpt ures
ch a
Ġsc ope
Ġhy brid
ĠExpl ore
ĠE qu
Ġcollect ions
Ġv ess
Ġunp redict
ĠÐ »
Ġminimal ist
p et
ĠHum an
Ġcompat ible
ĠC ath
Ġch apter
ĠNut rition
ud e
Ġoper ational
Ġ* *
Ġrose mary
Ġrepresent ed
Ġexecut ive
Ġearth qu
Ġpre val
Ġexam ine
ĠIncorpor ating
Ġinnov ations
Ġgard ening
Ġbra very
um er
Ġbreat he
Ġplan e
Ġ1 000
Ġtra ding
Ġimm ense
Ġbreak down
re m
Ġab und
Ġadequ ate
Ġs ed
Ġin sert
ĠJ ac
os a
Ġdis s
ĠJ on
Ġmod es
Ġimpress ed
Ġad ult
Ġrad iation
Ġhop es
ĠP M
Ġgu ys
en es
ĠS pec
Ġdi pping
Ġdeploy ment
o ft
re ate
ues day
Ġbo ards
Ġdoub t
Ġb io
Ġsh ore
Ġpast ry
Ġlif etime
Ġstream s
ĠA M
ĠCom put
Ġprob ably
6 5
h i
ĠP ack
ĠE valu
t itle
Ġar rest
Ġques ion
R e
Ġsp at
Ġaccomp an
Ġconfig uration
Ġdi pl
Ġsubs id
a way
f ting
Ġch ill
Ġfl uff
ura ble
ĠC ream
po ol
Ġs ail
Ġtrust ed
Ġtroubles hoot
ĠL it
ĠSim ply
d em
n o
Ġterr ifying
Ġl un
ÑģÑĤ Ð²
Ġdash board
`` `
iet ies
f ish
Ġpres ents
Ġbare ly
Ġpass engers
ĠMag gie
D ate
ĠR oyal
eli hood
ĠB ir
Ġse asons
in ates
Ġpro ve
Ġwind s
Ġearth y
F F
res ist
Ġestablish ing
Ġtow ering
er ly
m n
Ġreact ion
Ġf ir
Ġf inger
Ġd rew
ĠNew s
Ġwilling ness
ĠFeb ruary
ĠBle nd
ĠU r
ĠPh il
as ures
Ġhand les
å Ĳ
ĠProv iding
Ġinstru mental
Ġclim b
C ol
Ġpot tery
ĠReg arding
in n
Ġble nding
Ġcontain ing
ĠW i
ind rome
Ġper ception
Ġdifferent iate
Ġappreci ated
ä¸ Ģ
Ġe ars
ĠÐ °
Ġaccomplish ment
ĠG ame
im m
ag us
. ]
step s
Ġpuzz les
ĠComb ine
Ġp y
Ġcapt ured
ab ul
Ġcap ability
L L
Ġl oose
S ON
ĠK aren
if fs
Ġdim ensions
Ġmedit ations
Ġlik elihood
ĠRec ommend
Ġm uff
Ġlik es
ĠSpr inkle
Ġste ep
ĠSl ide
Ġb un
ĠL ee
Ġ3 50
Ġdis put
v ings
ĠRuss ian
Ġv oices
Ġregist ration
Ġcohes ive
Ġcongest ion
Ġtri umph
b age
ĠCh ange
Ġgu ilt
ro ot
Ġmechan ics
ru b
I I
p m
ĠRec ipe
on acci
ĠĠĠĠĠĠĠĠĠĠĠĠ Ġ
ĠD ate
Ġlist ed
er ness
F i
row ave
Ġra ck
ug ar
Ġbrow ser
Ġpain ted
Ġbuy ers
Ġaccount able
i ar
but ton
Ġskin care
Ġimag ined
ĠE p
w est
Ġhousehold s
d ar
Ġw ore
ot ive
ĠIr ish
N umber
ĠP age
Ġconst ra
Ġcred ibility
a o
Ġy ields
Ġext ension
Ġunne cessary
ig raph
ĠÐ ³
ĠTe xt
ĠBo ard
Ġf ram
Ġcur iosity
ĠAustral ian
Ġfon ts
Ġsuppl iers
ĠB ang
Ġsc roll
es ame
Ġtiss ue
Ġhospit ality
Ġsc ores
Ġsym phony
bur g
Ġfab rics
Ġneck l
ĠT aking
m od
Ġpriorit izing
Ġpl acing
Ġsa uces
Ġ- >
Ġremind ed
Ġsuff ering
Ġb acteria
ĠJ ESS
tt i
D on
Ġl eng
ĠTh urs
ĠEng age
Ġaction able
Ġpuzz le
C C
Ġafter noon
ĠMind ful
ĠP en
Ġmod ifications
ĠInf luenc
Ġexplain ed
AR T
ri age
Ġexecut e
art ed
Ġ! =
Ġl ush
Ġfl oral
Ġweap on
y les
ret te
Ġout s
Ã± o
pl it
AT E
Ġopp on
Ġvict ims
ad or
ĠAmeric ans
Ġt ent
ĠT uesday
Ġthreat ened
R I
Ġgirl s
ad as
Ġdec ade
Ġrest ore
Ġdecor ations
s l
ĠWed nes
Ġdistribut e
ĠJen na
Ġn er
Ġdig it
Ġbig ger
ĠFam ily
err or
Ġcontribut ion
Ġfragr ance
Ġc odes
ĠSu pp
ers hip
ĠGard en
rape ut
pr ise
Ġen roll
Ġco aches
Ġvar ied
Ġdead line
Ġdepict ed
Ġfac ulty
b ound
y r
Ġgod dess
ĠCl a
Ġt ro
bn b
Ġst d
Ġadvert ise
Ġsqu ee
Ġharm on
atur ally
Ġbr anch
Ġt orn
ĠF re
Ġcomm ission
anc er
ĠCamp aign
Ġtalent ed
ĠTh ough
Ġhe ated
ĠSet ting
ĠDet ective
a wareness
Ġachie vable
Ġpract iced
Ġal iens
ĠB B
ĠAd vert
Ġde lete
Ġre ferences
Ġr ank
ocr atic
Ġn ull
place ment
ĠÐ¾ Ð±
Ġdist ances
ĠTra ck
rad es
Ġstart up
ĠQu estion
Ġcom plicated
Ġen force
at is
ĠM ot
Ġqu izzes
ĠÐ¿ Ð¾
Ġabsor b
k i
ĠAng eles
Ġfo am
c atching
Ġwith stand
Ġme ats
Ġthere fore
Ġcol umns
Ġbrown ed
ĠPer formance
u er
ĠF our
Ġanx ious
Ġheart y
Ġcoord ination
Ġrel ate
ĠX YZ
ion e
av ed
ap se
Ġdist ur
Ġdress ed
D F
el come
ib l
Ġpe as
Ġseason ed
ĠQue en
Ġpre servation
Ġexp ort
p aced
ci pl
ĠGu ide
Ġhar ness
Ġmole c
s ite
ly wood
os ing
Ġdirect ed
Ġbasket ball
j a
Ġgr ant
Ġcalcul ates
Ġdiv ine
Ġarrange ments
Ġfor th
ĠAl ways
Ġto ast
Ġemphas izing
Ġlon eliness
Ġdef in
orient ed
Ġaffirm ations
Ġp iv
le ft
ott a
Ġhaun ting
comp assion
ĠD ark
Ġtick ets
Ġli ber
Ġunderg o
a is
ed er
Ġcomed y
Ġf ict
Ġlist ened
ĠTra vel
ĠKore an
å ľ
Ġl ung
um ble
Ġphotograph s
Ġer osion
dis covery
Ġ19 7
i as
Ġfour th
bohyd rates
Ġbe an
Ġc ort
Ġthr illing
Ġsor ce
Ġsociet ies
Ġind ul
Ġregul atory
N ode
P r
op es
ĠL ooking
Ġpal ette
Ġgrav ity
Ġfrag rant
Ġw ax
Ġg ig
Ġexpl o
Ġst aring
Ġres ort
Ġd irt
l ists
ĠSp ain
Ġgr ants
ina ig
Ġseason ings
Ġsepar ated
Ġan cest
Ġmed ieval
ĠV oice
Ġmiss ions
Ġbelong ing
Ġn an
ĠE nt
Ġsc enery
ty pe
ĠVis itors
Ġpro active
Ġdr izzle
Ġdem ographic
Ġaccept ed
Ġd ating
Ġed it
Ġant ib
Ġtransl ation
Ġdi agram
Ġfin ancing
à¸ ģ
Ġweek ly
Ġpick ed
d rop
Ġag ent
Ġsmart phone
Ġstri ps
Ġt ricks
Ġlisten ers
ov ing
Ġmar ks
Ġsmell s
st ate
ĠFlor ida
ĠAltern atively
ĠHe art
ĠPart ner
Ġfac ial
y er
ĠH yd
ĠH i
ĠB ody
Ġbl ues
Ġb ones
ĠC lear
Ġeduc ators
st ers
Ġcompost ing
he at
Ġstat istical
Ġtire lessly
ed ge
Ġpolic ymakers
are lla
amb oo
Ġfrost ing
A G
T ime
Ġtrans it
Ġplace ment
ĠThurs day
Ġinn oc
Ġn ose
Ġexpress ed
Ġl es
Ġg rip
Ġpos es
ĠEn h
ĠM ia
Ġdisc overs
ĠBut ter
ĠCustom ers
Ġse x
Ġprint ed
Ġexecut ion
Ġprodu cers
Ġment orship
k er
S c
Ġsp a
ĠWednes day
Ð» Ðµ
inaig rette
Ġmin ing
Ġscen ic
Ġmajor ity
ĠJo e
Ġp in
Ġl ighter
ol ves
ĠH appy
ar se
Ġload ing
Ġinsight ful
Ġbl ur
ĠTra ditional
Ġst om
Ġhost s
Ġund ers
zz arella
Ġadminist ration
Ġtrig ger
Ġoper ator
ĠĠĠĠĠĠĠĠĠĠĠĠĠĠĠĠ Ġ
ĠH ill
ĠL ive
Ġt ape
ential s
Ġign ore
ĠIndust ry
ĠExper ience
us ter
Ġn ob
ĠProm pt
Ġc akes
Ġun like
Ġminim izing
ĠDevelop ing
ĠPro cess
Ġprior ities
Ġreson ate
ĠEconom ic
igh s
Ġaccount ing
æĺ ¯
ĠAir bnb
M y
he tti
ĠL anguage
à¸ £
Ġdivid ed
Ġbel oved
ĠBe ing
ĠTy pe
Ġwas hing
Ġsh ips
ĠR ice
t d
ag na
Ġassess ments
ĠOl ivia
ĠSpr ing
ĠP T
Ġwor se
Ġbowl s
ĠFore st
ĠBec ause
Ġcomplet ion
ĠCS V
Ġ \
Ġwor ried
ain ts
Ġcor ruption
Ġill nesses
Ġpued e
Ġpre v
ĠS leep
Ġchar ges
Ġkne es
Ġto ys
Ġsub sequ
Ġ2 000
Ġwor st
B S
n ut
ĠC ooking
Ġall erg
abul ary
Ġdistinct ive
ĠMart in
Ġretire ment
ĠW ay
ĠLou is
ar on
ĠC D
Ġend urance
Ġmut ual
Ġcockt ail
Ġhesit ant
Ġpurch ased
å Ĭ
Ġc ider
ĠIn nov
Ġfo il
itud es
Ġext ent
Ġtre acher
Ġal erts
Ġaug mented
ĠO cean
Ġcraft s
Ġastron aut
Ġleg is
par agus
ĠI S
Ġseam lessly
ot ional
ĠA WS
ĠD utch
Ġassign ments
imed ia
Ġn ights
Ġcost umes
Ġun us
." )
IC A
Ġcow ork
Ġal ph
w ar
h op
Ġl ined
3 2
ĠG ames
ĠTh ose
Ġlo ans
Ġlov ing
Ġfulfill ment
IG HT
Ġmilest ones
ĠA ff
Ġcy bersecurity
ä ¹
Ġdr ives
ĠL isa
ĠHealth care
Ġgradu ate
Ġ" $
Ġsur ge
Ġview er
ĠFe ed
ĠT or
Ġsp ine
A dd
l ined
Ġre nowned
Ġautom ate
Ġcomple ments
ĠBl ock
Ġfound ed
for ward
Ġconc ert
Ġsad ness
ĠĠĠĠĠĠĠĠ ĠĠĠ
Ġbl oom
Ġstart ups
Ġgl ue
Ġre verse
Ġemploy ed
as hes
ag hetti
Ġv irt
Ġhas h
arr ant
Ġhapp ens
Ġge ometric
Ġfict ional
6 4
Ġa x
Ġmas ks
iv a
Ġst icks
Ġac ids
à¸ ±
K E
ĠHaw ai
Ġpl ates
p ot
Ġtim ing
Ġst ur
Ġtra its
Ġrem ot
Ġalle v
el ia
ĠWilliam s
l asting
ter ior
arch ment
Ġbe aches
Ġchar ming
Ġglow ing
Ġsaus age
ÑģÑĤ Ð°
ĠMean while
à¸ ¡
erc ase
Ġghost s
Ġk ill
row s
ÑģÑĤ Ð¸
ĠElect ric
Ġprec ious
Ġelectron ics
c a
Ġdra ft
Ġcert ific
ign ed
Ã© n
Ġhoriz on
Ġle ct
Ġvary ing
Ġwire less
Ġmarin ade
Ġ< =
che st
Ġpros per
ĠIncre ase
Ġm and
Ġwor ship
hed dar
Ġtw ice
Ġwhisp ers
r ings
Ġm ant
Ġatt ached
it ches
Ġrecord ed
Ġarg ue
Ġtax es
ul ent
in als
ĠPhys ical
Ġinv iting
Ġcand les
r un
Ġco al
Ġca uliflower
ĠTo ols
Ġpound ing
Ġst ones
Ġsecure ly
Ġt ac
Ġch ia
d f
Ġtravel s
ĠÂ £
Ġprofit ability
o ch
Ġpar alle
Ġsurpr ised
author ized
Ġb alsamic
st ory
Ġbit ter
Ġpl us
em ploy
se e
Ġelim inate
Ġwild erness
Ġspread ing
Ġformat ting
m arket
Ġbe es
Ġmarket ers
Ġtreacher ous
Ġ Ñı
Ġto pped
ent ed
ent e
Ġ2 9
w all
Ġdon ation
Ġoutd oors
b i
en ess
if orm
an z
ĠAd am
ĠJ ose
Ġgrand mother
Ġto wer
ĠInd ividual
Ġdow ns
Ġn aturally
Ġr asp
ĠN ike
Ġdel ays
Ġch ains
st art
ĠM aster
Ġprov ed
ĠTH E
b ra
ĠPart y
Ġuns ure
Ġreg ards
Ġdisapp oint
ig ue
oth ic
Ġtal ks
ĠP ut
Ġwork load
ĠGra du
Ġco ated
ĠFe el
Ġdepart ments
it ory
Ġag ed
Ġ* /
Ġstom ach
ĠInit ial
ĠÐ µ
Ġdra ined
ĠUS A
Ġf av
or ie
Ġl amp
Ġpray er
ĠMarc us
] :
b ro
il ly
et ch
Ġri pe
Ġdead ly
w ith
Ġcomp ens
Ġcommunic ating
ĠTr ust
l ooking
A nd
om fort
Ġwarm ing
Ġ ram
Ġnewslet ter
s ource
Ġanalyz ed
Ġbe ads
ĠA ward
Ġt ired
Ġ" );
Ġhy g
ĠRe act
Ġvent ure
othe rapy
Ġsim ulations
ĠSc ient
Ġoccas ion
Ġph arm
Ġce iling
Ġcomb ining
Ġshoot ing
os c
Ġp ets
Ġsuper hero
Ġb ay
sh aring
Ġr ival
ĠÐ¾ ÑĤ
Ġreplace ment
ĠEmploy ee
u um
ĠPl ant
ĠPass age
Ġc able
ĠInt erest
igraph y
O L
ex p
Ġsmooth ly
ĠGovern ment
Ġvol can
Ġgain ing
Ġexcess ive
Ġh ack
Ġfor k
ĠIr an
Ġimmers e
Ġtyp ical
Ġclim bing
me al
Ġbra ve
Ġr ic
Ġcommun ications
Ġfoot steps
Ġgran ola
a id
enc ia
Ġpros pects
C E
ĠGar lic
ĠH aving
Ġremot ely
b read
ĠSh op
Ġmic rowave
Ġ um
I E
Ġ ...
Ġcan ned
Ġcapt uring
Ġt ensions
Ġt ropical
Ġr id
Ġdesign ated
Ġcorrespond ing
Ġm ine
Ġphot ograp
Ġvis its
Ġra ising
Ġp ests
Ġre hab
ĠS ym
get table
ĠCon st
Ġdon ate
Ñĩ Ð¸
Ġd iox
ud ding
Ġgr anted
Ġsuspense ful
Ġdiscover ing
Ġsor ry
Ġseg ments
Ġ Ã©
se m
ĠSystem s
ĠPrior it
resist ant
Ġop ens
Ġsandw iches
Ġneg lect
Ġcontinu ing
Ġnav ig
Ġlong est
Ġmo zzarella
on ym
Ġpass words
Ġlaugh ing
Ġsubst ant
an ia
mit ted
Ġf usion
Ġv ote
hold er
Ġinter ns
Ġcomfort ing
ĠB on
Ġindic ates
emb ered
Ġpine apple
ĠSoft ware
Ġprotect ive
im eter
Ġf ert
Ġmost ly
Ġspok en
Ġare n
Ġdipl om
Ġbl ind
Ġinf ographics
Ġaut o
Ñ Ħ
ĠL u
ĠComm on
el a
Ġdim ension
ĠH ub
Ġbu ck
Ġunfor gettable
ren al
Ġflow ing
Ġemp ower
Ġunivers al
Ġassign ed
f oot
Ġmat ters
Ġconcern ed
writ ing
iz ar
Ġbro ke
Ġrespond ing
Ġthe sis
ĠCom ple
Ġdiox ide
ĠW as
Ġp iano
ĠO il
Ġcontroll ing
Ġunus ual
if er
ĠF ut
Ġpan ic
ian a
Ġdesp air
f ather
Ðº Ð¸
Ġse ating
Ġeld erly
ay enne
Ġwh ites
anc he
Ġdiv ision
Ġflo at
R es
U n
æ ĸ
Ġthere by
Ġunder water
he ast
ing ly
orm al
P T
A n
Ġd ensity
Ġn ations
Ġsurg ery
ĠS M
Ġlog in
Ġdestroy ed
P N
Ġob l
Ġic ons
Ġcert ification
Ġper man
Ġdo ctors
Ġview ed
ĠDist rict
Ġz est
Ġcrow ded
Ġc er
if est
ast y
ed ed
Ġacc um
ĠCath olic
ĠS ky
ĠSt at
Ġst em
ĠW omen
cons cious
Ġp archment
Ġnav igating
ĠÐ² Ñĭ
em ption
Ġevol ving
pt ic
Ġ200 8
Ġcon d
Ġtrans mission
Ġexperiment al
Ġunpredict able
ĠT reat
ĠC as
Ġact ing
Ġcir cul
2 8
D A
ĠRe qu
Ġw r
ĠM ethod
Ġbarri er
Ġsmart phones
ĠLit tle
à¸ ĩ
Ġent ering
Ġcr umbled
Ġsoft ened
Ñĩ Ðµ
Ġaccompl ished
Ġmatch ing
im ens
Im age
b ul
h yd
Ġl iv
ĠP R
ĠS QL
Ġ" "
ĠPersonal ized
ĠDr izzle
ĠE ffect
Ġ200 9
Ġr ivers
Ġattend ed
Ġtort illa
Ġstr ive
Ġtext s
Ġleft over
Ġsuff ered
ĠG all
ĠAd s
ĠCont rol
Ġapp et
Ġposs ibly
Ġdig its
Ġsil k
Ġvoc abulary
Ġover head
Ġfrust ration
Ġn urt
ient o
Ġkind s
ap ers
Ġcook er
b u
Ġne ural
Ġrem embered
Ġn odes
Ġro y
Ġl ots
Ġres ume
Ġform ing
Ġcalcul ated
ĠGree ce
Ġtransl ate
Ġc ord
ĠA ge
ĠM id
Ġserv ers
Ġinsec urity
Ġsl ide
ĠJESS ICA
aver ing
u ct
ĠBe aut
Ġcla imed
Ġfe as
ĠWe bsite
Ġsymbol ic
Ġch op
Ġsh ine
Ġspe aks
Ġcher ish
Ġentr ance
Ġtem porary
im er
ig e
ĠH ard
Ġn our
Ġpodcast s
( ).
Ġstur dy
D ata
Ġworld s
Ġb ow
Ġthe rapeut
Ġaccident ally
ctu ation
Ġs esame
Ð¾Ð ·
Ġart is
Ġsat ell
Ġmotif s
ass es
Ġsuccess es
an i
ĠAr ctic
d ered
Ġche f
ĠL in
Ġrom ance
ri er
Ġtick et
ĠG en
c ut
h ire
Ġbo iling
Ġpost ure
the med
ow ns
Ġtreat s
v ity
Ġpub l
ĠÐ¿ ÑĢÐ¸
Ġrecip ient
Ġsere ne
Ġun authorized
Ġpair ing
Ġch ip
Ġman go
Ġdes ires
Ġdep ic
Ġattract ing
ĠKore a
Ġread s
Ġscenar io
Ġfir ms
lud ing
Ġsent ences
Ġcas hew
Ġsmo ky
Ġw are
ĠTrans fer
Ġrele ases
ĠMod ern
Ġaffili ate
Ġgalax ies
B I
ic it
ãĢ ģ
ĠH osp
olut e
ĠMach ine
Ġm elt
ĠL ocated
ann ed
ĠTransport ation
ĠC y
à¸ µ
Ġjump ing
Ġfluff y
ins on
Ġbread c
Ġ ,
Ġtransport ed
Ġcapt ivating
plic ity
Ġsol ving
Ġrevolution ized
Ġass et
ĠEx ecut
Ġclar ify
ĠCong ress
ĠAd obe
Ġv inaigrette
lud ed
Ġlov es
' ]
Ġsmall est
D e
Ġest imate
ĠGovern ments
connect ed
Ġspe eds
Ġstay ed
m ain
Ġtreat ed
Ġtack le
Ġadapt ation
Ġframe works
Ġve ctor
ĠSecond ly
r ise
ĠSc ot
Ġcaut ious
Ġb ak
Ġview ing
Ġoffic ers
Ġneighborhood s
Ġhur ric
Ġinst inct
Ġsc ored
Ġwh om
board ing
Ġunw avering
ig ma
ph ins
Ġbr ill
ĠComm ission
ĠQ uality
Ġh iding
Ġ3 00
bre aking
ĠVir gin
Ġtherap ies
Ġappoint ment
ĠL as
Ġele ction
ĠS ci
Ġinstall ing
Ġvulner abilities
Ġfilter ing
is er
Ġj e
ĠLim ited
i ere
Ġinhab it
iv ities
ĠInter active
m ond
ĠSaf ety
Ġpr ize
Ġch ir
Ġtast es
ĠPos itive
i ander
inc lude
Ġserious ly
f e
L A
ĠT rue
Ġbu ff
ĠT ay
Ġun t
ĠZ eal
ĠLuc y
Ġteen agers
Ġsour ced
Ġh iring
ĠP C
Ġbirth day
Ġschedul ed
per ing
Ġ3 2
ĠWor ks
Ġan ch
ak i
ĠDe ep
Ġtur meric
ĠRich ard
U C
ĠR E
Ġbreak through
ĠEstab lish
Ġalign ed
ost on
ade qu
ra cy
ĠG raph
Ġy ield
Ġshe ets
in st
Ġcand y
ĠD ub
Ġhydro gen
Ġte ar
uc ks
Ġtem ples
Ġnorm s
Ġtra ins
ĠReg ularly
Ġdoll ars
R A
) );
Ġtra ps
Ġpo ets
Ġreal m
ĠIsra el
Ġparalle l
ĠCo ol
Ġal ter
ĠK n
Ġcount s
Ġgall eries
ĠMe asure
Ġ3 1
Ġrec ruit
ĠZeal and
Ġfun ny
Ġcollect ing
Ġroll ed
U N
ĠT en
ĠUtil ize
Ġloc ate
Ġperform ers
Ġranking s
Ġtr im
ribut e
Ġbal ancing
Ġmult imedia
ĠS ound
ĠCon vers
Ġrenew ed
Ġsupp lement
Ġg olf
Ġex ists
Ġqual ifications
Ġconstra ints
ĠS i
ect s
ug s
% ,
umin um
ĠTe le
ĠJew ish
oo ps
Ġcolon ial
O r
v ance
Ġsc ram
Ġdisc omfort
mind ed
ĠSout hern
l ar
ĠV in
Ġorig ins
ĠVal ue
o ons
re ly
Ġpass ions
Ġgenu ine
r at
ĠSer ies
on nect
Ġnew ly
Ġexecut ed
Ġcritic ism
ch ild
Ġfin ely
ap ing
Ġtrans action
Ð¾Ð º
Ġport al
Ġmass age
Ġh ills
ab s
Ġ3 75
ĠIm port
Ġcit rus
âĢ ĵ
ĠAr my
Ġord inary
B M
Ġfre el
Ð´ Ðµ
Ġgall ery
ĠHen ry
Ġl ob
ult ane
Ġinst ability
Ġeconom ies
am m
ac am
Ġres pected
Ġgra de
Ġbox es
Ġallev iate
Ġt ar
Ġdifferent ly
Ġcelebr ations
b el
Ġcl ay
Ġfail ures
Ġglass es
ĠÑĩ ÑĤÐ¾
Ġfree ze
Ġhundred s
ĠW H
Ġworks pace
Ġblue berries
= =
it ical
Ġg em
ot o
ĠInd igenous
Ġegg plant
ĠCult ural
Ġt ones
Ġfor ums
ĠBB Q
et ary
Ġones elf
Ģ â
Ġin h
Ġd rought
ym es
Ġto ile
ĠCreat ive
ĠB ell
Ġtri angle
Ð¼ Ð°
Ġjourn aling
d eg
C ity
Ġem er
Ġcol ored
Ġcrack ers
Ġh ues
Ġmem oir
b ec
Ġs word
ĠAg ency
Ġpartner ing
Ġgrow s
Ġsil ent
Ġru ins
oy s
Ġstret ches
acam ole
ĠRet urn
Ġtext iles
ĠTo ss
ĠHigh light
Ġcon serve
à¸ §
Ġble nds
feren cing
ĠM ars
ĠTh ree
ĠR am
ĠS us
aut ions
spe ed
ĠBud get
k ind
ic as
Ġinst ances
Ġpur ple
ĠS ir
wh at
Ġhasht ag
ĠMain tain
ĠLib rary
ig an
Ġqual ified
ĠF unction
Ġpeel ed
olog ists
Ġspecial izes
ĠCR M
rou s
Ġport able
Ġacknow ledge
ress ing
Ġmodel ing
t w
nd a
ĠC H
ĠC ivil
Ġch ampions
Ind ex
Ġlog ic
Ġinterpret ation
Ġroy al
Ġsubstant ial
Ġbur gers
Ġblog s
ro gen
Ġst icking
Ñģ Ð¿
pt ical
ep s
ib onacci
Ð¾ ÑĤ
Ġpresent ations
Ġoccas ions
âĢĿ .
ann el
Ġbehavior al
Ġdatas et
ĠG PS
Ġc ayenne
Ġcl icks
Ġwal nuts
F or
ĠCent re
Ġrein for
Ġto ken
Ġcont am
ĠCh at
Ġimpact ful
Ġacc idents
Ġlar g
Ġex otic
Ġprinc ip
Ġsc oop
Ġne ur
Ġi Phone
Ġthr illed
6 7
Ġc ues
Ġintrodu cing
Ġ| |
Ġaward ed
Ġconf idential
Ġadvoc ate
ĠD ie
Ġgame play
pro cess
Ġsu ited
ĠChe ese
ĠAdvert ising
Ã £
ĠM en
Ġim pl
Ġmet ers
n ings
ig er
ven ue
Ġlive ly
Ġse ats
Ġinstall ations
Ġshel ves
dis cipl
Ġexpl ains
Ġexhib ition
Ġcent ered
AR A
ĠBreak fast
ic i
Ġcont ents
Ġinter rupt
Ġautom atic
Ġretur ning
Ġsus pect
Ġto y
ĠM om
ĠF act
s he
s ort
ĠP oint
Ġun con
Ġveter ans
Ġvar ieties
Ġpub lishing
Ġg ru
ĠGold en
ĠW alk
Ġg aps
Ġst ated
Ġcrunch y
ĠTh ink
elf are
ĠDef initely
Ġparam eter
o en
Ġir rit
Ġt we
ro g
Ġl ou
Ġl ying
Ġlas agna
Ġconfig ure
Ġnight m
Ġfl ick
ĠTechn ical
imp se
onna ise
t est
are t
ĠN umber
Ġpost ed
Ar ray
Ġmain ly
ÑĢ Ñĭ
ĠAm elia
it arian
Ġbus es
Ġbr ighter
Ġsim ultane
IC E
Ġhospit als
Ġpol ar
ĠEvent ually
Ġspr outs
Ġreput able
w ing
ĠS ave
ĠH a
Ġfree zer
che ck
ĠB owl
Ġinde ed
Ġang les
in ery
os es
Ġpost er
ou l
om eter
ĠReduc ed
ĠE M
Ġhighlight ed
Ġrespective ly
Ġrec all
ĠCour t
ad ium
ĠB oston
Ġgl impse
Ġs outh
Ġla ve
Ġexhib itions
Ġinteg r
e en
Ġnut ty
Ġmar vel
Ġst ove
are r
Ġwin ner
Ġdisc onnect
sc reen
P U
es ar
es ity
ĠD own
ĠCan adian
Ġw arrant
Ġdis placement
ĠChar les
Ġgraph s
Ġvalid ate
P E
Ġt ies
Ġbo ots
ĠApp lic
ĠCal culate
Ġemer ge
id st
Ñ ĳ
Ġb ass
Ġn ine
Ġconstruct ed
Ġs its
Ġim aging
Ġperson ally
Ġple asure
Ġjud ge
Ġn orth
Ġlave nder
Ġt ied
Ġl ie
ĠE s
Ġhead phones
ĠCo ast
Ġad renal
Ġmod ules
r ust
ĠJ ones
Ġcor rel
Ġs way
ĠR inse
Ġst ays
os ition
Ġsim plicity
p a
Ġre nov
ĠCon sole
ĠTur key
Ġhob by
ĠProfess ional
c ard
Ġj am
Ġaccess ing
Ġoverc ame
ĠProgram s
Ġblank et
id ays
ĠMount ain
A d
er ry
ur l
Ġclos ure
Ġwel coming
Ġl ens
B y
Ġc ure
Ġd in
ĠM aking
Ġintellig ent
Ġre lying
ig s
Ġun iform
sec ut
ĠEgypt ian
Ġhyg iene
p ed
in struction
ĠM ill
ĠW arm
Ġemphas ized
Ġcompos ed
Ġun ity
Ġg room
ik i
w ind
ur ities
ĠAss ess
Ġtrig gers
Ġtherapeut ic
ĠC orn
Ġmet a
ĠSlow ly
i at
Ġout standing
ÐµÐ½Ð¸ Ñı
O f
Ġchar m
ĠCol lect
h o
Ġsuggest ing
cho ols
Ġpic nic
Ġreg ister
ĠStrateg ies
ĠChall enge
ĠF old
Ġem it
ste in
A l
L S
Ġd ancers
ĠM ath
if ier
Ġpl ag
Ġneckl ace
m art
Ġcl icking
iz ational
ĠD ream
ĠTh ird
Ġatt raction
Ġmusic ian
ĠD ij
Ġ" ;
Ġde ar
ĠL y
ost er
Ġmeasure d
ĠPre m
Ġviol ent
ĠDirect or
Ġf ills
In struction
Ġdefe ated
Ġdist ingu
ĠN eg
Ġcr ash
Ġc ush
Ġdeterm ining
umn i
Ġdiagn osis
Ġm ere
ĠO tt
Ġcollect ive
Ġtim er
ĠF ill
ĠN IGHT
ĠEx press
Ġembra cing
Ġpos itivity
Ġmagaz ine
Ġdiscuss es
Ġas paragus
ock ed
B e
A pp
Ġd ental
Ġsh ining
ĠN orthern
comm un
ĠT al
be an
Ġc heddar
ig ious
Ġinc lusive
w atch
Ġb ic
Ġ} ,
r an
Ġmethod ology
Ġhead er
or se
Ġev ident
Ġlight ning
ĠAut hor
Ġw oke
ar io
Ġstraight forward
ro at
ĠBat tle
Ġspecific ations
Ġdatab ases
n ered
Ġint ention
ĠAg ricult
ĠM ove
ES T
Ġpsych ology
ĠMod el
Ġcatch y
Ġentrepreneurs hip
f at
Ġsp ic
Ġsc ales
Ġsal ty
Ġann ually
ĠEss ay
Ġro asting
ĠRub y
Ġsm iled
Ġconvers ational
ĠStud y
Ġflood ing
Ġcor iander
ĠPl atform
ĠTay lor
Ġto xic
ĠJ ob
Ġsc rap
vent ional
4 4
Ġus ual
iv ated
ĠImplement ing
Ġamb iance
Ġbr ut
Ġadapt ing
ĠM ess
Ġju icy
Ġadvoc acy
N ew
res ent
I d
ĠS ports
Ġweb inars
Ġcor ners
ĠDo es
Ġsc av
ĠGe org
ec onomic
ĠW ould
Ġadv ances
Ġsupp osed
Ġsu fficient
ĠOrgan ization
ĠKing dom
Ġaccompan ied
T ext
il ation
Ġestablish ment
g a
Ġp ier
Ġto ler
Ġst itch
Ġcollabor ating
Ġer u
Ġreve aling
ĠN AS
Ġfeat hers
sh aped
ren ces
Ġcompat ibility
f ind
Ġmaintain ed
Ġoppos ite
() )
Ġcall igraphy
Ġrepresent atives
Ġfost ering
rum bs
Ġspace craft
Ġmanage able
Ġcred entials
Ġencount ers
ĠS E
havior al
ĠG othic
Ġfl ames
Ġgra y
Ġmor al
Ġreb uild
Ġtour nament
Ġsur real
P al
Ġmay onnaise
eles c
Ġs out
Ġaut umn
Ġreli ance
2 7
ou ch
Ġlower case
ĠW atch
Ġfat igue
b orn
Ġstr anger
Ġvar ies
po ints
Ġvac uum
Ġbutterf ly
Ġk iss
ĠRo ast
c orn
ĠG al
ne ys
Ġg ut
Ġarchitect s
flow ers
Ġstim ulate
Ġre charge
ff e
Ġdet er
ĠPro tein
ĠPr ime
ir atory
Ġag ing
ĠPan el
Ġnost alg
Ġt i
Ġdis m
ĠP ub
ĠChall eng
Ġfall en
Ġathlet ic
ic ian
F A
Ġquant ity
ĠPo etry
under stand
Ġvert ical
j u
ĠR a
Ġint ros
Ġscal ability
Ġcon j
ider y
Ġlif ted
Ġd ances
Ġreflect ive
ĠSee k
Ġdut y
O P
iet nam
Ġsmo king
Ġpu pp
Ġcaf es
ĠM ong
ĠComp et
Ġcomp aring
ĠFut ure
Ġp ant
Ġj ars
F L
Ð² Ð¸
Ġpredict ive
Ġr ides
Ġsub t
Ġdevast ating
Ġp esto
Ġad oles
Ġcor al
yc ling
Ġunc overed
Ġconvin ced
ĠSt one
Ġnon profit
Ġto es
Ġchalleng ed
Ġcontext s
Ġauthentic ity
Ġair port
y nt
og en
Ġpr on
Ġrest oration
pp ercase
Ġla id
acer b
ph p
Ġhyd rated
Ġdec ay
Ġafter math
Ġautom otive
ĠA ction
ĠSm ooth
ot ing
Ġass um
Ġmid st
Ġ199 0
it as
ç »
Ġre cept
ci Ã³n
ĠIm ag
Ġoffic er
Ġg rit
ĠOr ig
ĠSpec ifically
Ġtem p
Ġretail er
Ġinstitut ion
ĠFeed back
Ġph ones
ro duct
Ġwond ers
Ġbrain storm
Ġbed room
Ġte aches
ap ore
Ġpress ing
Ġw ound
Ġport ra
Ġd ol
ĠT otal
Ġg ang
ir ations
ath on
N o
ĠA ssistant
Ġsuper ior
Ġf les
v ard
ĠI re
Ġsp aghetti
Ġstreng the
E m
ĠE gg
Ġpublic ations
Ġemb ro
Ġh ire
Ġchem istry
Ġch unks
Ġpost ing
S QL
o que
In put
ĠLuc as
Ġt um
lamm atory
Ġbath room
ugg ing
ay a
Ġpre gn
Ġlarg ely
Ġorgan isms
Ġmar riage
ĠSche dule
Ġ" )
Ġban king
Ġex acerb
c sv
ur ous
ĠAv ocado
ĠA st
Ġrele vance
Ġrob ot
Ġenforce ment
ĠCoc onut
Ġf if
Ġdon ors
ä» ¥
it z
iv o
rib le
ol en
Ġsh irt
ĠPal ace
akes pe
ĠImpro ve
ol ism
Ġwe ights
Ġcr ushed
Ġrefer red
ĠC it
Ġplay list
Ġcr an
Ġther m
m atic
ĠT imes
Ġlapt op
S A
av en
ex ample
ĠD rain
ĠSc an
ĠGr atitude
Ġinfect ions
ous es
ro st
Ġpre st
weet ened
Ġoppos ition
ĠMic hel
Ġi OS
Ġoper ators
Ġt ense
Ġsusp icious
Ġconf ir
Ġline ar
Ñĩ Ð°
Ġkey board
Ġz ones
oc racy
pt ions
Ñģ Ð¸
ĠÐ¿ ÑĢÐ¾
Ġset tle
el and
akespe are
Ġw elfare
Ġb in
ĠMe as
Ġvict orious
ĠScott ish
= '
ac c
old s
a ways
oura ging
Ġdark er
Ġemp ire
p aper
Ġbul let
ĠEngine ering
Ġrhyth ms
Ġaw esome
e an
l ove
as ant
ĠC irc
Ġdom estic
Ġthr iving
Ġinquir ies
Ġ ;
Ġh int
ĠOn ly
ĠJ am
Ġany more
Ġbreadc rumbs
ĠSw ed
Ġscal able
Ġbrow se
Ġsecond ary
Ġscrew s
Ġd ies
Ġlim iting
Ġsh immer
ĠJ O
at i
op en
Ġobserv ations
ĠC orporation
ĠRe ach
Ġnot ification
Val ue
6 8
od ge
Ġappoint ments
ĠN ever
Ġcateg or
Ġf ade
Ġcomp act
Ġcred its
ĠD ar
ci um
Ġmathemat ical
Ġimp air
ĠV ietnam
Ġflow s
Ġch ose
ÑģÑĤ ÑĮ
it em
ĠHist or
fact or
P ath
ors es
Ġm ad
Ġm und
Ġagg ressive
l os
Ġin ject
Ġar rays
Ġcuc umbers
st op
Ġmarket place
Ġb amboo
Ġs ink
Ġperfect ion
inf lammatory
Ġad orn
Ġcomm ands
ens ed
Ġinter f
Ġment ors
Ġconcer ts
Ġdiscipl ine
il itation
Ġphys i
Ġ19 60
Ġtru ck
Ġsleep ing
Ġinj ured
Ġsche mes
Ġanticip ation
Ġex terior
Ġsoc io
Ġoutl ook
Ġdiagram s
est ock
Ġinv ite
ĠDr ive
ĠW elcome
ell er
ĠMed icine
Ġo t
ord an
Ġdep ths
Ġr ings
Ġpers e
Ġin adequ
Ġfact orial
fl ix
Ã£ o
ĠStud ent
ĠRest aur
Ġe j
Ġassistant s
Ġh o
om es
ĠTy ler
Ġy arn
ĠStrateg y
Ġt ale
ĠQu ick
all ic
Ġsac red
ĠPer haps
Ġconver ted
ĠU I
Ġshel f
ã Ĥ
Ġde leg
ĠM S
olog ist
Ġfeed ing
Ġassoci ation
Ġorig inated
ĠDe pending
Ġban anas
Ġstro ke
ĠSt ress
Ġlif es
ĠT ree
Ġk il
uss els
Ġsole ly
Ġbrow sing
ĠTre llo
Ġcra w
Ġvend or
P ress
ag en
Ġli king
ĠE ve
av as
ĠCons ist
ĠTest ing
ĠSince rely
al og
Ġdeb ate
Ġsimultane ously
Ġf aint
Ġr iding
Ġod ds
Ġsim ulation
Ġrecogn izing
ĠOr der
Ġdemonst rates
Ġtra p
Ġsim ulate
Ġcivil izations
ĠD ead
Ġtrans f
ament e
Ġthe ories
pe ction
ĠB h
Ġcar bohydrates
Ġinv ited
Ġbul k
Ġacqu ire
p arent
Ġin ser
Ġtra ged
Ġbl ade
Ġrequ iring
Ġreason able
ĠOlymp ics
health y
Ġequ ally
d oor
Ġver ify
Ġsh ifted
ĠAud ience
Ġo at
ap os
Ġprof its
ĠBe at
Ġsear ched
Ġinter pre
Ġset up
Ġevery where
ĠDes cribe
Ġcountry side
Ġrevolution ize
ĠPT SD
Ġal uminum
Ġexcept ion
ĠMin ister
ĠSub st
Ġuncon ventional
ic ul
b alls
Ġch ur
ĠF un
Ġamaz ed
Ġbrew ing
Ġsu g
Ġadvent urous
è ®
Ġs am
ĠT able
Ġmon ster
Ġspecial ize
ĠList en
hed ral
Ġplan ets
Ġspell s
Ġh its
Ġwith d
Ġlov ers
Ġscholars hip
Ġt ub
Ġfl ag
Ġbi ology
Ġreb els
ĠF ac
ak y
Ġreb ell
Ġm u
ĠHar ry
Ġdesk top
Ġrepresent ative
Ġmel ting
Ġlear ns
Ġplug in
ut ical
Ġres id
Ġgl uc
Ġsou ps
Ġath lete
ĠPo ems
ibl ings
Ġth under
Ġconnect s
ĠDij on
Ġb atch
ch ron
ĠA im
Ð½Ñĭ Ñħ
Ġfin ances
Ġflo ating
ĠP y
Ġinter connected
Ġther mal
f elt
# #
Ġpro ceed
Ġm erc
Ġsu cc
Ġoper ates
Ġdecor ated
Ġmush room
Ġorigin ally
r ants
ab led
th is
Ġap i
Ġpre f
Ġqu ir
ĠSt an
ĠCo ffee
Ġsen iors
Ġbuild s
ĠRe place
Ġarr ive
Ġmer ge
A ll
om ic
ĠT es
Ġso bre
Ġpun ctuation
it t
Ġr igor
Ġsever ity
Ġscient ist
ĠÐ¼ Ð¾Ð¶
imens ional
Ġadrenal ine
f alls
vers ed
Ġp ounds
ĠEng agement
Ġde ce
ĠH oney
Ġdem ons
Ġcraft ed
out put
Ġwe aving
Ġbub ble
ĠEth an
B l
Ġfire f
ĠAdv anced
Ġob esity
ĠSp ot
Ġsuff er
N S
Ġprof ic
Ġobtain ed
ĠChalleng es
Ġrepet ition
elect ric
Ġbrill iant
ch i
her ic
Ġblog gers
ĠSing apore
Ġt une
Ġtransform ative
ĠÐ± Ñĭ
ĠCollabor ation
Ġd iction
vent ion
ĠSh akespeare
Ġfles h
Ġgra des
Ġmet ric
3 4
ĠC ub
ĠSci ences
ĠIre land
ĠD ays
ĠÐº Ð¾
Ġcand le
Ġin hib
ĠT own
ĠY et
tain s
Ġexcell ence
flow er
Ġcouns el
C ut
ĠA P
Ġda unting
Ġfl ights
Ġrefuge es
ac iones
ĠB ible
Ġpo etic
Ġland ed
r ons
ĠS chools
ment e
ĠP ur
Ġexpl os
az ing
ĠQu inoa
Ġma pping
Ġorgan izational
j i
Ġhost ed
ir ty
ace utical
Ġst abil
ĠH an
Ġappro ved
Ġpat ch
ĠSom ething
Ġsorce rer
st arch
Ġor chest
Ġcou p
cont ent
ĠB reat
Ġwor ries
ĠM att
Ġnot ed
Ġdevelop er
Ġmar ried
Ġmeasure ment
ĠBr ush
Ġblend ed
ĠIn side
Ġbur ger
ĠÐº Ð°Ðº
ĠCur rent
q r
e ared
Ġ/ *
Ġluck y
ĠCh ris
Ġra ced
Ġpass es
ip es
Ġpil ot
Ġbi ological
ĠSub ject
H ow
Ġgl aze
Ġdef ining
Ġans w
is ure
ĠP ast
Ġt rick
ĠAnd rew
Ġtim eless
Ġhun ger
Ġreferr als
cur rent
im g
Ġguarant ee
ĠComm it
Ġdescrib ing
Ġfar ms
Ġup g
row th
ĠCh ampions
Ġown ed
ĠL ower
ĠDan iel
U M
Ġkne e
Ġsubstitut ions
is ers
Ġsens or
s aving
ĥ ½
Ġteach ings
p ay
ĠAb out
v ar
in th
Ġv s
Ġen orm
all ow
Ġmembers hip
Ġfrust rated
ĠAd minist
Ġfat ty
Ġsc rub
Ġ& &
Ġthr ill
ĠSqu are
Ġconvent ional
Ġnut meg
Ġhe ap
am ine
form at
Ġresp iratory
Ġmean ings
Ġres idential
ĠMar g
ĠSte ve
ĠRel ations
g ic
Ġfact ory
ĠSou p
oen ix
2 9
Ġw ise
al ted
ĠIndividual s
ĠInt ellig
ac hers
Ġpublic ation
Ġparticip ated
Ġmit igating
d ings
ĠRes ources
form ing
Ġang ry
ĠW ear
ri ors
Ġill um
Ġru gged
ry pt
Ġrec re
Ġfair y
Ġs ist
Ġthe ft
Ġrob otics
ĠEvery one
ĠC ra
Ġcommit tee
Ġp udding
Ġg ad
own ers
Ġflood s
Ġphen omen
or ns
Ġimm un
R ec
Ġre un
ĠAlex ander
O n
ĠColl aborate
Ġattribut es
ip her
Ġrece ives
ĠNet flix
Ġbr id
ann a
Ġwra pped
ĠD ance
ĠMor oc
ĠM ur
Ġheart felt
Ġrock y
i ro
Ġc ouncil
Ġsal ary
eg rad
Ġadjust ed
Ġdeg rad
Ġcompassion ate
Ġincentiv ize
Ġ ou
Ġ3 6
Ġcontract s
Ġpro port
ir s
ĠSh ort
Ġfry ing
Ġjack et
Ġor al
Ġuns weetened
oub t
å Ľ
ĠAct ive
g ame
Ġc ob
Ġmoder ate
g ans
ĠN ations
Ġfert ility
Ġs iblings
Ġm im
Ġmem br
A I
Ġ ÑĤÐµ
ĠA qu
Ġcrow ds
Ġm art
ĠP interest
mon th
Ġt ong
ob ic
Ġpract ition
Ġcell ular
Ġrain fall
Ġpure e
m ers
y ou
Ġback pack
Ġsee ks
Ġvari ation
ĠFe atures
Ġmaster piece
Ġrust ic
m el
ment ation
Ġresearch ing
Ġspons ors
Ðµ Ð¹
Ġother world
ĠP il
ĠO re
ĠO ffic
ĠEng aging
c lick
Ġbe verage
ĠB lu
Ġdig estion
Ġdesper ate
q l
Ġgra d
Ġground s
Ġspiritual ity
Ġpad ding
Ġst olen
ĠBet ter
Ġun st
à¸ ¢
æĪ ĳ
Ġt att
Ġa y
Ġcur rency
Ġst ains
Ġpro long
Ġbl ades
j ud
n els
ĠS end
Ġland s
ĠBl og
Ġdom inant
ĠSum mer
åı ¯
D B
v als
Ġw ww
Ġar c
Ġtransform ing
ĠJames on
ĠR ight
Ġint imate
s ung
ĠS yd
Ġep ic
Ġred emption
vol ent
Ġre vel
Ġor ient
ĠMc C
ĠPrep are
ĠH un
ĠYou ng
Ġadvance ment
Ġaccommod ation
ĠYear s
Ġdisadvant ages
Ġw itch
ĠJ ordan
Ġexperiment ation
2 6
f rom
ĠF ile
Ġrich ness
Ġre ign
Ġgen es
ĠEar ly
ĠC and
à¸ Ķ
Ġint ens
Ġpy ram
s plit
Ġ1 50
Ġprec autions
Ġlaunch ing
Ch ar
Ð¾Ð ¿
Ġsegment ation
t ling
ĠR ain
Ġint ers
Ġpursu it
Ġelect ro
Ġoccur rences
Ġcomplement ary
ĠÑĤ Ð°Ðº
ĠSant a
Ġd ive
Ġre serv
Ġrel ative
Ġol ives
car b
ĠP arent
Ġrec ur
Ġdraw s
Ġ: =
ĠInteg ration
h ou
i y
he tics
Ġthe ore
art ers
Ġsum mon
Ġdep os
Ġtal ents
ĠBusiness es
' .
D P
Ġequ ity
Ġoccas ional
ĠInd ones
Ġvers e
ĠE U
ĠG irl
Ġconsum ing
Ġdownt own
Ġpanc akes
Ġs aves
Ġmechan ical
ĠPot ential
Ġhier archy
4 8
ĠS it
ĠAd vent
Ġ19 80
Ġindic ators
Ġelig ible
Ġg el
Ġevalu ating
sp ace
Ġcirc les
Ġintegr ity
om ed
} ,
he it
ce ans
ir ds
ĠJe ff
Ġb ikes
Ġreal ization
Ġsw ing
chn ology
ĠSe at
iod egrad
num bers
Ġgra pe
Ġtou ched
Ġfant asy
ĠAutom ation
Ġmathemat ics
Ġsens itivity
Ġpred ic
Ġdisrupt ions
Ġforgot ten
V iew
Ġlabor atory
pack ed
ref lection
Ġsh aking
Ġcert ified
ĠParticip ants
ĠS ection
Ġbre asts
Ġsh ifting
Ġf ries
ĠPlay ers
Ġh ips
ann ah
n od
ĠD a
Ġreal izes
Ġprompt ly
Ġhumid ity
f are
is ation
Ġun employ
ĠS uch
Ġattach ment
Ġcos mic
ĠCa esar
d istance
ĠThe rapy
Ġterrit ory
z ed
ak a
ĠS on
ĠM aj
Ġanaly st
Ġap olog
ĠAcc ount
Ġch amp
Ġaccess ed
ĠTechn iques
Ġurg ent
ĠO k
Ġsoc cer
Ġmeas urable
ĠSec ret
Ġl en
ĠL ind
Ġgu y
Ġagree ments
Ġprot oty
D o
Ġc Ã³
ĠL iving
Ġmed ications
sc ape
Ġhol idays
Ġbed time
Ġghost ly
Ġremind ing
Ġproced ure
Ġneed le
Ġland f
ch ange
Ġsh ifts
Ġment oring
Ġ200 7
Ġstuff ed
Ġstorm s
vis or
Ġwitness ed
Ġstim ul
ĠExecut ive
f irst
Ġst aple
Ġshe d
Ġmoment um
ĠCoc a
Ġcowork ers
L C
ĠS ort
Ġsc ra
Ġwond ered
ĠChe f
Ġbi king
W rite
Ġf ake
Ġal umni
ĠCelebr ate
Ġdigest ive
Ġut ens
Ġpropos ition
he rent
Ġb ounce
lut en
ĠE ric
ĠP ric
Ġrese m
ĠTur k
Ġhe ights
Ġgest ures
Ġfr anch
ĠSam sung
Ġmoist ur
ĠV ar
Ġdepend ence
ist a
Ġr inse
ĠL abor
Ġback story
ĠF ibonacci
ĠTe a
Ġreg ret
Ġfold er
j et
Ġd il
Ġuns alted
R ead
ĠÐ Ĵ
ĠQu ant
ĠM u
Ġ19 5
ĠHol lywood
Ġhorm one
he ated
ĠRem ote
Ġemerg ence
Ġmor ale
Ġcorn starch
Ġwe igh
Ġdec ent
à¸ ¥
Ġdoub ts
at ab
Ġtra ce
Ġcheck out
Ġdispos al
Ġment ally
Ġtort illas
G O
Ġwere n
Ġlove ly
ĠPriorit ize
h an
l iness
in is
am iliar
ry ing
Ġsk ip
Ġprofess or
im a
ail and
Ġdecor ate
Ġappropri ately
Ġstrand ed
ĠSyd ney
pl ot
Ġall ies
ĠSh ould
ĠD om
ĠL ab
enc ed
enc il
Ġatt itudes
Ġlog s
Ġdro ve
Ġ19 70
Ġperman ent
Ġup beat
res ult
ar ms
ĠE co
Ġper cuss
Ġcontin ually
ĠProduct s
Ġh over
ap en
ord inary
ĠSa uce
ig ure
Ġprom ised
Ġthick ness
Ġotherworld ly
at ches
ĠLe vel
Ġstress ed
ĠH on
Ġdemand ing
ĠNAS A
u its
ĠW ars
Ġprodu cer
Ġgram s
Ġre ef
ul in
Ġemp at
Ġeleg ance
c ost
Ġutil izes
Ġfest ive
Ġembro idery
ail ed
ĠLar ge
ĠC ert
Ġdisplay ing
Ġsurv ived
Ġmark ers
Ġacqu ired
Ġinfect ious
ser ole
Ġmyst ical
ĠAl ong
Ġcham ber
Ġm os
Ġj ava
ĠBrit ain
Ġacad em
Ġspark ling
ĠM oon
ĠN ov
Ġthin ly
Ġbra ce
Ġcockt ails
Ġsatell ite
ĠSt reng
iodegrad able
m essage
ro t
Ġback l
T ok
r im
ra vel
ĠS ov
Ġune ase
Ġsubsid ies
Ġw ool
Ġg ust
ch anging
Ġle ague
Ġsett led
Ġprosper ity
Ġinc idents
Ġarr anged
Ġembra ced
Ġgluc ose
w as
ĠS aint
Ġacc used
ĠK im
Ġdepend ent
Ġcomm ut
ĠÃ ł
Ġp as
Ñĥ Ñİ
ĠAPI s
Ġliv estock
ah ini
ĠPract icing
Ġf res
Ġall ocation
Ġdark est
Ġpet als
Ġrub ber
ow ers
ĠSt yle
Ġtou ches
Ġperform s
sh adow
Ġstat ue
St ep
Ġpart nered
Ġloc ked
Ġequ ival
L a
ol id
ie ve
Ġpresent ing
Ġcompet itions
ĠSn ap
Ġtrib es
Ġw ard
Ġb rick
iz ard
Ġabs olute
Ġven ues
cons uming
Ġsc ents
ĠV iew
Ð° Ð½
Ġcor rupt
ĠÐ´ Ð»Ñı
ĠTes la
ĠJ SON
p ost
z ymes
Ġst ops
Ġpl astics
Ġbl oss
Ġpal indrome
ud a
arc ity
Ġentertain ing
ĠM and
Ġout lets
I f
ĠH R
person al
æľ ī
ĠS olutions
in ance
Ġrem ed
Ġmel odies
ĠP ak
ĠD og
Ġsaf er
Ġbas ics
Ġ> >
Ġmort ality
Ġrel ied
Ġ ]
Ġb omb
ĠA BC
Ġmet allic
ĠGo als
3 7
C ola
ĠT ony
Ġgl oves
Ġsacrific es
ĠT ri
ĠRet ail
os ity
Ġcab bage
Ġbetray al
ĠP ain
de velop
ann y
d oubt
ser ves
ĠR od
ĠG race
Ġglob e
Ġrespond ed
Ġboy s
d am
al o
is hers
Ġmyster ies
Ġc aching
ĠOpt ional
ĠHT TP
ĠSen ate
Ġcult ivating
Ã¡ n
Ġpul ling
Ġconstruct ive
Ġunf amiliar
E s
9 5
Ġstr angers
ish ment
Ġsl ip
Ġpredict ions
Ġstick y
ans hip
ree k
Ġcompl aints
ĠJ ACK
Ġland mark
Ġhand made
ÃŃ as
Ġshall ow
ynt hesis
Ġpersonal ization
Ġclear ing
Ð´ Ð¸
ĠBuddh ism
Ġs orts
um pl
Ġflo ors
Ġped est
Ġasp irations
Ġcompens ation
i ac
ens ing
Ġcompare s
Ġw ins
ĠD y
Ġrep airs
Ġcost ly
ĠS ARA
Ġcons p
ĠEnc ouraging
Ġmanip ulation
Ġancest ors
ĠJose ph
Ġas h
Ġk not
Ġpromot ed
ĠCon ference
Ġexhaust ed
Ġmerch and
Ġastronaut s
ĠC ab
Ġapp arent
Ġident ification
i op
pl ess
Ġcelebr ating
ĠÂ ½
Ġdut ies
C omm
Ġcar ing
ĠSp ir
Ġtrib e
or ian
Ġd ot
en ergy
Ġinf lation
ĠSov iet
Ġconf used
fort able
Ġcard io
ĠSk ills
Ġgate way
Ġra ys
Ġca ffe
ĠDiv ide
D es
rad ius
Ġl ad
Ġarr ival
ĠII I
Ġautonom ous
f ocus
ĠL iter
Ġall ocate
Ġdis ag
Ġold est
? âĢĿ
ĠSl ice
OS T
S erv
Ġsty ling
ĠReduc ing
eg er
ĠAr m
ĠN one
te ch
Ġesc al
Ġresist ant
Ġdro pped
Ġbak ery
ĠF air
Ġcurrent s
ĠInfluenc er
ĠE aster
Ġinstruct or
Ġg ases
Ġle ap
Ġche er
rop ol
Ġnewsp aper
S S
ar ia
oc aly
ĠP ick
ĠS av
ĠL i
Ġch illed
ĠR h
by e
Ġadv erse
P R
U p
ĠL ady
Ġpen al
Ġgalax y
Ġneighb ors
Ġp ond
Ġb ind
ĠFire base
c ode
Ġbre ach
Ġcra fting
ĠCons ult
ĠLe on
ĠWor king
ĠT rain
Ġfib ers
Ġb ought
ic ide
ĠSw iss
il ty
ĠH D
ĠM AR
ĠPol ice
Ġtac os
Ġchir ping
ĠMeas uring
S u
el le
Ġal arm
ĠF at
Ġresol ved
ĠM A
Ġter rible
Ġthought ful
ĠF lex
Ġele ph
Ġlog ical
ĠColor ado
Ġproc rast
Ġre nder
ĠGeorg ia
Ġin her
ĠL ent
Ġcou ples
n ity
ĠC in
ĠL ack
Ġra b
Ġpoint ed
ĠF all
Ġra ces
f rame
u ity
ĠS eg
Ġag ile
P lease
Ġoutput s
Ġassign ment
Ġgr illing
ĠProm ote
Ġg oogle
ĠCh am
Ġlist ener
b ly
Ġup s
writ ten
Ġshell s
Ġintrig uing
ĠJ osh
ah ren
Ġunl ock
avas cript
d irect
Ġexplan ations
ĠA h
ĠA wards
Ġdis sol
Ġhorm ones
Ġact or
Ġlur king
Ġre ass
ĠAs h
ot ed
Ġab road
ĠCol umb
ĠO kay
Ġm ouse
ĠTh ailand
ĠR ust
Ġacc ord
à¹ Ħ
Ġdeath s
Ġb id
Ġcare g
Ã© e
Ġsynt hetic
ĠScot land
Ġspons ored
Ġneighb oring
Ġreg ulating
Ġass ert
Ġdef ensive
ab a
Ġdetail ing
ĠBr ussels
Ġgran ulated
ĠLim it
Ġharvest ing
Ġgu acamole
Ġdocument ary
Ġroll er
Ġh ik
ĠD rop
ib bean
Ġdel ivers
Ġbo oth
Ġcal cium
ĠHel p
Ġcomprom ise
Ġtraged y
ĠN ick
Ġnegoti ations
ĠK ar
Ġtable ts
Ġh ay
ĠSp in
ĠÐ¸ Ð·
Ġlas er
Ġreform s
Ġtroubleshoot ing
Ġch ore
Ġaccept ing
Ġwater fall
Ġrot ation
ĠF ish
Ġsc arcity
wh ich
ĠPlan ning
A meric
Ġslow er
Ġreven ge
Ġhero es
Ġsimpl er
Ġshe er
Ġche aper
Ġpol ished
Ġsure ly
light en
Ġintim id
Ġqu iz
Ġafter life
ex ist
Ġsurpr ising
ĠWord Press
Ġcelebr ates
ĠOther s
ĠDis ney
requ ency
Ġtro ops
C ount
o es
Ġnow here
Ġcin em
6 6
Ġupd ating
tra ck
onym ous
S he
Ġpe pp
ĠOut ro
Ġdisapp eared
it ious
Ġsupp lements
y our
Ġch ief
Ġch airs
em ble
we ek
Ġpost ers
itut ion
________________________________ ________________________________
f und
um an
Ġr ins
ĠCl ose
Ġrequest ed
Ġt una
Ġseem ingly
Ġtranqu ility
( [
Ġro oft
Ġsquare s
i Ã©n
Ġp ile
Ġprot est
d ec
Ġt am
Ġb oo
Ġins ulation
Ġabs ence
Ġco ating
Ġattend ance
Ġsus pects
L P
ĠI de
Ġextra ordinary
Ġy es
Ġassemb ly
Ġmolec ular
Ġbr on
Ġdemonst rating
Ġhad n
ĠSS L
ĠH ur
Ġadjust able
Ġt ank
ĠB ase
ĠB uff
Ġsec uring
Ġtable t
Ġtim elines
Ġd ad
m os
iz a
ĠTh us
ĠK ate
ĠGu ard
Ġconsult ing
ĠS ep
Ġde ck
Ġ[ ]
br ush
t xt
he ns
ĠO x
ik ely
Ġsing er
Ġdetect ed
Ġo ceans
ĠD aily
Ġsol ace
Ġbroad cast
Ġske wers
on al
Ġgrand father
ĠJenn y
Ġto asted
ĠC BT
Ġunder t
Ġwhere ver
Ġvess els
Ġd read
iss a
Ġdr ones
Ð³ Ð¾
Ġcontrast ing
Ġrepl acing
se en
ĠH ab
ĠF ederal
ĠÐ² Ð°
Ġcomp ound
Ġprint ln
Ġut ility
Ġp ocket
Ġbe ats
Ġsuggest ion
ĠEvalu ate
O C
or o
du ate
Ġoff ices
Ġmen us
Ġbudget s
Ġcontem pl
Ġexh ilar
u i
ĠL o
d imensional
Ġbro ch
ĠA T
ĠH ay
ĠH arr
ĠL iber
Ġcoord inate
åľ ¨
ĠCarol ina
ĠF ull
Ġphenomen on
Ġempat hetic
Ġcont ests
Ġent ities
Ġcra zy
ĠMon th
Ġround s
ĠF oot
Ġfl aws
Ġrel ent
Ġpath ways
Ġslic ing
Ġtrack er
Ð½Ñĭ Ðµ
Ġcl uster
Ġperson as
ĠLin ux
ĠB all
cept ions
op er
ĠE asy
ĠL UC
Ġw ing
Ġg ri
Ġav iation
Ġfinish ing
Ġpow ered
ĠRes ear
ĠBel ow
ĠBlock chain
Ġstruct ural
Ġcaffe ine
at us
ĠT ik
ĠS ong
Ġwork er
Ġsmooth ies
Ġbudget ing
e ur
e pend
Ġso ak
f ood
Ġle ts
Ġorder ing
la imed
Ġscan ning
ĠM ade
ĠAn ne
Ġauthor ized
Ġarrange ment
umb ling
Ġalt ogether
Ġadministr ative
ĠPol icy
Ġbeautiful ly
Ġenorm ous
Ġch orus
Ġup grade
Ġdiam ond
ĠS now
Ġgovern ance
Ġlifes pan
c or
re p
à¸ Ħ
F T
Ġin k
ĠT aste
ĠW ere
Ġinstinct s
ĠG ro
Ġtrend y
Ġp armesan
ĠP DF
Ġme j
ĠO s
Ġout er
Ġfl ame
br idge
Ġinstruct ors
e ffect
ĠP in
Ġrele asing
Ġsho e
Ġutens ils
b our
Ġp ale
Ġas leep
Ġemb ark
ĠHealth y
ĠDirect ions
Ġc orpor
Ġinv isible
ĠPr ince
ĠStud io
Ġrehab ilitation
Ġrigor ous
e ks
il ton
Ġcur ve
l iam
ust ers
Ġopt ional
Ġsoul s
Ġearthqu ake
ĠBal i
ĠCast le
" ]
re ction
ĠGl ass
ĠRead ing
Ġde hyd
Ġgu ilty
Ġsustain ed
ructure d
Ġpow dered
w an
Ġsp an
Ġfirst hand
Ġgre enery
ĠRec ogn
Ġecho ed
M e
j son
ĠFin al
Ġrecon c
ĠCapt ain
ĠKit chen
c over
ĠOlymp ic
Ġperce ived
Ġdegrad ation
ahren heit
E E
ĠBar oque
Ġun com
ĠF ord
Ġcount y
Ġcompan ions
Ġadorn ed
enn is
meg a
Ġstain less
Ġnur sing
Ġexist ed
li hood
Ġed ition
ĠPr ice
Ġcarro t
Ġan k
pl aces
Ġbur ied
Ġregard ed
Ġl oops
ĠE V
Ġk ay
Ġleng ths
az ed
äº º
Ġconqu er
` :
s en
n av
et he
Ġgr asp
Ġcat ast
ĠB ul
ĠB ox
ĠE ating
Ġrel ies
Ġsign ing
ĠWal king
Ġfram es
w rite
Ġaltern ate
ster oid
Ġpriv ile
ĠChristian ity
C M
Ġ ÑĢÐµ
Ġp s
Ġh udd
az a
add le
Ġche fs
Ġnewslet ters
t age
ĠVeget able
Ġh ttp
ĠI BM
ĠC ou
ur g
Ġd ys
Ġmin eral
Ġimmers ion
Ġnarr ator
Ġb its
ain e
à¸ Ĺ
Ġgar n
Ġord ered
ĠOb ama
Ġmotiv ational
Ġsynt ax
Ġtravel er
Ġarch ae
cont roll
ĠSeat tle
ĠA th
op ol
Ġtow els
liam ent
Ð¸ Ñħ
ĠM other
Ġche w
ie nd
Ġbas k
ĠOr ange
ĠÐ Ł
Ġclos est
Ġcr ashing
ĠCl in
Ġdiet s
Ġscan ner
Ġf ox
Ġcorrel ation
lighten ment
ĠT ax
ear s
ĠRo om
st ar
ĠAn im
c ans
ĠC ome
Th at
ĠD raw
Ġju ices
Ġcool ed
g age
å Ń
at al
Ġde pr
ĠCan yon
Ġwind ing
Ġle isure
Ġ7 5
Ġel astic
Ġatmosp heric
Ġcomp ounds
Ġlif el
ĠÑĢÐ° Ð·
ĠJac ob
r c
ĉ ĉ
Ġtraum atic
Ġlege nds
ĠW ash
Ġmach inery
ĠMount ains
ĠWhe never
ĠPort ug
H D
Ġl ips
ss e
Ġhand ful
ĠEqu ipment
ol ks
Ġtra y
Ġag ility
Ġp ans
Ġg ains
Ġspat ula
Ġ"" "
Ġadoles c
ot to
ĠTe ch
ĠTe achers
ĠChe m
t ic
et ics
4 9
â Ħ
Ġmale volent
al ities
Ġac oust
ĠIndust rial
Ġb ol
and om
Ġcar n
oli age
ĠÑ Ħ
ĠVirgin ia
Ġtoile t
p g
Ġn it
Ġsc attered
Ġpa ired
med icine
Ġpal ace
ĠIsland s
Ġveget ation
Ã± os
ĠF a
ĠG it
ĠArch itect
Ġwarrant y
S et
Ġp ig
Ġh orses
ĠP od
Ġn or
Ġreg ain
Ġwra ps
Ġk illing
Ġrel ates
Ġam idst
ĠCar ibbean
Ġremind s
Ġi P
Ġsout hern
Ġcompet ing
Ġr anges
Ġcomp r
Ġfun nel
ĠD inner
as is
Ġre served
Ġpercuss ion
L e
Ġse nds
less ness
Ðº Ð¾
Ġjal ape
Ġh ired
ĠS aut
com ed
nam ic
Ġque en
Ġsepar ately
Ġspl ash
Ġor anges
ĠAn cient
Ġcontact s
Ġalbum s
ĠRestaur ant
C R
sc enes
Ġtom orrow
Ġburn ed
Ġtrig g
ud i
Ġsh out
Ġbre aches
Ġlist ings
Ġanaly tical
ĠSil k
Ġm aker
ell ed
app end
Ġassoci ations
g rain
ĠW inter
Ġman ifest
Ġob serving
Ġlive lihood
ER T
ok es
ĠCommit tee
F ree
Ġcontain ed
ĠR os
Ġdis par
ond ition
ä¸ ª
ess ed
Ġ( `
pos ition
ĠB a
Ġle aks
Ġflu ctu
rand om
ock er
Ġfru ity
Ġt elesc
I s
AN D
Ġc rown
Ġcolle ges
ffic iency
ugg ed
7 7
Ġth rown
Ġk et
d ays
Ġtra gic
à¸ °
Ġcred ible
Ġple asing
Ã ł
Ġsign aling
Ġz omb
Ġhit ting
Ġart works
Ġob servation
err ing
Ġanim ated
ĠHer itage
l aw
Ġtradition ally
oh n
Ġcollabor ated
ili pp
writ er
Ġreal izing
os ph
ĠTurk ish
Ġremain der
Ġsc oring
Ġra z
Ġfa uc
ĠWh ole
Ġwant ing
Ġsold ier
Ġinhabit ants
Ġb ab
ĠCar bon
bur gh
Ġf oliage
Ġd os
ĠJ IM
ĠResear chers
ink les
ug hed
Ġwed dings
Ð½ Ðµ
qu ery
Ġsh y
ĠBu y
m ount
Ġunemploy ment
pe a
ĠJ un
rough ts
Ġrep rodu
Ġarrest ed
ang ular
Ġoff line
Ġproject ed
Ġfund ed
Ġhaz ards
S E
Ġl in
Ġsem i
å °
Ġn a
Ġend uring
ock ets
Ġdeep en
Ġlif ting
Ġpiv ot
Ġb om
et a
un es
Ġsymbol ize
nod ding
Ġvisit or
Ġcool er
Ġh ill
ver ages
ĠV ery
uc ent
Ġla ughed
ĠSout heast
3 8
C P
u ction
Ġreal ism
Ġentreprene ur
Ġlung s
Ġcr imes
p en
at ar
pe h
od ed
Ġspecial ty
ograph ical
Ġcomplex ities
ĠPh one
Ġcou ch
ĠG ate
serv ices
ĠE N
Ġgo at
Ġunc lear
Ġcircul ation
Ġcush ion
atab ase
l ib
Ġf al
Ġde er
ĠÑģ Ð²
Ð· Ð°
ĠMo z
Ġchees ec
re nder
ĠFil m
ĠDes cription
Ġ200 5
ĠMich igan
Ġp icking
ĠT a
ĠV itam
Ġche ap
ĠTo fu
f old
Ġpast ries
Ġinteg rates
ira cy
Ġenthusi asm
Ġn ic
ĠL E
ĠJ EN
Ġbrid ges
Ġ ________________
cript ions
Ġbu nd
lo at
Ġoutl ining
b ury
Ġorgan izers
Ð¸ Ð¼
Ġprot ocol
Ġcost ume
ps on
Ġcook book
Ġvir al
Ġspect ac
ar ched
le ans
ĠN ap
amb iÃ©n
Ġprest igious
Ġper imeter
Ġdem ocracy
Ġfriends hips
Ġhead ing
Ġrecord ings
Ġhop eless
ĠEmploy ees
ĠM ush
ĠM agn
Ġabund ance
conf idence
Ġequival ent
re nd
Ġconfir med
3 00
Ġth umb
Ġacc ent
Ġtem pt
us cript
ĠS chol
ĠM it
Ġj umps
( {
Ġp ants
ĠS el
ĠL unch
ĠG ab
Ġcoll apse
Ġadapt able
Ġtouch ing
ĠOh io
. '
Ġc ache
Ġpro x
Ġu ppercase
Ġgl itter
Ġappro val
ĠCharl ie
Ġcertific ate
I R
è ĥ½
se ason
Ġcomm erce
ĠFor ce
ĠWh isk
ĠHom emade
Ġcomp ression
Ġhyd ration
Ġunl ikely
Ġo mn
pl ed
ĠIn put
Ġacc ompany
PI s
Ġp ix
ir th
ĠSt rong
Ġref und
Ġbe ating
ĠDav is
Ġoutl ined
roph ic
ĠDie go
ens or
Ġinter med
Ġbre eding
Ġcirc uit
âĦ ¢
Ġc ust
ent er
id en
Ġus ability
ĠG rowing
aj e
Ġv iable
Ġregist ered
ĠCarol ine
Ġr ig
Ñģ ÑĮ
Ġinadequ ate
Ġchees es
Ġner ves
ĠÐºÐ¾ ÑĤÐ¾
gh an
Ġend l
Ġ200 6
het ically
fil ename
Ġclos et
Ġcomprehens ion
Ġmagaz ines
Ġcashew s
b its
ĠTh ings
Ġ( !
Ġwand ering
ĠTra cking
Ġge ographic
ĠJul ia
Ġco pper
ĠMan ufact
à¸ «
Ġ à¤
el o
Ġamong st
ĠPak istan
Ġbe ars
Ġfound er
Ġemb ed
Ġpersist ence
Ġreject ion
O W
Ġsw ap
Ġground ed
Ġgradu ates
Ġboost ing
ote chnology
ĠProfess or
Ġdism iss
ill age
ĠCan cer
The re
lo ss
Ġpen et
Ġinval uable
Ġo ct
E lement
O ur
ĠS her
Ġsh ield
ĠR out
Ġteas poons
ĠUr ban
ĠHawai i
Ġo ak
Ġsh ook
Ð¸ Ðµ
ĠClass ic
ĠInit i
ign on
ass ium
Ġcar vings
ĠHosp ital
Ġhol istic
Ġvib e
Ġastron om
ĠAN D
y pe
ĠSt orage
f i
ud ge
Ġad mission
à¸ ´
Ġri pp
ĠTem ple
Ġb iodegradable
Ġh ue
ĠF ar
ĠSim ple
ol ine
ĠA CT
um bs
Ġp orts
Ġor n
Ġbeat en
Ġearn ings
Ġwhisp ered
3 6
ĠM as
Ġfun c
Ġsubsequ ent
ĠMar ie
Ġcraft sm
t ail
Ġn orthern
Ġcon ferencing
ĠC u
ĠG luten
xt ures
ĠTra de
ĠAct ivities
Ġmetab olism
ĠCla ire
Ġsex ual
å ¹
Ġne ces
ex c
Ġrelig ions
Ġtransl ucent
ĠMah al
M an
h r
Ġb out
ĠEx cel
yl v
Ġbul bs
Ġob vious
Ġcaf e
Ġhoriz ont
ĠEffect s
z o
Ġun less
ĠN E
Ġb ark
Ġd Ã©
Ġperson a
Ġemploy er
Ġ _
aj o
ĠCour se
Ġprinc iple
Ġau ction
Ġprincip al
al ized
Ġvot ers
mel on
Ġch ase
ĠP ine
Ġins pect
oles ter
ĠEgypt ians
ĠInnov ation
Ġp ione
Ġar med
ens us
Ġdr ums
qu is
ĠB ad
Ġcons olid
Ġsou ven
Ġcompl iance
Ġsin ister
al t
Ġenter prise
he imer
re se
Ġsl ides
ĠOl iver
ĠGar nish
Ġsome where
Ġear ning
Ġhead ings
Ġware house
olester ol
ent a
Ġpe ar
ustom er
Ã ª
Ġc iv
Ġre ception
Ġst al
se a
Ġpart ial
ĠSer ver
Ġsimilar ities
Ġhomeless ness
Ġgam ification
Ġsupp lier
Ġa steroid
om ena
ĠM ail
Ġun ic
Ġsupport ers
iss ors
p op
Ġanalyz es
Ġmagn ific
ĠRef lect
ĠE le
ĠV ers
Ġvot ing
Ø §
Ġfl ut
Ð½ Ð¾Ð¹
Ġsymbol izes
( (
Ġad j
ĠI ron
Ġcar ries
Ġconscious ness
ĠC her
Ġlong ing
tern ut
Ġdel ve
ĠResp ons
Ġmerchand ise
Ġread ability
Ġamb itious
Ġrefriger ate
ĠFollow ing
Ġversat ility
à ¥
3 9
ch at
Ġsn ap
Ġcas serole
achel or
Ġtiss ues
ĠScan ner
ĠH as
Ġprogress ive
8 9
per or
Ġint r
Ġexp ense
art s
ĠF ashion
are st
ĠCh anges
ĠM s
Ġprogress es
Ġconvey ing
ĠHar vard
P D
Ġepis odes
Ġcompan ion
ĠIntellig ence
b in
get ic
çļĦ æ
Ġpour ing
oc a
ĠP om
Ġcent re
Ġhop ed
Ġb orrow
ĠL iam
Ġknowledge able
ĠAgricult ure
ĠH ad
ĠGo gh
he arted
r ator
ra q
st ro
ser ver
Ġiter ate
Ġproduct ions
Ġpub lish
Ġfil tered
ER E
Ġprin ter
ĠVeget ables
ĠN a
Ġimpact ing
Ġinvest igating
Ġdisrupt ed
Ġmix er
ant er
Ġcr ush
Ġsn ipp
Ġpra ised
Ġoppon ents
g ue
ĠH or
Ġsc all
ric ular
Ġke en
Ġgra pp
Ġcolor ing
Ġmot ives
Ġsun ny
Ġencry pted
ĠW ine
ick ed
Ġconsult ation
Ġconvent ions
ĠF ield
Ġcatch ing
ĠIce land
l an
ĠL es
Ġent ries
ĠUn like
Ġconsist ing
Ġcuis ines
Ġvacc ine
Ġpreval ent
f ried
ĠRecommend ations
ĠOtt oman
h ol
in ning
ve ill
ok ed
Ġsubst ring
Ġperm issions
Ġp ita
ĠI M
pl ing
ap i
Ġfle eting
qu es
ĠCh oosing
Ġfresh ness
Ġtast ing
() :
Ġthick er
er ve
Ġst ocks
rel s
Ġcondition ing
Ġweak ness
Ġst ems
Ġle nd
Ġdes cend
Ġmed ic
Ġterm inal
Ġen zymes
Ġpe aks
enc ing
ĠVict oria
r idge
Ġscar f
> <
ge vity
Ġsubmit ted
Ġg ems
Ġsp ider
v ised
Ġdiction ary
Ġp est
Ġm eth
Ġbe et
Ġr iders
ĠR ay
ĠDe b
Ġfunctional ities
8 8
ĠD ouble
Ġprog ression
Ġbu gs
ĠComput er
Ġshimmer ing
A t
F orm
G et
v ation
Ġd iving
ic on
ve t
pp y
ĠY ellow
Ġexp ed
ĠAre a
h our
reat h
Ġcreat ors
Ġwear able
discipl inary
Ġrect angle
Ġsub m
Ġwed ges
Ġreferr ing
Ġnecess arily
Ġcorpor ations
it oring
Ġp m
Ġprov ision
Ġtal es
Ġalg un
ĠGr ill
Ġine v
he ight
Ġpr izes
amp s
Ġterr ified
Ġforg ive
ĠImpro ving
omet ers
Ġprofit able
Ġcaf Ã©
Ġsear ches
Ġphen omena
ĠVolunte er
focus ed
ĠS lic
ĠL oop
Ġ19 0
Ġpul se
c le
or ph
Ġdef ects
ĠLa ura
cel ona
Ġt in
Ġro pe
Ġhome owners
Ġnovel s
F C
ĠN est
Ġpr one
Ġgra pes
Ġt idal
Ġt ahini
Ġh alls
Ġor gans
ĠM es
Ġtou g
Ġrec ru
Ġ== =
Ġinnoc ent
Ġuncom fortable
er ic
or rect
Ġw estern
ĠÐ ¶
Ġmet als
ĠC ru
Ġde le
ĠO ak
Ġwater ing
Ġrecogn izable
Ġcom plications
ĠH em
Ġimportant ly
Ġspot ted
Ġnegot iate
v ens
ĠSt ation
ĠPh ilipp
Ġscholars hips
Ġpre heated
Ġdis k
ĠUS B
Ġtang ible
Ġequ itable
Ġattract ed
Ġweb inar
acter ial
ĠPsych ology
veill ance
ag g
Ġreve als
Ġabsor bed
G B
Ġre he
Ġpol ls
Ġwhere as
Ġlou der
ac ious
ĠR NA
ĠAr range
Ġf ades
is ol
Ġrad i
organ ized
m outh
ĠH ash
ĠÐ¿ ÑĢ
Ġwat ches
Ġske ptical
Ġrib bon
Ġh ook
Ġbrut al
g reen
cc iÃ³n
ĠCh ief
ĠMe et
Ġjal apen
Americ an
tain er
ĠT aj
ĠA k
ĠV ari
Ġinf ection
Ġdiv or
Ġsatisf y
ĠEvery thing
sec ond
O ut
Ġinteract ing
A V
Ġre ar
us ions
Ġpro ps
Ġal ley
ĠH ig
Ġfilm makers
Ġ1 20
Ġlik ed
Ġguid ing
Ġpress ed
Ġexce l
Ġportray ed
Ġfif th
Ġbl ocking
ĠC old
ac u
Ġconv ince
Ġrasp berries
Ġexam ining
Ġlist ing
Ġsol ved
Ġmis understand
al ph
ĠEm erg
Ġisland s
b bing
t ml
ĠN ig
Ġback yard
ĠT am
Ġ3 4
Ġsimpl ify
h ift
p y
Ġth rowing
Ġl oos
ĠL amb
Ġman uscript
sh ore
Ġpictures que
O D
c at
Ġturn over
ĠOff ering
Ġextensive ly
ĠF red
Ġnod ded
= {
ĠIn v
Ġdem ocratic
ĠSpin ach
Ġen er
du ce
Ġsm iling
Ġprom ises
Ġapplic able
ĠAg ain
Ġbuck et
Ġth roat
Ġge ography
Ġpossess ed
Ġd roughts
ag u
ient e
Ġed ited
f illed
z heimer
å º
Ġplug ins
light s
ĠM erc
Ġcompet itor
Ġfle w
ĠS at
St ate
Ġtransition ing
on ent
ĠG h
Ġfl aw
å ¼
é Ģ
ere n
eng u
erm int
ĠUn ivers
Ġground breaking
ĠGradu ally
s ers
ĠB ab
Ġfranch ise
re a
Ġlon gevity
P s
c m
ant a
ĠR ail
und ry
Ġdry ing
Ġphotos ynthesis
P L
Ġmed ian
in ator
ĠC raft
ĠL ie
Ġam end
ble m
Ã¼ r
ĠEth iop
ĠH ello
ĠM iller
¿ ½
ic op
Ġspecial ist
ĠVal ent
Ġwel comed
ÑĩÐµ ÑģÐº
d ocument
Ġacc ents
play ing
Ġclin ics
ct ar
Ġfra gment
Ġb inding
ĠP u
ÐµÐ½Ð¸ Ðµ
Ġexh ale
ĠBuddh ist
ĠS ide
Ġaud it
Ġalign ment
Ġdistur b
% ;
U LL
ĠI raq
ĠG ather
ĠFit ness
ut il
art e
sh ine
ä¸ į
Ġsome how
Ġequ ation
Ġscra ps
f ruit
ol ar
igh th
Ġgre y
ĠAm ong
Ġpractition ers
ĠW ire
ĠSt ill
à¸ ķ
Ġgradu ation
ad ise
plic ates
Ġestim ates
isc al
Ġscram bled
ju ven
ĠR ot
ĠAr gent
Ġprec ip
asm ine
le vant
Ġl ingu
Ġne ctar
Ġun su
Ġlog ging
Ġrain bow
à¸ ļ
Ġreview ing
Ġcert ifications
ĠST EM
Ġportray al
ĠKat ie
L et
id ades
Ġuser name
Ġtrain ers
ĠOrgan ize
t em
Ġst igma
Ġun healthy
ap or
ĠEm otional
Ð½ Ð¾Ð³Ð¾
Ġbright ness
Ġpued en
Ġintent ions
ĠO UT
Ġins ulin
Ġengine er
ĠSmooth ie
ï ¿½
Ġcal orie
Ġdrag ons
ĠMarg aret
d ir
ĠC ass
Ġinter vals
Ġcru el
Ġanticip ated
red it
Ġ{ }
ist ed
est y
ĠSt ream
ĠEx c
ĠAust in
Serv ice
ĠCol lection
ĠP ush
ĠAm y
ĠAp ache
Ġnostalg ia
M ENT
Ġback drop
ĠPr ivate
Ġfav our
ing ing
Ġb ou
ĠM anche
ĠAl zheimer
ĠEm b
Ġste amed
lies t
cur ricular
C o
Ġsu ite
ĠD un
ivers ary
Ġz u
ĠCar la
Ġconver ting
ĠSn ack
Ġvirt ually
Ġorn ate
ĠH u
Ġman e
Ġtrans itions
Ġdec ides
ĠAr iz
Ġstream lined
ĠMem bers
w arm
Ġclim bed
vo king
Ġprocrast ination
c d
ĠG a
Ġhumor ous
Ġneur ons
4 7
is ons
i ot
er ved
ow een
Ġpop corn
ÑģÑĤ Ð¾
ĠCh o
Ġinter personal
ĠBar celona
ĠUp date
ĠSil ver
ĠL ocation
ĠK u
20 18
ett es
Ġnewsp apers
Ġdoll ar
6 9
re me
Ġstri p
Ġdeb ut
Ġener getic
Ġw age
Ġm our
ol er
Ġactiv ation
Ġpal m
oust on
ver ted
Ġvol umes
Ġfail s
Ġdeploy ed
Ġrebell ion
Ġmisunderstand ings
Ġcan cell
te x
Ġcar bs
Ġwar fare
Ġcater ing
Ġanticip ate
Ġdefin ition
Ġp ython
an ation
ont o
Ġlic ense
Ġphysi ological
iend o
Ġexplore rs
ot te
ĠP ap
Ġun ravel
Ġroot ed
Ġench anted
4 00
Ġas cending
Ġper mission
Ġhome work
Ġdetect ing
ro ck
ĠB read
ĠNav y
ĠLay er
Ġpain ful
Ġther most
deg ree
l ink
Ġ4 8
Ġcheck ed
Ġd ill
Ġcl aws
ĠN ob
ĠShe l
pro voking
Ġhyd rop
ĠGall ery
S ub
un ct
Ġd ug
ag ger
ĠHindu ism
Ġst iff
od ied
ĠSt ret
ĠSar a
ag le
oc ity
Ġat tain
ĠMa ori
' ).
Ġp H
id as
Ġun ion
Ġrain water
erse y
ä½ ł
Ġmes h
Ġs ab
Ġm erm
ĠP aper
ĠL ever
Ġstrengthe ning
) `
Ġhapp ier
Ġir re
ĠContin ue
Ġpe cans
oc ating
ĠAdminist ration
A F
as ka
Ġbo ats
Ġstress ful
Ġcyc les
ĠLa unch
Ġrepet itive
H ello
v i
è §
ĠF rame
w a
Ġout fits
Ġmar ble
Ġ200 4
Ġschol ar
Ġpreval ence
on ge
as ion
ow der
Ġexam s
Ġincent ive
Ġtrem end
Ġinterf aces
ä ¼
Ġr ushed
la ugh
yn c
ĠBro ther
Ġdepic ts
3 1
ĠB rain
ĠP ad
ĠInt el
iam i
O V
Ġe in
osp ace
Ġsle e
Ġdiagn osed
d et
a ired
Ġscreen ing
ĠOl ive
in ite
Ġw est
Ġelim inating
Ġfacilit ated
Ġrins ed
Ġ3 7
Ġdiagn ost
i h
ĠVe gg
Ġattempt ing
ĠStand ard
e z
off s
ĠF ive
Ġjo kes
aw a
Ġdress es
Ġposition ing
Ġhung ry
Ġve ins
Ġbase ball
o oms
ĠS ab
ĠB aked
Ġexam ines
Ġinter fere
Ġcrit ically
Ġsacrific ing
ĠBeaut y
ĠSARA H
Ġvers us
Ġur ge
Ġtut oring
ĠNutrition al
å ¯
Ġun ited
Ġtre asures
que ue
Ġpartic le
Ġdist ress
Ġgood bye
Ġrenew al
Ġunf old
ĠF R
Ġsh ame
ĠF er
Ġgrad ient
o il
le e
Ġh ats
ra duate
Ġpre served
ar g
Ġfe ared
ÑĢÐµ Ð´
L T
ĠB rad
op her
Ñģ Ðµ
Ġattribut ed
Ġro d
Ġiss ued
ere s
Ġall iances
Ð» Ð¾
Ġapproach ing
20 19
Ġsus cept
Ġrum ors
ĠTik Tok
æ Ŀ
ĠS ri
Ġtrans mit
ĠSec ure
on ing
ĠP ie
are a
Ġread able
Ġinsp ires
ĠLead ership
Ġs ig
ĠB M
ĠSw ift
äº Ĩ
o bs
Ġc ats
ach us
U D
ans as
Ġhead ed
ĠAll iance
Ġsyn c
Ġdatas ets
ĠManche ster
ĠK y
Ġcard board
ĠCult ure
Ġexhaust ion
par am
ĠHall oween
Ġbutterf lies
Ġmej or
æ Ĺ
int ensity
me let
ir ical
ĠL ux
T ra
i otics
ard o
Ġsk ies
Ġquestion ing
Ġre juven
Ġse as
Ġdev otion
Ġupg rades
ĠS D
ur istic
Ġbel t
Ġpip eline
ĠM ent
Ġrel ation
Ġ} ;
Ã© t
ĠZ e
h ome
Ġt iles
Ġbenef ited
Ġcapt ions
Ġfavor ites
( ),
d ra
Ġstand out
Ġeffic acy
Ġwhites pace
Ġobl ig
c ult
k o
l ide
Ġst un
els ius
Ġimportant e
Ġless er
ils on
Ġcalcul ating
Ġsynt hesis
Ġheav en
Ġrooft op
t rue
Ġj og
ĠU t
ĠMon itoring
Ġjourn als
Ġpharm aceutical
f red
ruct ive
Ġtext ile
Ġste al
Ġthr iller
Ġ19 50
Ġw oven
ĠT oy
ĠCap ital
Ġdepr ivation
W ords
Ġjud ges
b ott
Ġg n
ĠC rit
Ġtre k
ĠSh aring
ä¸ Ń
ĠÑį ÑĤÐ¾
ĠB ru
ĠL ater
Ġdiam eter
è ¡
ĠT ai
Ġhel pless
Ġgre eted
ĠAss ign
Ġlent il
ĠAriz ona
act ic
Ġcol our
Ġgu ards
Ġrain forest
Ġstret ched
Ġattack ed
Ġcryst als
] (
Ġm ol
et ooth
Ġpot assium
ĠChat b
ĠM ason
Ġtru cks
Ġvivid ly
Ġcolleag ue
us ers
ous ing
ĠM i
ĠB ooks
ĠD ip
Ġadd itions
Ġper f
we ed
Ġinv ention
ott age
Ġspir al
Ġafford ability
P oint
Ġp el
Ġind irect
Ġ6 5
Ġcut e
ĠPol itical
W or
Ġg ly
Ġsp elling
ple te
ĠĠĠĠĠĠĠĠĠĠĠĠ ĠĠ
Ġw ages
ail able
Ġ3 60
Ġsub ur
la im
ĠAut hent
Ġsynt hes
m all
Ġc ous
Ġl over
ag ne
ĠB oy
âĢ ľ
Ġfin ishes
Ġload ed
Ġmir rors
Ġtap est
forest ation
Ġw olves
Ġsequ ences
ĠWal mart
ĠInvest ment
ed ia
ve red
ĠF ruit
ens itive
effect iveness
Ġre serve
ĠP or
ĠK ids
Ġfig ur
Ġfort une
n ia
Ġas ks
ĠEv ents
Ñĥ ÑĤ
Ġprop ag
ĠSpot ify
h ouses
Ġst roll
ĠC ognitive
ĠN orm
Ġman ually
Ġproject ions
ĠArt ificial
Ġsto pping
Ġper pet
ĠK ent
ĠInd epend
ĠExpl anation
ĠS H
Ġcl ove
Ġcount ing
C an
Ġg aze
st on
ĠB row
Ġsy nd
Ġmel an
Ġdistract ed
Ġupl ifting
Ġcaut ion
Ġo min
iling ual
Ġej empl
un s
Ġoff set
Ġcapt ion
Ġacid ity
Ġh ug
ĠO pportun
og ram
Ġconsider able
b et
Ġt ric
Ġbuy er
Ġnur se
Ġf ract
Ġsmo other
p ng
r ans
t ry
Ġw ars
ĠR ather
Ġk in
Ġfr ight
Ġred irect
Ġscroll ing
Ġmembr ane
Ġt weet
ĠP izza
ÐµÑĤ ÑģÑı
ĠOrgan ic
ĠSum mar
Ġalph abet
Ġchur ches
Ġl anes
ric ts
Ġbr ushes
Ġexp ose
Ġpos ed
ster dam
Ġtranqu il
Ġrelie ved
ĠImag ine
ol ate
Ġswitch ing
çĶ ¨
Ġexp orts
Ġmethod ologies
Ġwild flowers
Ġh ref
ĠSt ick
Ġclass mates
Ġterrit ories
Ġwithd raw
ĠIndones ia
T e
Ġrecogn izes
Ġarg s
Ġp acking
Ġfor um
own ed
f a
le m
Ex ception
a pping
å ¸
Ġen velop
mo il
ĠG re
Ġfre ely
opt ion
ĠSl ack
b oy
å ¾
Ġf isher
ĠP oor
Ġcar ved
ĠStart ing
ĠCook ies
ĠAtt ach
r d
s qu
Ġt ribute
Ġl akes
Ġgl ac
Ġaest hetics
Ġrecur ring
c ia
Ġst adium
ĠB ern
Ġmod ular
Ġlow est
Ġquant ities
eal ous
Ġsh attered
Ðº Ñĥ
Ġemb ell
Ġrecurs ive
c reate
ĠB rew
ĠÐ Ŀ
Ġactiv ate
Ġcompos ers
Ġtooth p
Ġacknowled ging
m t
ĠSt ories
Ġmult ip
B ased
ke nds
ats by
Ġadolesc ents
è ¦
ar o
Ġwas hed
Ġsur veillance
Ġwin ners
Ġch olesterol
Ġqu ad
ĠTo ast
the w
Ġbe verages
ad el
ĠE at
Ġso aring
Ġclim ax
Ġlegend ary
ĠO N
Ġwar riors
8 00
Ġde af
ĠW at
ĠBro ok
ĠBer lin
ro be
Ġauthor ization
Ġmeat balls
ĠHol y
Ġmes mer
ĠP aint
Ġworkflow s
Ġrepeated ly
ĠR ow
ĠK ong
Ġhope ful
om etry
us ive
ĠE ye
Ġ$ {
Ġdish was
Ġaw k
ĠAtl antic
umb bell
p rom
ĠD ave
Ġtur moil
Ġbright ly
Ġvolcan ic
Â ł
ve ment
Ġst er
Ġno ises
ant ine
ĠM iami
Ġcar p
ĠFin ance
ĠKe vin
bec ue
ĠColumb ia
Ġmagnific ent
ĠAs ana
qr t
ĠA y
.. ..
Ġrepl ied
ĠCur ry
ĠM ust
ĠRo le
Ġadm ire
Ġstain ed
0 1
ĠC afe
Ġexpl osion
Ġcru ise
ĠH annah
ĠW aste
ĠF OR
Ġsod ium
c ycle
Ġc ited
ĠF ahrenheit
ĠO F
ĠJ ay
rehe nd
Ġleft overs
Ġdy n
Ġlegis l
Ġp ockets
Ġcompos itions
Ġcran berries
ĠS ite
ke ys
Ġinter val
ĠK elly
Ġag rees
Ġdisc ard
Ġcra b
ull s
Ġinstant ly
Ġbless ings
b us
j pg
Ġ5 5
Ġref ined
Ġfil ename
ĠCount ry
Ġrush ing
Ġacoust ic
Ġs ch
ĠB and
ĠL oad
Ġclass ification
Ġdisput e
ĠRes erve
Ġmagn et
Ġcrit ics
uck y
ĠF ox
ĠÐ ¡
6 3
I O
a fter
ĠG ram
Ġra ises
Ġprot ests
Ġdirect ories
ĠRes istance
Ġwar rior
ĠSuccess ful
Ġprolong ed
ĠC os
Ġrep os
ĠAddition al
ĠPer u
lear ning
ĠsautÃ© ed
s ur
el p
ĠB rian
ĠN OT
ĠU ber
Ġret ro
ĠAn th
Ġtem po
Ġball oon
Ġmill enn
b en
ac eted
ĠEss ential
ĠH ouston
Ġmaj estic
Ġfire wall
ĠPr ize
Ġpros pect
Ġalle g
K ey
Ġm ism
Ġsyn chron
S pot
Ġo h
Ġ3 3
Cl ient
Ġton ight
Ġd ying
enn y
Ġple asant
Ġs avor
Ġw ipe
Ġe ternal
Ġen rich
Ġfarm er
Ġcop ies
ul se
Ġcon form
Ġev acu
Ġfl ora
Ġun le
Ġcap s
Ġbeg un
Ġsquee ze
Ġnightm are
Ġhudd led
Ġw rist
ĠL ew
Ġform ations
nam ents
ĠRep resent
Ġforecast ing
ĠResp onse
Ġenerg ized
Ġcan n
ĠO w
Ġso othe
Ġtherap ists
Ġcin ema
l it
arm a
Ġear rings
idd ing
Ġvoc als
ĠD am
Ġres ent
Ġpill ow
Ġski ing
Ġfeas ibility
Ġbo iled
Ġelev ate
Ġdisput es
Ġp end
Ġcom ic
ĠD ise
ĠHum mus
" ).
erm an
Ġlim bs
Ġmar athon
ĠRes ort
è¿ Ļ
rac le
Ġgroom ing
ar ium
à¸ ª
ĠBro ad
f ires
ĠC reek
Ġabund ant
ĠN Y
Ġdr ill
Ġdiff ers
ĠSp icy
Ġpray ers
Ġf ond
Ġh acer
ĠRe ality
âĢĿ ,
Ġcalcul ations
Ġrecyc le
Ġteen age
ĠInterest ing
ĠB ot
Ġ( "
Ġsecure d
Ġsepar ation
Ġlifest yles
Ġ )
Ġp acing
Ġth ief
Ġmy ths
Ġrem inis
ĠL at
__ _
ĠLa ure
Ġnurt uring
ĠD ad
Ġdis ruption
Ġtyp ing
Ġstrong ly
ĠPe anut
Ġevalu ated
Ġinqu ire
Ġpersist ent
Ġparagraph s
Ġsc iences
Ġdel ved
Ġcreative ly
Ġoat meal
Ġam ple
Col or
ke eping
em ed
E l
Ġeng ages
Ġemploy s
Ġbub bly
Ġtun nel
ĠCh air
Ġgener ous
Ġcross ed
au ge
Ġay ud
Ġv ig
Ġsoph ist
Ġf iscal
ern ame
Ġmit igation
ĠQuant um
Ġla zy
Ġh ood
Ġwrit es
Ġsour cing
Ġvacc ines
Ġcatast rophic
ys c
Ġla undry
Ġsl og
ÑĤÑĮ ÑģÑı
Ġlegis lation
ĠBlu etooth
ri pe
iff el
Ġcaramel ized
P M
ĠA B
Ġun iqu
un ci
Ġ3 8
Ġattract s
Ġadvoc ating
Ġblank ets
Ġhaz ard
or ney
Ġbe ers
Ġha irst
Ġhome page
Ġexecut ing
ĠPer fect
Ð½Ñĭ Ð¹
Ġtheat re
Ġpur ity
ĠEd ward
Ġlabel ed
Ġh ilar
Ġr ug
Ġrep roduct
Ġbr ass
Ġmon ument
ĠMay an
Ġec ological
Ġprev ents
ĠC opy
ĠAd apt
Ġexecut ives
Ġdownt ime
ĠSummar ize
W ith
per formance
Ġimag in
Ġquant itative
ĠJon athan
W hen
ĠT alk
Ġv ines
ĠDec or
it ems
ĠG rowth
Ġban ner
Ġrecurs ively
Ġbron ze
Ġl ing
ĠS or
ĠSim on
Ġmulti pl
r ar
av y
Ġbrand ed
ĠBe ef
The y
Ġge ological
Ġdemonst rations
Ġdecor ation
Ġinstruction al
Ġfacilit ating
Ġchampions hip
R S
Ġre use
int on
ĠÐ ļ
Ġprogress ed
Ġintim acy
Ġit iner
qu et
Ġsc ary
Ġprogram me
ĠFriend s
Ġsophist ication
ĠP ump
ĠV ent
Ġair lines
Ġadapt ive
Ġdream ed
Ġbon us
Ġmart ial
ĠB ed
Ġhuman itarian
ÑĤÐµ Ð»ÑĮ
Ġw ounds
Ġy ard
et ts
Ġcontro vers
ĠAm sterdam
ĠDiv ision
e or
Ġj ealous
Ġwand ered
l ining
â ĸ
ĠIm m
Ġnob ody
Ġh tml
Ġl ately
Ġport ions
urs es
Ġrecon nect
Ġnu anced
Ġm amm
ĠH ong
Ġhost ile
Ġabs ent
su ite
ĠAss emb
Ġattempt ed
Ġimmig rants
Ġprecip itation
n ormal
Ġwh ales
Ġgrand eur
Ġcopy right
Ġper o
lus ions
ĠPh oenix
Ġcelebr ity
Ġoppon ent
Ġprofic iency
u z
Ġp unch
ĠB oost
ish ments
Ġdeterm ines
aps ed
ĠAf ghan
Ġcompos er
ry st
Ġval ley
Ġprint f
Ġbal let
Ġremov al
Ġunw ind
Ġth resh
Ġra is
Ġcamp s
ĠThanks giving
ĠPres ent
ĠVitam in
Ġmar king
ĠL una
ĠJ azz
ĠU C
Ġappe als
Ġf ame
Ġconcent rate
str ings
oub ted
c ies
ĠR isk
be havioral
ĠJenn ifer
G u
Ġpro pose
Ġcon veys
ĠJ r
ile y
Ġsche ma
Ġpollut ants
ĠMat thew
ĠVoice over
S e
t im
Ġconsider ations
oubted ly
Ġconvey ed
e ing
Ġpress ures
ĠOr leans
Ġdam aging
ĠInvest ing
Ġremed ies
ĠS ugar
ĠC ore
Ġv ice
Ġinc orrect
ĠSt ra
S um
Ġn ail
ĠI ss
ĠW ilson
Ġpl un
ĠL ess
ond e
Ġimpro vis
ĠMy SQL
resp onse
Ġtag line
Ġp ins
Ġh ind
Ġbusiness man
Ġmakes hift
cent ury
ĠPol ic
ac ies
Ġmed als
Ġsub mission
ĠMan aging
st an
se lect
play er
Ġb ites
Ġd anced
pe ople
ĠR ol
Ġmed itate
ĠWith in
ĠPre c
ĠBar b
ĠJe an
Ġstew s
re aching
ĠH oot
ĠV PN
Ġshort age
Ġglobal ization
urch ase
H S
O b
ag ged
ĠStep hen
ĠLe ave
Ġunderg one
fil ter
achus etts
C omp
g roup
Ġc ube
Ġw ander
Ġreg ener
hor a
Ġtun nels
ĠP PC
Ġgar age
Ġf og
Ġutil ization
Ġnost r
D S
ĠA er
ĠL A
Ġpropos als
Ġallerg ies
ĠC ake
Ġcl iff
Ġcl usters
ĠSt ock
Ġrout er
Ġspect rum
ĠMaj or
è¦ ģ
Ġt ons
ĠD ry
ĠR aj
Ġadv ancing
Ġemerg encies
Ġlifel ong
s chool
Ġl ady
ĠO R
Ġlay ered
Ġmuff in
it zer
ot on
ur d
Ġtheore tical
á »
ĠP ict
ĠF low
ĠE uc
ĠTechn ologies
Ġda wn
ĠMem orial
Ġcort isol
Ġspic ier
round ed
ĠK a
ĠDe ath
Ġadm iration
Ġlon ely
æ ķ
ro ts
ĠF ra
Ġhel icop
à¹ ģ
Ġencry pt
Ġhydro electric
Ãº n
ĠD ou
Ġresol ving
Ġcomment ary
Ġc yl
Ġw ok
Ġv it
Ġli ver
Ġdeep est
Ġalle ged
Ġkid ney
